{
  "version": "1.0",
  "truncation": {
    "direction": "Right",
    "max_length": 128,
    "strategy": "LongestFirst",
    "stride": 0
  },
  "padding": {
    "strategy": {
      "Fixed": 128
    },
    "direction": "Right",
    "pad_to_multiple_of": null,
    "pad_id": 0,
    "pad_type_id": 0,
    "pad_token": "[PAD]"
  },
  "added_tokens": [
    {
      "id": 0,
      "content": "[PAD]",
      "single_word": false,
      "lstrip": false,
      "rstrip": false,
      "normalized": false,
      "special": true
    },
    {
      "id": 1,
      "content": "[UNK]",
      "single_word": false,
      "lstrip": false,
      "rstrip": false,
      "normalized": false,
      "special": true
    },
    {
      "id": 2,
      "content": "[CLS]",
      "single_word": false,
      "lstrip": false,
      "rstrip": false,
      "normalized": false,
      "special": true
    },
    {
      "id": 3,
      "content": "[SEP]",
      "single_word": false,
      "lstrip": false,
      "rstrip": false,
      "normalized": false,
      "special": true
    }
  ],
  "normalizer": null,
  "pre_tokenizer": {
    "type": "Whitespace"
  },
  "post_processor": {
    "type": "TemplateProcessing",
    "single": [
      {
        "SpecialToken": {
          "id": "[CLS]",
          "type_id": 0
        }
      },
      {
        "Sequence": {
          "id": "A",
          "type_id": 0
        }
      },
      {
        "SpecialToken": {
          "id": "[SEP]",
          "type_id": 0
        }
      }
    ],
    "pair": [
      {
        "Sequence": {
          "id": "A",
          "type_id": 0
        }
      },
      {
        "Sequence": {
          "id": "B",
          "type_id": 1
        }
      }
    ],
    "special_tokens": {
      "[CLS]": {
        "id": "[CLS]",
        "ids": [
          2
        ],
        "tokens": [
          "[CLS]"
        ]
      },
      "[SEP]": {
        "id": "[SEP]",
        "ids": [
          3
        ],
        "tokens": [
          "[SEP]"
        ]
      }
    }
  },
  "decoder": null,
  "model": {
    "type": "BPE",
    "dropout": null,
    "unk_token": "[UNK]",
    "continuing_subword_prefix": null,
    "end_of_word_suffix": null,
    "fuse_unk": false,
    "byte_fallback": false,
    "ignore_merges": false,
    "vocab": {
      "[PAD]": 0,
      "[UNK]": 1,
      "[CLS]": 2,
      "[SEP]": 3,
      "!": 4,
      "\"": 5,
      "#": 6,
      "$": 7,
      "%": 8,
      "&": 9,
      "'": 10,
      "(": 11,
      ")": 12,
      "*": 13,
      "+": 14,
      ",": 15,
      "-": 16,
      ".": 17,
      "/": 18,
      "0": 19,
      "1": 20,
      "2": 21,
      "3": 22,
      "4": 23,
      "5": 24,
      "6": 25,
      "7": 26,
      "8": 27,
      "9": 28,
      ":": 29,
      ";": 30,
      "<": 31,
      "=": 32,
      ">": 33,
      "?": 34,
      "@": 35,
      "A": 36,
      "B": 37,
      "C": 38,
      "D": 39,
      "E": 40,
      "F": 41,
      "G": 42,
      "H": 43,
      "I": 44,
      "J": 45,
      "K": 46,
      "L": 47,
      "M": 48,
      "N": 49,
      "O": 50,
      "P": 51,
      "Q": 52,
      "R": 53,
      "S": 54,
      "T": 55,
      "U": 56,
      "V": 57,
      "W": 58,
      "X": 59,
      "Y": 60,
      "Z": 61,
      "[": 62,
      "\\": 63,
      "]": 64,
      "^": 65,
      "_": 66,
      "`": 67,
      "a": 68,
      "b": 69,
      "c": 70,
      "d": 71,
      "e": 72,
      "f": 73,
      "g": 74,
      "h": 75,
      "i": 76,
      "j": 77,
      "k": 78,
      "l": 79,
      "m": 80,
      "n": 81,
      "o": 82,
      "p": 83,
      "q": 84,
      "r": 85,
      "s": 86,
      "t": 87,
      "u": 88,
      "v": 89,
      "w": 90,
      "x": 91,
      "y": 92,
      "z": 93,
      "{": 94,
      "|": 95,
      "}": 96,
      "~": 97,
      "": 98,
      "": 99,
      "": 100,
      "": 101,
      "": 102,
      "": 103,
      "": 104,
      "": 105,
      "¡": 106,
      "¢": 107,
      "£": 108,
      "¤": 109,
      "¥": 110,
      "¦": 111,
      "§": 112,
      "¨": 113,
      "©": 114,
      "ª": 115,
      "«": 116,
      "¬": 117,
      "­": 118,
      "®": 119,
      "¯": 120,
      "°": 121,
      "±": 122,
      "²": 123,
      "³": 124,
      "´": 125,
      "µ": 126,
      "¶": 127,
      "·": 128,
      "¸": 129,
      "¹": 130,
      "º": 131,
      "»": 132,
      "¼": 133,
      "½": 134,
      "¾": 135,
      "¿": 136,
      "À": 137,
      "Á": 138,
      "Â": 139,
      "Ã": 140,
      "Ä": 141,
      "Å": 142,
      "Æ": 143,
      "Ç": 144,
      "È": 145,
      "É": 146,
      "Ê": 147,
      "Ë": 148,
      "Ì": 149,
      "Í": 150,
      "Î": 151,
      "Ï": 152,
      "Ð": 153,
      "Ñ": 154,
      "Ò": 155,
      "Ó": 156,
      "Ô": 157,
      "Õ": 158,
      "Ö": 159,
      "×": 160,
      "Ø": 161,
      "Ù": 162,
      "Ú": 163,
      "Û": 164,
      "Ü": 165,
      "Ý": 166,
      "Þ": 167,
      "ß": 168,
      "à": 169,
      "á": 170,
      "â": 171,
      "ã": 172,
      "ä": 173,
      "å": 174,
      "æ": 175,
      "ç": 176,
      "è": 177,
      "é": 178,
      "ê": 179,
      "ë": 180,
      "ì": 181,
      "í": 182,
      "î": 183,
      "ï": 184,
      "ð": 185,
      "ñ": 186,
      "ò": 187,
      "ó": 188,
      "ô": 189,
      "õ": 190,
      "ö": 191,
      "÷": 192,
      "ø": 193,
      "ù": 194,
      "ú": 195,
      "û": 196,
      "ü": 197,
      "ý": 198,
      "þ": 199,
      "ÿ": 200,
      "Ā": 201,
      "ā": 202,
      "Ă": 203,
      "ă": 204,
      "Ą": 205,
      "ą": 206,
      "Ć": 207,
      "ć": 208,
      "Ĉ": 209,
      "ĉ": 210,
      "Ċ": 211,
      "ċ": 212,
      "Č": 213,
      "č": 214,
      "Ď": 215,
      "ď": 216,
      "Đ": 217,
      "đ": 218,
      "Ē": 219,
      "ē": 220,
      "Ĕ": 221,
      "ĕ": 222,
      "Ė": 223,
      "ė": 224,
      "Ę": 225,
      "ę": 226,
      "Ě": 227,
      "ě": 228,
      "Ĝ": 229,
      "ĝ": 230,
      "Ğ": 231,
      "ğ": 232,
      "Ġ": 233,
      "ġ": 234,
      "Ģ": 235,
      "ģ": 236,
      "Ĥ": 237,
      "ĥ": 238,
      "Ħ": 239,
      "ħ": 240,
      "Ĩ": 241,
      "ĩ": 242,
      "Ī": 243,
      "ī": 244,
      "Ĭ": 245,
      "ĭ": 246,
      "Į": 247,
      "į": 248,
      "İ": 249,
      "ı": 250,
      "Ĵ": 251,
      "ĵ": 252,
      "Ķ": 253,
      "ķ": 254,
      "Ĺ": 255,
      "ĺ": 256,
      "Ļ": 257,
      "ļ": 258,
      "Ľ": 259,
      "ľ": 260,
      "Ŀ": 261,
      "ŀ": 262,
      "Ł": 263,
      "ł": 264,
      "Ń": 265,
      "ń": 266,
      "Ņ": 267,
      "ņ": 268,
      "Ň": 269,
      "ň": 270,
      "ŋ": 271,
      "Ō": 272,
      "ō": 273,
      "Ŏ": 274,
      "ŏ": 275,
      "Ő": 276,
      "ő": 277,
      "Œ": 278,
      "œ": 279,
      "Ŕ": 280,
      "ŕ": 281,
      "Ŗ": 282,
      "ŗ": 283,
      "Ř": 284,
      "ř": 285,
      "Ś": 286,
      "ś": 287,
      "Ŝ": 288,
      "ŝ": 289,
      "Ş": 290,
      "ş": 291,
      "Š": 292,
      "š": 293,
      "Ţ": 294,
      "ţ": 295,
      "Ť": 296,
      "ť": 297,
      "Ŧ": 298,
      "ŧ": 299,
      "Ũ": 300,
      "ũ": 301,
      "Ū": 302,
      "ū": 303,
      "Ŭ": 304,
      "ŭ": 305,
      "Ů": 306,
      "ů": 307,
      "Ű": 308,
      "ű": 309,
      "Ų": 310,
      "ų": 311,
      "Ŵ": 312,
      "ŵ": 313,
      "Ŷ": 314,
      "ŷ": 315,
      "Ÿ": 316,
      "Ź": 317,
      "ź": 318,
      "Ż": 319,
      "ż": 320,
      "Ž": 321,
      "ž": 322,
      "ſ": 323,
      "Ə": 324,
      "ƒ": 325,
      "ơ": 326,
      "Ƭ": 327,
      "ư": 328,
      "ǀ": 329,
      "ǁ": 330,
      "ǂ": 331,
      "ǃ": 332,
      "ǌ": 333,
      "Ǎ": 334,
      "ǎ": 335,
      "Ǐ": 336,
      "ǐ": 337,
      "Ǒ": 338,
      "ǒ": 339,
      "Ǔ": 340,
      "ǔ": 341,
      "ǖ": 342,
      "ǘ": 343,
      "ǚ": 344,
      "ǜ": 345,
      "ǝ": 346,
      "Ǣ": 347,
      "ǣ": 348,
      "ǧ": 349,
      "Ǫ": 350,
      "ǫ": 351,
      "ǰ": 352,
      "ǽ": 353,
      "ȗ": 354,
      "ș": 355,
      "Ȳ": 356,
      "ȳ": 357,
      "ɐ": 358,
      "ɑ": 359,
      "ɒ": 360,
      "ɓ": 361,
      "ɔ": 362,
      "ɕ": 363,
      "ɖ": 364,
      "ɗ": 365,
      "ɘ": 366,
      "ə": 367,
      "ɚ": 368,
      "ɛ": 369,
      "ɜ": 370,
      "ɝ": 371,
      "ɞ": 372,
      "ɟ": 373,
      "ɠ": 374,
      "ɡ": 375,
      "ɢ": 376,
      "ɣ": 377,
      "ɤ": 378,
      "ɥ": 379,
      "ɦ": 380,
      "ɧ": 381,
      "ɨ": 382,
      "ɪ": 383,
      "ɫ": 384,
      "ɬ": 385,
      "ɭ": 386,
      "ɮ": 387,
      "ɯ": 388,
      "ɰ": 389,
      "ɱ": 390,
      "ɲ": 391,
      "ɳ": 392,
      "ɴ": 393,
      "ɵ": 394,
      "ɶ": 395,
      "ɸ": 396,
      "ɹ": 397,
      "ɺ": 398,
      "ɻ": 399,
      "ɽ": 400,
      "ɾ": 401,
      "ɿ": 402,
      "ʀ": 403,
      "ʁ": 404,
      "ʂ": 405,
      "ʃ": 406,
      "ʄ": 407,
      "ʇ": 408,
      "ʈ": 409,
      "ʉ": 410,
      "ʊ": 411,
      "ʋ": 412,
      "ʌ": 413,
      "ʍ": 414,
      "ʎ": 415,
      "ʏ": 416,
      "ʐ": 417,
      "ʑ": 418,
      "ʒ": 419,
      "ʔ": 420,
      "ʕ": 421,
      "ʘ": 422,
      "ʙ": 423,
      "ʛ": 424,
      "ʜ": 425,
      "ʝ": 426,
      "ʞ": 427,
      "ʟ": 428,
      "ʡ": 429,
      "ʢ": 430,
      "ʧ": 431,
      "ʨ": 432,
      "ʰ": 433,
      "ʲ": 434,
      "ʷ": 435,
      "ʻ": 436,
      "ʼ": 437,
      "ʾ": 438,
      "ʿ": 439,
      "ˀ": 440,
      "ˁ": 441,
      "ˈ": 442,
      "ˉ": 443,
      "ˌ": 444,
      "ː": 445,
      "ˑ": 446,
      "˜": 447,
      "ˠ": 448,
      "ˡ": 449,
      "ˢ": 450,
      "ˤ": 451,
      "́": 452,
      "̂": 453,
      "̃": 454,
      "̄": 455,
      "̆": 456,
      "̈": 457,
      "̉": 458,
      "̎": 459,
      "̓": 460,
      "̗": 461,
      "̜": 462,
      "̞": 463,
      "̠": 464,
      "̥": 465,
      "̩": 466,
      "̪": 467,
      "̫": 468,
      "̭": 469,
      "̮": 470,
      "̯": 471,
      "̰": 472,
      "̲": 473,
      "̹": 474,
      "̺": 475,
      "̼": 476,
      "̿": 477,
      "͇": 478,
      "͉": 479,
      "͍": 480,
      "͑": 481,
      "͓": 482,
      "͖": 483,
      "͙": 484,
      "͚": 485,
      "͡": 486,
      "ͤ": 487,
      "ͧ": 488,
      "ͨ": 489,
      "ͩ": 490,
      "ͮ": 491,
      "Ͱ": 492,
      "Ͳ": 493,
      "Ά": 494,
      "Έ": 495,
      "Ή": 496,
      "Ί": 497,
      "Ό": 498,
      "Ύ": 499,
      "Ώ": 500,
      "Α": 501,
      "Β": 502,
      "Γ": 503,
      "Δ": 504,
      "Ε": 505,
      "Ζ": 506,
      "Η": 507,
      "Θ": 508,
      "Ι": 509,
      "Κ": 510,
      "Λ": 511,
      "Μ": 512,
      "Ν": 513,
      "Ξ": 514,
      "Ο": 515,
      "Π": 516,
      "Ρ": 517,
      "Σ": 518,
      "Τ": 519,
      "Υ": 520,
      "Φ": 521,
      "Χ": 522,
      "Ψ": 523,
      "Ω": 524,
      "ά": 525,
      "έ": 526,
      "ή": 527,
      "ί": 528,
      "α": 529,
      "β": 530,
      "γ": 531,
      "δ": 532,
      "ε": 533,
      "ζ": 534,
      "η": 535,
      "θ": 536,
      "ι": 537,
      "κ": 538,
      "λ": 539,
      "μ": 540,
      "ν": 541,
      "ξ": 542,
      "ο": 543,
      "π": 544,
      "ρ": 545,
      "ς": 546,
      "σ": 547,
      "τ": 548,
      "υ": 549,
      "φ": 550,
      "χ": 551,
      "ψ": 552,
      "ω": 553,
      "ό": 554,
      "ύ": 555,
      "ώ": 556,
      "Ϛ": 557,
      "Ϝ": 558,
      "Ϟ": 559,
      "Ϸ": 560,
      "Ϻ": 561,
      "Ͼ": 562,
      "Ё": 563,
      "Ђ": 564,
      "Ѓ": 565,
      "Є": 566,
      "Ѕ": 567,
      "І": 568,
      "Ї": 569,
      "Ј": 570,
      "Љ": 571,
      "Њ": 572,
      "Ћ": 573,
      "Ќ": 574,
      "Ў": 575,
      "Џ": 576,
      "А": 577,
      "Б": 578,
      "В": 579,
      "Г": 580,
      "Д": 581,
      "Е": 582,
      "Ж": 583,
      "З": 584,
      "И": 585,
      "Й": 586,
      "К": 587,
      "Л": 588,
      "М": 589,
      "Н": 590,
      "О": 591,
      "П": 592,
      "Р": 593,
      "С": 594,
      "Т": 595,
      "У": 596,
      "Ф": 597,
      "Х": 598,
      "Ц": 599,
      "Ч": 600,
      "Ш": 601,
      "Щ": 602,
      "Ъ": 603,
      "Ы": 604,
      "Ь": 605,
      "Э": 606,
      "Ю": 607,
      "Я": 608,
      "а": 609,
      "б": 610,
      "в": 611,
      "г": 612,
      "д": 613,
      "е": 614,
      "ж": 615,
      "з": 616,
      "и": 617,
      "й": 618,
      "к": 619,
      "л": 620,
      "м": 621,
      "н": 622,
      "о": 623,
      "п": 624,
      "р": 625,
      "с": 626,
      "т": 627,
      "у": 628,
      "ф": 629,
      "х": 630,
      "ц": 631,
      "ч": 632,
      "ш": 633,
      "щ": 634,
      "ъ": 635,
      "ы": 636,
      "ь": 637,
      "э": 638,
      "ю": 639,
      "я": 640,
      "ё": 641,
      "ђ": 642,
      "ѓ": 643,
      "є": 644,
      "ѕ": 645,
      "і": 646,
      "ї": 647,
      "ј": 648,
      "љ": 649,
      "њ": 650,
      "ћ": 651,
      "ќ": 652,
      "ў": 653,
      "џ": 654,
      "҅": 655,
      "҈": 656,
      "҉": 657,
      "Ґ": 658,
      "ґ": 659,
      "ҝ": 660,
      "ү": 661,
      "Ӣ": 662,
      "ӧ": 663,
      "Ճ": 664,
      "Շ": 665,
      "ա": 666,
      "գ": 667,
      "թ": 668,
      "ի": 669,
      "մ": 670,
      "յ": 671,
      "ն": 672,
      "շ": 673,
      "ո": 674,
      "ր": 675,
      "ւ": 676,
      "֑": 677,
      "ְ": 678,
      "ֲ": 679,
      "ִ": 680,
      "ֵ": 681,
      "ֶ": 682,
      "ַ": 683,
      "ָ": 684,
      "ֻ": 685,
      "ּ": 686,
      "׀": 687,
      "ׁ": 688,
      "א": 689,
      "ב": 690,
      "ג": 691,
      "ד": 692,
      "ה": 693,
      "ו": 694,
      "ז": 695,
      "ח": 696,
      "ט": 697,
      "י": 698,
      "ך": 699,
      "כ": 700,
      "ל": 701,
      "ם": 702,
      "מ": 703,
      "ן": 704,
      "נ": 705,
      "ס": 706,
      "ע": 707,
      "פ": 708,
      "ץ": 709,
      "צ": 710,
      "ק": 711,
      "ר": 712,
      "ש": 713,
      "ת": 714,
      "״": 715,
      "،": 716,
      "ء": 717,
      "آ": 718,
      "أ": 719,
      "ؤ": 720,
      "إ": 721,
      "ئ": 722,
      "ا": 723,
      "ب": 724,
      "ة": 725,
      "ت": 726,
      "ث": 727,
      "ج": 728,
      "ح": 729,
      "خ": 730,
      "د": 731,
      "ذ": 732,
      "ر": 733,
      "ز": 734,
      "س": 735,
      "ش": 736,
      "ص": 737,
      "ض": 738,
      "ط": 739,
      "ظ": 740,
      "ع": 741,
      "غ": 742,
      "ف": 743,
      "ق": 744,
      "ك": 745,
      "ل": 746,
      "م": 747,
      "ن": 748,
      "ه": 749,
      "و": 750,
      "ى": 751,
      "ي": 752,
      "ّ": 753,
      "ٔ": 754,
      "پ": 755,
      "چ": 756,
      "ڜ": 757,
      "ک": 758,
      "ڬ": 759,
      "گ": 760,
      "ڰ": 761,
      "ڵ": 762,
      "ہ": 763,
      "ی": 764,
      "۝": 765,
      "۞": 766,
      "۩": 767,
      "۬": 768,
      "۵": 769,
      "۸": 770,
      "ۻ": 771,
      "۾": 772,
      "ݓ": 773,
      "ݗ": 774,
      "ݜ": 775,
      "ݟ": 776,
      "ݡ": 777,
      "ݣ": 778,
      "ݭ": 779,
      "߷": 780,
      "ं": 781,
      "अ": 782,
      "आ": 783,
      "इ": 784,
      "ऋ": 785,
      "औ": 786,
      "क": 787,
      "ख": 788,
      "ग": 789,
      "घ": 790,
      "च": 791,
      "ज": 792,
      "ट": 793,
      "ठ": 794,
      "ड": 795,
      "ण": 796,
      "त": 797,
      "थ": 798,
      "द": 799,
      "ध": 800,
      "न": 801,
      "प": 802,
      "फ": 803,
      "ब": 804,
      "भ": 805,
      "म": 806,
      "य": 807,
      "र": 808,
      "ल": 809,
      "व": 810,
      "श": 811,
      "ष": 812,
      "स": 813,
      "ह": 814,
      "़": 815,
      "ा": 816,
      "ि": 817,
      "ी": 818,
      "ु": 819,
      "ृ": 820,
      "ॆ": 821,
      "े": 822,
      "ै": 823,
      "ॉ": 824,
      "ो": 825,
      "्": 826,
      "ॐ": 827,
      "०": 828,
      "१": 829,
      "२": 830,
      "३": 831,
      "४": 832,
      "५": 833,
      "६": 834,
      "७": 835,
      "८": 836,
      "९": 837,
      "ং": 838,
      "অ": 839,
      "ই": 840,
      "ক": 841,
      "জ": 842,
      "ট": 843,
      "ত": 844,
      "দ": 845,
      "ন": 846,
      "ব": 847,
      "ভ": 848,
      "ম": 849,
      "য": 850,
      "র": 851,
      "ল": 852,
      "স": 853,
      "হ": 854,
      "়": 855,
      "া": 856,
      "ি": 857,
      "ু": 858,
      "ে": 859,
      "ো": 860,
      "ৌ": 861,
      "্": 862,
      "০": 863,
      "১": 864,
      "২": 865,
      "৳": 866,
      "ਖ": 867,
      "ਜ": 868,
      "ਨ": 869,
      "ਫ": 870,
      "ਮ": 871,
      "ਰ": 872,
      "ਸ": 873,
      "਼": 874,
      "ਾ": 875,
      "ੁ": 876,
      "੭": 877,
      "અ": 878,
      "દ": 879,
      "ન": 880,
      "વ": 881,
      "ા": 882,
      "ુ": 883,
      "୯": 884,
      "அ": 885,
      "ஆ": 886,
      "இ": 887,
      "உ": 888,
      "எ": 889,
      "ஒ": 890,
      "க": 891,
      "ங": 892,
      "ச": 893,
      "ஜ": 894,
      "ட": 895,
      "ண": 896,
      "த": 897,
      "ந": 898,
      "ன": 899,
      "ப": 900,
      "ம": 901,
      "ய": 902,
      "ர": 903,
      "ற": 904,
      "ல": 905,
      "ள": 906,
      "ழ": 907,
      "வ": 908,
      "ா": 909,
      "ி": 910,
      "ீ": 911,
      "ு": 912,
      "ெ": 913,
      "ே": 914,
      "ை": 915,
      "ொ": 916,
      "ோ": 917,
      "்": 918,
      "௹": 919,
      "అ": 920,
      "ద": 921,
      "న": 922,
      "వ": 923,
      "ా": 924,
      "ు": 925,
      "ಅ": 926,
      "ಠ": 927,
      "ದ": 928,
      "ನ": 929,
      "ವ": 930,
      "ಾ": 931,
      "ು": 932,
      "ം": 933,
      "ക": 934,
      "ട": 935,
      "ദ": 936,
      "മ": 937,
      "ര": 938,
      "വ": 939,
      "സ": 940,
      "ാ": 941,
      "െ": 942,
      "ോ": 943,
      "്": 944,
      "ක": 945,
      "ත": 946,
      "ඳ": 947,
      "ර": 948,
      "ව": 949,
      "්": 950,
      "ු": 951,
      "ก": 952,
      "ป": 953,
      "ร": 954,
      "ล": 955,
      "า": 956,
      "฿": 957,
      "แ": 958,
      "๛": 959,
      "ກ": 960,
      "ຄ": 961,
      "ງ": 962,
      "ຈ": 963,
      "ຊ": 964,
      "ດ": 965,
      "ຕ": 966,
      "ທ": 967,
      "ນ": 968,
      "ປ": 969,
      "ພ": 970,
      "ມ": 971,
      "ຣ": 972,
      "ລ": 973,
      "ວ": 974,
      "ສ": 975,
      "ຫ": 976,
      "ອ": 977,
      "ຮ": 978,
      "ະ": 979,
      "ັ": 980,
      "າ": 981,
      "ິ": 982,
      "ີ": 983,
      "ຸ": 984,
      "ູ": 985,
      "ົ": 986,
      "ຼ": 987,
      "ແ": 988,
      "ໂ": 989,
      "ໄ": 990,
      "່": 991,
      "ໜ": 992,
      "༆": 993,
      "࿓": 994,
      "ა": 995,
      "გ": 996,
      "ე": 997,
      "ვ": 998,
      "თ": 999,
      "ი": 1000,
      "ლ": 1001,
      "მ": 1002,
      "ნ": 1003,
      "ო": 1004,
      "პ": 1005,
      "რ": 1006,
      "ს": 1007,
      "ფ": 1008,
      "ღ": 1009,
      "ხ": 1010,
      "ჷ": 1011,
      "ት": 1012,
      "ው": 1013,
      "ይ": 1014,
      "ᛏ": 1015,
      "ក": 1016,
      "ប": 1017,
      "រ": 1018,
      "ែ": 1019,
      "្": 1020,
      "៛": 1021,
      "᧾": 1022,
      "ᴀ": 1023,
      "ᴥ": 1024,
      "ᴬ": 1025,
      "ᴷ": 1026,
      "ᴸ": 1027,
      "ᵀ": 1028,
      "ᵃ": 1029,
      "ᵏ": 1030,
      "ᵗ": 1031,
      "ᵮ": 1032,
      "ᶏ": 1033,
      "Ḍ": 1034,
      "ḍ": 1035,
      "ḟ": 1036,
      "Ḡ": 1037,
      "Ḥ": 1038,
      "ḥ": 1039,
      "Ḷ": 1040,
      "ḷ": 1041,
      "Ḹ": 1042,
      "ḹ": 1043,
      "ḻ": 1044,
      "ṁ": 1045,
      "Ṃ": 1046,
      "ṃ": 1047,
      "ṅ": 1048,
      "Ṇ": 1049,
      "ṇ": 1050,
      "ṗ": 1051,
      "ṙ": 1052,
      "Ṛ": 1053,
      "ṛ": 1054,
      "Ṝ": 1055,
      "ṝ": 1056,
      "Ṣ": 1057,
      "ṣ": 1058,
      "ṧ": 1059,
      "ṫ": 1060,
      "Ṭ": 1061,
      "ṭ": 1062,
      "ṯ": 1063,
      "ẓ": 1064,
      "ạ": 1065,
      "ả": 1066,
      "ấ": 1067,
      "ầ": 1068,
      "ẫ": 1069,
      "ậ": 1070,
      "ắ": 1071,
      "ằ": 1072,
      "ặ": 1073,
      "ẹ": 1074,
      "Ẽ": 1075,
      "ẽ": 1076,
      "ế": 1077,
      "ể": 1078,
      "ễ": 1079,
      "ệ": 1080,
      "ỉ": 1081,
      "ị": 1082,
      "ọ": 1083,
      "ỏ": 1084,
      "ố": 1085,
      "ộ": 1086,
      "ờ": 1087,
      "ợ": 1088,
      "ụ": 1089,
      "ứ": 1090,
      "ừ": 1091,
      "ử": 1092,
      "ữ": 1093,
      "ự": 1094,
      "Ỹ": 1095,
      "ỹ": 1096,
      "ἀ": 1097,
      "ἐ": 1098,
      "ἑ": 1099,
      "Ἐ": 1100,
      "ἡ": 1101,
      "ἰ": 1102,
      "ὂ": 1103,
      "ὶ": 1104,
      "ὼ": 1105,
      "ᾶ": 1106,
      "ῆ": 1107,
      "ῖ": 1108,
      "ῦ": 1109,
      "ῶ": 1110,
      "ῼ": 1111,
      "​": 1112,
      "‍": 1113,
      "‎": 1114,
      "‏": 1115,
      "‐": 1116,
      "‑": 1117,
      "‒": 1118,
      "–": 1119,
      "—": 1120,
      "―": 1121,
      "‖": 1122,
      "‘": 1123,
      "’": 1124,
      "“": 1125,
      "”": 1126,
      "„": 1127,
      "†": 1128,
      "‡": 1129,
      "•": 1130,
      "…": 1131,
      "‧": 1132,
      "‪": 1133,
      "‫": 1134,
      "‬": 1135,
      "′": 1136,
      "″": 1137,
      "‹": 1138,
      "›": 1139,
      "‽": 1140,
      "‿": 1141,
      "⁂": 1142,
      "⁄": 1143,
      "⁞": 1144,
      "⁠": 1145,
      "⁰": 1146,
      "⁴": 1147,
      "⁽": 1148,
      "⁾": 1149,
      "ⁿ": 1150,
      "₂": 1151,
      "₠": 1152,
      "₡": 1153,
      "₢": 1154,
      "₣": 1155,
      "₤": 1156,
      "₥": 1157,
      "₦": 1158,
      "₧": 1159,
      "₨": 1160,
      "₩": 1161,
      "₪": 1162,
      "₫": 1163,
      "€": 1164,
      "₭": 1165,
      "₮": 1166,
      "₯": 1167,
      "₰": 1168,
      "₳": 1169,
      "₴": 1170,
      "₵": 1171,
      "№": 1172,
      "ℚ": 1173,
      "℠": 1174,
      "™": 1175,
      "℥": 1176,
      "ℱ": 1177,
      "Ⅎ": 1178,
      "ℳ": 1179,
      "⅓": 1180,
      "⅔": 1181,
      "⅛": 1182,
      "⅜": 1183,
      "⅝": 1184,
      "⅞": 1185,
      "ↄ": 1186,
      "←": 1187,
      "↑": 1188,
      "→": 1189,
      "↓": 1190,
      "↔": 1191,
      "↕": 1192,
      "↗": 1193,
      "↨": 1194,
      "⇄": 1195,
      "⇒": 1196,
      "⇔": 1197,
      "⇝": 1198,
      "∀": 1199,
      "∂": 1200,
      "∅": 1201,
      "∆": 1202,
      "∇": 1203,
      "∈": 1204,
      "∑": 1205,
      "−": 1206,
      "∗": 1207,
      "∙": 1208,
      "√": 1209,
      "∞": 1210,
      "∧": 1211,
      "∪": 1212,
      "∫": 1213,
      "∴": 1214,
      "≈": 1215,
      "≠": 1216,
      "≡": 1217,
      "≤": 1218,
      "≥": 1219,
      "≼": 1220,
      "≽": 1221,
      "⊂": 1222,
      "⊕": 1223,
      "⊗": 1224,
      "⊙": 1225,
      "⊝": 1226,
      "⊥": 1227,
      "⋅": 1228,
      "〈": 1229,
      "Ⓐ": 1230,
      "Ⓣ": 1231,
      "─": 1232,
      "━": 1233,
      "│": 1234,
      "┃": 1235,
      "┌": 1236,
      "┏": 1237,
      "┐": 1238,
      "┓": 1239,
      "└": 1240,
      "┗": 1241,
      "┘": 1242,
      "┛": 1243,
      "├": 1244,
      "═": 1245,
      "║": 1246,
      "╔": 1247,
      "╗": 1248,
      "╚": 1249,
      "╝": 1250,
      "╟": 1251,
      "╢": 1252,
      "╦": 1253,
      "╩": 1254,
      "╫": 1255,
      "█": 1256,
      "▎": 1257,
      "■": 1258,
      "▪": 1259,
      "▫": 1260,
      "▲": 1261,
      "△": 1262,
      "▶": 1263,
      "►": 1264,
      "▾": 1265,
      "◀": 1266,
      "◁": 1267,
      "◄": 1268,
      "◅": 1269,
      "○": 1270,
      "●": 1271,
      "◕": 1272,
      "◥": 1273,
      "◦": 1274,
      "◯": 1275,
      "☀": 1276,
      "☃": 1277,
      "☄": 1278,
      "★": 1279,
      "☆": 1280,
      "☇": 1281,
      "☎": 1282,
      "☏": 1283,
      "☑": 1284,
      "☓": 1285,
      "☘": 1286,
      "☛": 1287,
      "☜": 1288,
      "☝": 1289,
      "☞": 1290,
      "☠": 1291,
      "☣": 1292,
      "☤": 1293,
      "☥": 1294,
      "☭": 1295,
      "☮": 1296,
      "☯": 1297,
      "☸": 1298,
      "☺": 1299,
      "☻": 1300,
      "☼": 1301,
      "☽": 1302,
      "☾": 1303,
      "☿": 1304,
      "♀": 1305,
      "♂": 1306,
      "♔": 1307,
      "♚": 1308,
      "♝": 1309,
      "♠": 1310,
      "♣": 1311,
      "♥": 1312,
      "♦": 1313,
      "♨": 1314,
      "♩": 1315,
      "♪": 1316,
      "♫": 1317,
      "♬": 1318,
      "⚇": 1319,
      "⚔": 1320,
      "✄": 1321,
      "✆": 1322,
      "✈": 1323,
      "✉": 1324,
      "✋": 1325,
      "✌": 1326,
      "✍": 1327,
      "✎": 1328,
      "✐": 1329,
      "✒": 1330,
      "✓": 1331,
      "✔": 1332,
      "✗": 1333,
      "✘": 1334,
      "✞": 1335,
      "✤": 1336,
      "✫": 1337,
      "✭": 1338,
      "✰": 1339,
      "✽": 1340,
      "❉": 1341,
      "❝": 1342,
      "❞": 1343,
      "❤": 1344,
      "➔": 1345,
      "➜": 1346,
      "➥": 1347,
      "➨": 1348,
      "➪": 1349,
      "⟨": 1350,
      "⟩": 1351,
      "⟲": 1352,
      "Ᵽ": 1353,
      "ⱷ": 1354,
      "ⲟ": 1355,
      "ⲧ": 1356,
      "ⲩ": 1357,
      "ⲱ": 1358,
      "、": 1359,
      "。": 1360,
      "《": 1361,
      "》": 1362,
      "「": 1363,
      "」": 1364,
      "『": 1365,
      "』": 1366,
      "【": 1367,
      "】": 1368,
      "あ": 1369,
      "い": 1370,
      "う": 1371,
      "え": 1372,
      "お": 1373,
      "か": 1374,
      "が": 1375,
      "き": 1376,
      "ぎ": 1377,
      "く": 1378,
      "け": 1379,
      "げ": 1380,
      "こ": 1381,
      "ご": 1382,
      "さ": 1383,
      "ざ": 1384,
      "し": 1385,
      "じ": 1386,
      "す": 1387,
      "ず": 1388,
      "せ": 1389,
      "ぜ": 1390,
      "そ": 1391,
      "ぞ": 1392,
      "た": 1393,
      "だ": 1394,
      "ち": 1395,
      "っ": 1396,
      "つ": 1397,
      "て": 1398,
      "で": 1399,
      "と": 1400,
      "ど": 1401,
      "な": 1402,
      "に": 1403,
      "ぬ": 1404,
      "ね": 1405,
      "の": 1406,
      "は": 1407,
      "ば": 1408,
      "ひ": 1409,
      "び": 1410,
      "ふ": 1411,
      "へ": 1412,
      "べ": 1413,
      "ほ": 1414,
      "ま": 1415,
      "み": 1416,
      "め": 1417,
      "も": 1418,
      "ゃ": 1419,
      "や": 1420,
      "ゅ": 1421,
      "ょ": 1422,
      "よ": 1423,
      "ら": 1424,
      "り": 1425,
      "る": 1426,
      "れ": 1427,
      "ろ": 1428,
      "わ": 1429,
      "を": 1430,
      "ん": 1431,
      "ァ": 1432,
      "ア": 1433,
      "ィ": 1434,
      "イ": 1435,
      "ウ": 1436,
      "ェ": 1437,
      "エ": 1438,
      "オ": 1439,
      "カ": 1440,
      "ガ": 1441,
      "キ": 1442,
      "ク": 1443,
      "グ": 1444,
      "ケ": 1445,
      "コ": 1446,
      "ゴ": 1447,
      "サ": 1448,
      "ザ": 1449,
      "シ": 1450,
      "ジ": 1451,
      "ス": 1452,
      "セ": 1453,
      "ソ": 1454,
      "タ": 1455,
      "チ": 1456,
      "ッ": 1457,
      "ツ": 1458,
      "テ": 1459,
      "デ": 1460,
      "ト": 1461,
      "ド": 1462,
      "ナ": 1463,
      "ニ": 1464,
      "ヌ": 1465,
      "ノ": 1466,
      "ハ": 1467,
      "バ": 1468,
      "ヒ": 1469,
      "ビ": 1470,
      "ピ": 1471,
      "フ": 1472,
      "ブ": 1473,
      "プ": 1474,
      "ヘ": 1475,
      "ベ": 1476,
      "ペ": 1477,
      "ホ": 1478,
      "ボ": 1479,
      "ポ": 1480,
      "マ": 1481,
      "ム": 1482,
      "メ": 1483,
      "モ": 1484,
      "ャ": 1485,
      "ュ": 1486,
      "ョ": 1487,
      "ラ": 1488,
      "リ": 1489,
      "ル": 1490,
      "レ": 1491,
      "ロ": 1492,
      "ヮ": 1493,
      "ワ": 1494,
      "ン": 1495,
      "ヴ": 1496,
      "・": 1497,
      "ー": 1498,
      "ヽ": 1499,
      "ㄉ": 1500,
      "ㄏ": 1501,
      "ㄤ": 1502,
      "ㄧ": 1503,
      "ㄨ": 1504,
      "ㄷ": 1505,
      "ㅂ": 1506,
      "ㅅ": 1507,
      "㊟": 1508,
      "㎥": 1509,
      "一": 1510,
      "万": 1511,
      "丈": 1512,
      "三": 1513,
      "上": 1514,
      "下": 1515,
      "不": 1516,
      "世": 1517,
      "东": 1518,
      "並": 1519,
      "个": 1520,
      "中": 1521,
      "主": 1522,
      "么": 1523,
      "乐": 1524,
      "乙": 1525,
      "九": 1526,
      "也": 1527,
      "了": 1528,
      "事": 1529,
      "二": 1530,
      "井": 1531,
      "亞": 1532,
      "京": 1533,
      "人": 1534,
      "什": 1535,
      "今": 1536,
      "介": 1537,
      "他": 1538,
      "付": 1539,
      "仙": 1540,
      "代": 1541,
      "令": 1542,
      "以": 1543,
      "仮": 1544,
      "会": 1545,
      "伝": 1546,
      "但": 1547,
      "位": 1548,
      "佐": 1549,
      "体": 1550,
      "你": 1551,
      "佩": 1552,
      "使": 1553,
      "來": 1554,
      "例": 1555,
      "便": 1556,
      "係": 1557,
      "信": 1558,
      "們": 1559,
      "倒": 1560,
      "偏": 1561,
      "做": 1562,
      "健": 1563,
      "傳": 1564,
      "僑": 1565,
      "儀": 1566,
      "先": 1567,
      "內": 1568,
      "八": 1569,
      "公": 1570,
      "共": 1571,
      "兵": 1572,
      "典": 1573,
      "兼": 1574,
      "内": 1575,
      "冒": 1576,
      "写": 1577,
      "出": 1578,
      "列": 1579,
      "初": 1580,
      "別": 1581,
      "利": 1582,
      "到": 1583,
      "制": 1584,
      "前": 1585,
      "副": 1586,
      "劇": 1587,
      "劉": 1588,
      "加": 1589,
      "助": 1590,
      "務": 1591,
      "包": 1592,
      "北": 1593,
      "区": 1594,
      "十": 1595,
      "千": 1596,
      "卋": 1597,
      "卐": 1598,
      "南": 1599,
      "即": 1600,
      "卷": 1601,
      "卻": 1602,
      "历": 1603,
      "原": 1604,
      "參": 1605,
      "反": 1606,
      "古": 1607,
      "句": 1608,
      "只": 1609,
      "可": 1610,
      "台": 1611,
      "史": 1612,
      "号": 1613,
      "合": 1614,
      "吉": 1615,
      "同": 1616,
      "后": 1617,
      "吕": 1618,
      "吗": 1619,
      "君": 1620,
      "吳": 1621,
      "味": 1622,
      "命": 1623,
      "和": 1624,
      "咨": 1625,
      "啥": 1626,
      "啼": 1627,
      "喷": 1628,
      "嗎": 1629,
      "器": 1630,
      "四": 1631,
      "因": 1632,
      "国": 1633,
      "國": 1634,
      "圍": 1635,
      "土": 1636,
      "在": 1637,
      "地": 1638,
      "坊": 1639,
      "坡": 1640,
      "執": 1641,
      "基": 1642,
      "場": 1643,
      "堵": 1644,
      "塩": 1645,
      "声": 1646,
      "壹": 1647,
      "変": 1648,
      "外": 1649,
      "夜": 1650,
      "大": 1651,
      "天": 1652,
      "太": 1653,
      "女": 1654,
      "好": 1655,
      "妈": 1656,
      "姓": 1657,
      "姻": 1658,
      "威": 1659,
      "子": 1660,
      "字": 1661,
      "学": 1662,
      "孫": 1663,
      "學": 1664,
      "守": 1665,
      "安": 1666,
      "宕": 1667,
      "官": 1668,
      "定": 1669,
      "客": 1670,
      "家": 1671,
      "容": 1672,
      "實": 1673,
      "寧": 1674,
      "对": 1675,
      "対": 1676,
      "專": 1677,
      "少": 1678,
      "就": 1679,
      "尻": 1680,
      "屌": 1681,
      "山": 1682,
      "岡": 1683,
      "岩": 1684,
      "島": 1685,
      "川": 1686,
      "己": 1687,
      "已": 1688,
      "巾": 1689,
      "市": 1690,
      "布": 1691,
      "帝": 1692,
      "師": 1693,
      "干": 1694,
      "平": 1695,
      "年": 1696,
      "庄": 1697,
      "府": 1698,
      "度": 1699,
      "廣": 1700,
      "张": 1701,
      "影": 1702,
      "很": 1703,
      "後": 1704,
      "御": 1705,
      "心": 1706,
      "忍": 1707,
      "志": 1708,
      "快": 1709,
      "思": 1710,
      "总": 1711,
      "恵": 1712,
      "您": 1713,
      "情": 1714,
      "惑": 1715,
      "意": 1716,
      "愛": 1717,
      "感": 1718,
      "慕": 1719,
      "慧": 1720,
      "憲": 1721,
      "成": 1722,
      "我": 1723,
      "或": 1724,
      "戸": 1725,
      "所": 1726,
      "手": 1727,
      "承": 1728,
      "投": 1729,
      "抗": 1730,
      "折": 1731,
      "拉": 1732,
      "括": 1733,
      "指": 1734,
      "捏": 1735,
      "援": 1736,
      "搏": 1737,
      "撃": 1738,
      "撰": 1739,
      "擲": 1740,
      "改": 1741,
      "攻": 1742,
      "政": 1743,
      "故": 1744,
      "敏": 1745,
      "文": 1746,
      "断": 1747,
      "新": 1748,
      "方": 1749,
      "於": 1750,
      "既": 1751,
      "日": 1752,
      "早": 1753,
      "旭": 1754,
      "明": 1755,
      "是": 1756,
      "時": 1757,
      "普": 1758,
      "景": 1759,
      "智": 1760,
      "書": 1761,
      "最": 1762,
      "月": 1763,
      "有": 1764,
      "服": 1765,
      "朝": 1766,
      "期": 1767,
      "未": 1768,
      "本": 1769,
      "朱": 1770,
      "村": 1771,
      "東": 1772,
      "松": 1773,
      "林": 1774,
      "柜": 1775,
      "柱": 1776,
      "柳": 1777,
      "栗": 1778,
      "校": 1779,
      "格": 1780,
      "桔": 1781,
      "桜": 1782,
      "梨": 1783,
      "楊": 1784,
      "楩": 1785,
      "橘": 1786,
      "次": 1787,
      "歡": 1788,
      "止": 1789,
      "步": 1790,
      "武": 1791,
      "母": 1792,
      "氏": 1793,
      "民": 1794,
      "水": 1795,
      "永": 1796,
      "求": 1797,
      "汉": 1798,
      "江": 1799,
      "決": 1800,
      "沖": 1801,
      "沪": 1802,
      "河": 1803,
      "油": 1804,
      "治": 1805,
      "法": 1806,
      "泛": 1807,
      "波": 1808,
      "泥": 1809,
      "注": 1810,
      "洛": 1811,
      "洪": 1812,
      "洲": 1813,
      "活": 1814,
      "浦": 1815,
      "海": 1816,
      "清": 1817,
      "済": 1818,
      "渡": 1819,
      "湖": 1820,
      "準": 1821,
      "溪": 1822,
      "满": 1823,
      "滬": 1824,
      "演": 1825,
      "漢": 1826,
      "澄": 1827,
      "濟": 1828,
      "瀾": 1829,
      "灣": 1830,
      "火": 1831,
      "為": 1832,
      "烂": 1833,
      "焉": 1834,
      "然": 1835,
      "照": 1836,
      "熊": 1837,
      "爽": 1838,
      "版": 1839,
      "牛": 1840,
      "牝": 1841,
      "牡": 1842,
      "物": 1843,
      "特": 1844,
      "犬": 1845,
      "独": 1846,
      "猛": 1847,
      "猫": 1848,
      "獨": 1849,
      "王": 1850,
      "珊": 1851,
      "班": 1852,
      "現": 1853,
      "球": 1854,
      "琉": 1855,
      "瑚": 1856,
      "生": 1857,
      "用": 1858,
      "田": 1859,
      "甲": 1860,
      "町": 1861,
      "界": 1862,
      "番": 1863,
      "疆": 1864,
      "疋": 1865,
      "登": 1866,
      "白": 1867,
      "百": 1868,
      "的": 1869,
      "益": 1870,
      "盒": 1871,
      "目": 1872,
      "省": 1873,
      "真": 1874,
      "督": 1875,
      "知": 1876,
      "石": 1877,
      "砂": 1878,
      "祖": 1879,
      "祝": 1880,
      "神": 1881,
      "福": 1882,
      "科": 1883,
      "稱": 1884,
      "稿": 1885,
      "穣": 1886,
      "窣": 1887,
      "立": 1888,
      "站": 1889,
      "竜": 1890,
      "竹": 1891,
      "笑": 1892,
      "筆": 1893,
      "粵": 1894,
      "粿": 1895,
      "紅": 1896,
      "純": 1897,
      "紙": 1898,
      "素": 1899,
      "紫": 1900,
      "終": 1901,
      "組": 1902,
      "絡": 1903,
      "統": 1904,
      "継": 1905,
      "維": 1906,
      "緣": 1907,
      "編": 1908,
      "縄": 1909,
      "縣": 1910,
      "織": 1911,
      "绍": 1912,
      "缎": 1913,
      "网": 1914,
      "置": 1915,
      "羊": 1916,
      "美": 1917,
      "義": 1918,
      "翁": 1919,
      "翻": 1920,
      "翼": 1921,
      "老": 1922,
      "者": 1923,
      "而": 1924,
      "聖": 1925,
      "聯": 1926,
      "職": 1927,
      "胜": 1928,
      "臧": 1929,
      "自": 1930,
      "臭": 1931,
      "臺": 1932,
      "臼": 1933,
      "航": 1934,
      "船": 1935,
      "良": 1936,
      "芜": 1937,
      "若": 1938,
      "英": 1939,
      "范": 1940,
      "草": 1941,
      "莱": 1942,
      "華": 1943,
      "蒙": 1944,
      "薬": 1945,
      "藏": 1946,
      "藩": 1947,
      "蘭": 1948,
      "蝴": 1949,
      "蝶": 1950,
      "血": 1951,
      "行": 1952,
      "術": 1953,
      "衛": 1954,
      "表": 1955,
      "袁": 1956,
      "被": 1957,
      "製": 1958,
      "西": 1959,
      "要": 1960,
      "見": 1961,
      "視": 1962,
      "言": 1963,
      "討": 1964,
      "記": 1965,
      "訣": 1966,
      "訪": 1967,
      "訳": 1968,
      "詠": 1969,
      "話": 1970,
      "認": 1971,
      "語": 1972,
      "說": 1973,
      "調": 1974,
      "論": 1975,
      "謚": 1976,
      "講": 1977,
      "謝": 1978,
      "记": 1979,
      "论": 1980,
      "译": 1981,
      "话": 1982,
      "谢": 1983,
      "谷": 1984,
      "豆": 1985,
      "貢": 1986,
      "賜": 1987,
      "起": 1988,
      "越": 1989,
      "路": 1990,
      "軍": 1991,
      "輝": 1992,
      "輯": 1993,
      "輸": 1994,
      "辺": 1995,
      "过": 1996,
      "迎": 1997,
      "这": 1998,
      "迷": 1999,
      "退": 2000,
      "逆": 2001,
      "這": 2002,
      "通": 2003,
      "造": 2004,
      "連": 2005,
      "達": 2006,
      "遯": 2007,
      "選": 2008,
      "邈": 2009,
      "郎": 2010,
      "郡": 2011,
      "部": 2012,
      "郭": 2013,
      "都": 2014,
      "酸": 2015,
      "醫": 2016,
      "里": 2017,
      "野": 2018,
      "金": 2019,
      "銀": 2020,
      "録": 2021,
      "钾": 2022,
      "長": 2023,
      "长": 2024,
      "関": 2025,
      "閩": 2026,
      "闘": 2027,
      "防": 2028,
      "阿": 2029,
      "陈": 2030,
      "院": 2031,
      "陳": 2032,
      "陸": 2033,
      "険": 2034,
      "陽": 2035,
      "隨": 2036,
      "隻": 2037,
      "雖": 2038,
      "雪": 2039,
      "雲": 2040,
      "電": 2041,
      "需": 2042,
      "青": 2043,
      "静": 2044,
      "靜": 2045,
      "面": 2046,
      "韦": 2047,
      "頁": 2048,
      "頭": 2049,
      "題": 2050,
      "顧": 2051,
      "页": 2052,
      "项": 2053,
      "颈": 2054,
      "風": 2055,
      "飞": 2056,
      "馬": 2057,
      "驚": 2058,
      "體": 2059,
      "高": 2060,
      "鮮": 2061,
      "鳴": 2062,
      "鹿": 2063,
      "麗": 2064,
      "黃": 2065,
      "黄": 2066,
      "龍": 2067,
      "龙": 2068,
      "龜": 2069,
      "강": 2070,
      "개": 2071,
      "고": 2072,
      "공": 2073,
      "구": 2074,
      "군": 2075,
      "기": 2076,
      "길": 2077,
      "날": 2078,
      "넘": 2079,
      "눈": 2080,
      "뉴": 2081,
      "는": 2082,
      "다": 2083,
      "대": 2084,
      "도": 2085,
      "독": 2086,
      "때": 2087,
      "려": 2088,
      "룡": 2089,
      "리": 2090,
      "마": 2091,
      "맛": 2092,
      "문": 2093,
      "민": 2094,
      "받": 2095,
      "번": 2096,
      "보": 2097,
      "비": 2098,
      "빠": 2099,
      "서": 2100,
      "선": 2101,
      "소": 2102,
      "순": 2103,
      "승": 2104,
      "아": 2105,
      "안": 2106,
      "야": 2107,
      "역": 2108,
      "요": 2109,
      "유": 2110,
      "의": 2111,
      "이": 2112,
      "인": 2113,
      "있": 2114,
      "자": 2115,
      "잡": 2116,
      "조": 2117,
      "주": 2118,
      "지": 2119,
      "짐": 2120,
      "집": 2121,
      "찜": 2122,
      "척": 2123,
      "천": 2124,
      "첫": 2125,
      "청": 2126,
      "칠": 2127,
      "침": 2128,
      "틀": 2129,
      "편": 2130,
      "헌": 2131,
      "혈": 2132,
      "호": 2133,
      "": 2134,
      "": 2135,
      "": 2136,
      "": 2137,
      "": 2138,
      "": 2139,
      "": 2140,
      "": 2141,
      "": 2142,
      "": 2143,
      "": 2144,
      "": 2145,
      "": 2146,
      "": 2147,
      "": 2148,
      "": 2149,
      "": 2150,
      "ﬂ": 2151,
      "︵": 2152,
      "﻿": 2153,
      "！": 2154,
      "（": 2155,
      "）": 2156,
      "，": 2157,
      "－": 2158,
      "．": 2159,
      "０": 2160,
      "１": 2161,
      "６": 2162,
      "８": 2163,
      "：": 2164,
      "？": 2165,
      "Ａ": 2166,
      "Ｔ": 2167,
      "ａ": 2168,
      "ｃ": 2169,
      "ｋ": 2170,
      "ｌ": 2171,
      "ｍ": 2172,
      "ｎ": 2173,
      "ｏ": 2174,
      "ｗ": 2175,
      "｡": 2176,
      "･": 2177,
      "ｨ": 2178,
      "ｱ": 2179,
      "ｳ": 2180,
      "ｷ": 2181,
      "ﾃ": 2182,
      "ﾉ": 2183,
      "ﾍ": 2184,
      "ﾞ": 2185,
      "ﾟ": 2186,
      "�": 2187,
      "𒁳": 2188,
      "🍁": 2189,
      "🍌": 2190,
      "🎄": 2191,
      "🎤": 2192,
      "🏼": 2193,
      "💜": 2194,
      "💩": 2195,
      "💬": 2196,
      "📞": 2197,
      "📧": 2198,
      "🗽": 2199,
      "😀": 2200,
      "😂": 2201,
      "😃": 2202,
      "😄": 2203,
      "😅": 2204,
      "😉": 2205,
      "😊": 2206,
      "😏": 2207,
      "😔": 2208,
      "😜": 2209,
      "😢": 2210,
      "🙈": 2211,
      "🙉": 2212,
      "🙊": 2213,
      "th": 2214,
      "in": 2215,
      "re": 2216,
      "an": 2217,
      "on": 2218,
      "the": 2219,
      "ou": 2220,
      "at": 2221,
      "is": 2222,
      "er": 2223,
      "ed": 2224,
      "or": 2225,
      "it": 2226,
      "le": 2227,
      "to": 2228,
      "en": 2229,
      "al": 2230,
      "ing": 2231,
      "as": 2232,
      "ar": 2233,
      "es": 2234,
      "ic": 2235,
      "and": 2236,
      "you": 2237,
      "of": 2238,
      "ion": 2239,
      "st": 2240,
      "se": 2241,
      "no": 2242,
      "be": 2243,
      "om": 2244,
      "ve": 2245,
      "ly": 2246,
      "he": 2247,
      "that": 2248,
      "ag": 2249,
      "\"\"": 2250,
      "ac": 2251,
      "ad": 2252,
      "for": 2253,
      "ent": 2254,
      "wi": 2255,
      "ll": 2256,
      "me": 2257,
      "wh": 2258,
      "de": 2259,
      "not": 2260,
      "ro": 2261,
      "ha": 2262,
      "ut": 2263,
      "art": 2264,
      "us": 2265,
      "ab": 2266,
      "ld": 2267,
      "ver": 2268,
      "lo": 2269,
      "ch": 2270,
      "ay": 2271,
      "con": 2272,
      "are": 2273,
      "li": 2274,
      "ce": 2275,
      "su": 2276,
      "ri": 2277,
      "ct": 2278,
      "this": 2279,
      "pe": 2280,
      "we": 2281,
      "age": 2282,
      "un": 2283,
      "artic": 2284,
      "ation": 2285,
      "ia": 2286,
      "id": 2287,
      "im": 2288,
      "po": 2289,
      "ke": 2290,
      "do": 2291,
      "article": 2292,
      "mo": 2293,
      "have": 2294,
      "am": 2295,
      "so": 2296,
      "ould": 2297,
      "te": 2298,
      "ki": 2299,
      "gh": 2300,
      "with": 2301,
      "ist": 2302,
      "out": 2303,
      "if": 2304,
      "com": 2305,
      "ate": 2306,
      "your": 2307,
      "ther": 2308,
      "ne": 2309,
      "pro": 2310,
      "ped": 2311,
      "ter": 2312,
      "!!": 2313,
      "one": 2314,
      "was": 2315,
      "The": 2316,
      "ir": 2317,
      "but": 2318,
      "our": 2319,
      "sh": 2320,
      "Wi": 2321,
      "Th": 2322,
      "pedia": 2323,
      "edit": 2324,
      "est": 2325,
      "ow": 2326,
      "ple": 2327,
      "ck": 2328,
      "..": 2329,
      "any": 2330,
      "ment": 2331,
      "ain": 2332,
      "kipedia": 2333,
      "fr": 2334,
      "all": 2335,
      "per": 2336,
      "page": 2337,
      "ex": 2338,
      "ur": 2339,
      "et": 2340,
      "il": 2341,
      "fe": 2342,
      "my": 2343,
      "ome": 2344,
      "qu": 2345,
      "go": 2346,
      "ant": 2347,
      "ap": 2348,
      "ust": 2349,
      "alk": 2350,
      "use": 2351,
      "pl": 2352,
      "by": 2353,
      "ase": 2354,
      "ght": 2355,
      "ally": 2356,
      "can": 2357,
      "from": 2358,
      "act": 2359,
      "ink": 2360,
      "Wikipedia": 2361,
      "now": 2362,
      "ig": 2363,
      "res": 2364,
      "some": 2365,
      "ul": 2366,
      "vi": 2367,
      "cont": 2368,
      "ol": 2369,
      "about": 2370,
      "up": 2371,
      "nd": 2372,
      "tr": 2373,
      "other": 2374,
      "here": 2375,
      "bo": 2376,
      "wor": 2377,
      "dis": 2378,
      "ive": 2379,
      "talk": 2380,
      "nt": 2381,
      "has": 2382,
      "thing": 2383,
      "cl": 2384,
      "let": 2385,
      "ma": 2386,
      "ity": 2387,
      "see": 2388,
      "ks": 2389,
      "00": 2390,
      "will": 2391,
      "ces": 2392,
      "co": 2393,
      "ame": 2394,
      "would": 2395,
      "ions": 2396,
      "like": 2397,
      "red": 2398,
      "ers": 2399,
      "ard": 2400,
      "there": 2401,
      "what": 2402,
      "ind": 2403,
      "ich": 2404,
      "add": 2405,
      "able": 2406,
      "ci": 2407,
      "fo": 2408,
      "ish": 2409,
      "ort": 2410,
      "You": 2411,
      "ite": 2412,
      "just": 2413,
      "know": 2414,
      "el": 2415,
      "If": 2416,
      "ti": 2417,
      "od": 2418,
      "ous": 2419,
      "ang": 2420,
      "who": 2421,
      "they": 2422,
      "don": 2423,
      "ated": 2424,
      "der": 2425,
      "ev": 2426,
      "It": 2427,
      "been": 2428,
      "which": 2429,
      "ca": 2430,
      "um": 2431,
      "more": 2432,
      "should": 2433,
      "sour": 2434,
      "ack": 2435,
      "les": 2436,
      "ong": 2437,
      "form": 2438,
      "ho": 2439,
      "!!!!": 2440,
      "ew": 2441,
      "ok": 2442,
      "ree": 2443,
      "ian": 2444,
      "min": 2445,
      "delet": 2446,
      "way": 2447,
      "end": 2448,
      "very": 2449,
      "think": 2450,
      "int": 2451,
      "gr": 2452,
      "pt": 2453,
      "rit": 2454,
      "ies": 2455,
      "read": 2456,
      "spe": 2457,
      "si": 2458,
      "cause": 2459,
      "blo": 2460,
      "Than": 2461,
      "gu": 2462,
      "ot": 2463,
      "ast": 2464,
      "his": 2465,
      "cus": 2466,
      "ser": 2467,
      "sion": 2468,
      "lic": 2469,
      "ction": 2470,
      "did": 2471,
      "than": 2472,
      "port": 2473,
      "ople": 2474,
      "ren": 2475,
      "Wh": 2476,
      "ta": 2477,
      "pre": 2478,
      "ound": 2479,
      "ages": 2480,
      "lease": 2481,
      "ra": 2482,
      "get": 2483,
      "say": 2484,
      "quest": 2485,
      "son": 2486,
      "ble": 2487,
      "iv": 2488,
      "ud": 2489,
      "ary": 2490,
      "people": 2491,
      "ough": 2492,
      "ine": 2493,
      "...": 2494,
      "He": 2495,
      "op": 2496,
      "In": 2497,
      "ill": 2498,
      "ess": 2499,
      "ber": 2500,
      "does": 2501,
      "because": 2502,
      "sel": 2503,
      "them": 2504,
      "only": 2505,
      "je": 2506,
      "Please": 2507,
      "pos": 2508,
      "ge": 2509,
      "block": 2510,
      "ory": 2511,
      "ure": 2512,
      "This": 2513,
      "Re": 2514,
      "ans": 2515,
      "right": 2516,
      "ass": 2517,
      "may": 2518,
      "ue": 2519,
      "time": 2520,
      "need": 2521,
      "pr": 2522,
      "top": 2523,
      "ject": 2524,
      "ence": 2525,
      "iz": 2526,
      "ism": 2527,
      "also": 2528,
      "articles": 2529,
      "link": 2530,
      "were": 2531,
      "king": 2532,
      "200": 2533,
      "ice": 2534,
      "remo": 2535,
      "ved": 2536,
      "ors": 2537,
      "ign": 2538,
      "want": 2539,
      "ace": 2540,
      "CK": 2541,
      "cor": 2542,
      "ry": 2543,
      "self": 2544,
      "ru": 2545,
      "cre": 2546,
      "19": 2547,
      "then": 2548,
      "OU": 2549,
      "its": 2550,
      "ical": 2551,
      "tt": 2552,
      "ial": 2553,
      "how": 2554,
      "discus": 2555,
      "person": 2556,
      "when": 2557,
      "fa": 2558,
      "being": 2559,
      "under": 2560,
      "ub": 2561,
      "hel": 2562,
      "put": 2563,
      "ire": 2564,
      "ms": 2565,
      ").": 2566,
      "cou": 2567,
      "their": 2568,
      "view": 2569,
      "vert": 2570,
      "ade": 2571,
      "ear": 2572,
      "mat": 2573,
      "AN": 2574,
      "inform": 2575,
      "sa": 2576,
      "ep": 2577,
      "ight": 2578,
      "uck": 2579,
      "att": 2580,
      "again": 2581,
      "hi": 2582,
      "feren": 2583,
      "new": 2584,
      "had": 2585,
      "name": 2586,
      "sub": 2587,
      "ob": 2588,
      "come": 2589,
      "off": 2590,
      "fact": 2591,
      "help": 2592,
      "point": 2593,
      "20": 2594,
      "list": 2595,
      "ations": 2596,
      "make": 2597,
      "please": 2598,
      "why": 2599,
      "ens": 2600,
      "11": 2601,
      "chang": 2602,
      "comment": 2603,
      "''": 2604,
      "even": 2605,
      "ER": 2606,
      "try": 2607,
      "man": 2608,
      "ide": 2609,
      "back": 2610,
      "fir": 2611,
      "user": 2612,
      "ving": 2613,
      "fore": 2614,
      "information": 2615,
      "cons": 2616,
      "YOU": 2617,
      "contri": 2618,
      "ason": 2619,
      "ance": 2620,
      "over": 2621,
      "py": 2622,
      "ty": 2623,
      "work": 2624,
      "ose": 2625,
      "TH": 2626,
      "andal": 2627,
      "where": 2628,
      "des": 2629,
      "pres": 2630,
      "stand": 2631,
      "could": 2632,
      "log": 2633,
      "Thanks": 2634,
      "ile": 2635,
      "af": 2636,
      "good": 2637,
      "RE": 2638,
      "IN": 2639,
      "rent": 2640,
      "used": 2641,
      "ful": 2642,
      "look": 2643,
      "rest": 2644,
      "sources": 2645,
      "lear": 2646,
      "most": 2647,
      "cur": 2648,
      "WP": 2649,
      "such": 2650,
      "deletion": 2651,
      "ict": 2652,
      "pages": 2653,
      "sp": 2654,
      "Ch": 2655,
      "war": 2656,
      "bet": 2657,
      "UCK": 2658,
      "And": 2659,
      "ific": 2660,
      "well": 2661,
      "day": 2662,
      "As": 2663,
      "au": 2664,
      "ual": 2665,
      "ince": 2666,
      "ition": 2667,
      "ced": 2668,
      "arch": 2669,
      "Al": 2670,
      "vandal": 2671,
      "incl": 2672,
      "part": 2673,
      "hap": 2674,
      "Ar": 2675,
      "comm": 2676,
      "uch": 2677,
      "section": 2678,
      "em": 2679,
      "tw": 2680,
      "own": 2681,
      "source": 2682,
      "lit": 2683,
      "dif": 2684,
      "reason": 2685,
      "pri": 2686,
      "av": 2687,
      "referen": 2688,
      "revert": 2689,
      "less": 2690,
      "editing": 2691,
      "wr": 2692,
      "ip": 2693,
      "No": 2694,
      "xt": 2695,
      "==": 2696,
      "!!!!!!!!": 2697,
      "ates": 2698,
      "find": 2699,
      "So": 2700,
      "lish": 2701,
      "We": 2702,
      "ak": 2703,
      "ick": 2704,
      "edits": 2705,
      "reg": 2706,
      "tem": 2707,
      "//": 2708,
      "him": 2709,
      "cer": 2710,
      "made": 2711,
      "med": 2712,
      "ach": 2713,
      "first": 2714,
      "these": 2715,
      "cent": 2716,
      "reat": 2717,
      "hist": 2718,
      "aw": 2719,
      "gen": 2720,
      "clo": 2721,
      "contribut": 2722,
      "ting": 2723,
      "much": 2724,
      "ually": 2725,
      "many": 2726,
      "du": 2727,
      "Talk": 2728,
      "word": 2729,
      "deleted": 2730,
      "sup": 2731,
      "post": 2732,
      "mer": 2733,
      "call": 2734,
      "her": 2735,
      "UT": 2736,
      "che": 2737,
      "ng": 2738,
      "tag": 2739,
      "into": 2740,
      "gg": 2741,
      "ise": 2742,
      "ie": 2743,
      "cept": 2744,
      "cy": 2745,
      "fuck": 2746,
      "There": 2747,
      "),": 2748,
      "ask": 2749,
      "discussion": 2750,
      "really": 2751,
      "admin": 2752,
      "every": 2753,
      "inte": 2754,
      "IS": 2755,
      "ating": 2756,
      "same": 2757,
      "sim": 2758,
      "ave": 2759,
      "mis": 2760,
      "low": 2761,
      "AT": 2762,
      "fin": 2763,
      "ning": 2764,
      "polic": 2765,
      "ts": 2766,
      "Thank": 2767,
      "aim": 2768,
      "cri": 2769,
      "ious": 2770,
      "ph": 2771,
      "ply": 2772,
      "ww": 2773,
      "lie": 2774,
      "sy": 2775,
      "wikipedia": 2776,
      "ON": 2777,
      "count": 2778,
      "expl": 2779,
      "bs": 2780,
      "long": 2781,
      "before": 2782,
      "pub": 2783,
      "cess": 2784,
      "those": 2785,
      "\"\".": 2786,
      "That": 2787,
      "St": 2788,
      "10": 2789,
      "par": 2790,
      "content": 2791,
      "state": 2792,
      "bit": 2793,
      "What": 2794,
      "place": 2795,
      "An": 2796,
      "Is": 2797,
      "writ": 2798,
      "sure": 2799,
      "Se": 2800,
      "issu": 2801,
      "ref": 2802,
      "copy": 2803,
      "aph": 2804,
      "ttp": 2805,
      "://": 2806,
      "http": 2807,
      "ten": 2808,
      "wn": 2809,
      "clear": 2810,
      "DI": 2811,
      "too": 2812,
      "going": 2813,
      "blocked": 2814,
      "Wiki": 2815,
      "someone": 2816,
      "wiki": 2817,
      "crit": 2818,
      "claim": 2819,
      "FUCK": 2820,
      "year": 2821,
      "reli": 2822,
      "two": 2823,
      "ility": 2824,
      "But": 2825,
      "after": 2826,
      "sign": 2827,
      "mon": 2828,
      "bi": 2829,
      "though": 2830,
      "free": 2831,
      "image": 2832,
      "still": 2833,
      ".\"\"": 2834,
      "agree": 2835,
      "cit": 2836,
      "zz": 2837,
      "using": 2838,
      "said": 2839,
      "llow": 2840,
      "org": 2841,
      "side": 2842,
      "sing": 2843,
      "inter": 2844,
      "since": 2845,
      "inv": 2846,
      "something": 2847,
      "Un": 2848,
      "rel": 2849,
      "proble": 2850,
      "Do": 2851,
      "text": 2852,
      "mar": 2853,
      "ef": 2854,
      "ics": 2855,
      "nn": 2856,
      "Hi": 2857,
      "Ho": 2858,
      "ased": 2859,
      "rect": 2860,
      "IT": 2861,
      "belie": 2862,
      "ress": 2863,
      "show": 2864,
      "ative": 2865,
      "main": 2866,
      "pon": 2867,
      "bl": 2868,
      "subject": 2869,
      "without": 2870,
      "tain": 2871,
      "mention": 2872,
      "UTC": 2873,
      "contin": 2874,
      "interest": 2875,
      "ES": 2876,
      "mean": 2877,
      "AL": 2878,
      "take": 2879,
      "added": 2880,
      "real": 2881,
      "Go": 2882,
      "ense": 2883,
      "understand": 2884,
      "ven": 2885,
      "ied": 2886,
      "PO": 2887,
      "ought": 2888,
      "non": 2889,
      "ments": 2890,
      "editors": 2891,
      "might": 2892,
      "correct": 2893,
      "line": 2894,
      "NO": 2895,
      "ines": 2896,
      "inst": 2897,
      "12": 2898,
      "removed": 2899,
      "IP": 2900,
      "br": 2901,
      "wever": 2902,
      "cho": 2903,
      "start": 2904,
      "appe": 2905,
      "question": 2906,
      "led": 2907,
      "ggest": 2908,
      "stop": 2909,
      "pect": 2910,
      "case": 2911,
      "ars": 2912,
      "doesn": 2913,
      "ably": 2914,
      "US": 2915,
      "col": 2916,
      "leg": 2917,
      "Con": 2918,
      "done": 2919,
      "vious": 2920,
      "ban": 2921,
      "spec": 2922,
      "personal": 2923,
      "Your": 2924,
      "De": 2925,
      "Be": 2926,
      "WW": 2927,
      "suggest": 2928,
      "ove": 2929,
      "ident": 2930,
      "ff": 2931,
      "ily": 2932,
      "tri": 2933,
      "ards": 2934,
      "ency": 2935,
      "User": 2936,
      "mess": 2937,
      "search": 2938,
      "irect": 2939,
      "feel": 2940,
      "box": 2941,
      "follow": 2942,
      "includ": 2943,
      "For": 2944,
      "num": 2945,
      "ular": 2946,
      "history": 2947,
      "18": 2948,
      "never": 2949,
      "How": 2950,
      "links": 2951,
      "yourself": 2952,
      "appro": 2953,
      "another": 2954,
      "orig": 2955,
      "note": 2956,
      "ready": 2957,
      "??": 2958,
      "better": 2959,
      "she": 2960,
      "keep": 2961,
      "tern": 2962,
      "ned": 2963,
      "vers": 2964,
      "rat": 2965,
      "believe": 2966,
      "mber": 2967,
      "origin": 2968,
      "Pro": 2969,
      "seems": 2970,
      "HA": 2971,
      "ves": 2972,
      "speed": 2973,
      "giv": 2974,
      "pa": 2975,
      "check": 2976,
      "ational": 2977,
      "sum": 2978,
      "cour": 2979,
      "anything": 2980,
      "ult": 2981,
      "ral": 2982,
      "ider": 2983,
      "14": 2984,
      "wel": 2985,
      "ically": 2986,
      "things": 2987,
      "got": 2988,
      "present": 2989,
      "lect": 2990,
      "ys": 2991,
      "val": 2992,
      "\"\",": 2993,
      "request": 2994,
      "tle": 2995,
      "gener": 2996,
      "hope": 2997,
      "respon": 2998,
      "found": 2999,
      "wer": 3000,
      "cord": 3001,
      "copyright": 3002,
      "comments": 3003,
      "kes": 3004,
      "support": 3005,
      "change": 3006,
      "fair": 3007,
      "dy": 3008,
      "policy": 3009,
      "ample": 3010,
      "THE": 3011,
      "opin": 3012,
      "Im": 3013,
      "vandalism": 3014,
      "13": 3015,
      "wrong": 3016,
      "against": 3017,
      "won": 3018,
      "both": 3019,
      "Com": 3020,
      "Eng": 3021,
      "old": 3022,
      "15": 3023,
      "editor": 3024,
      "current": 3025,
      "str": 3026,
      "already": 3027,
      "tit": 3028,
      "explain": 3029,
      "land": 3030,
      "ever": 3031,
      "rele": 3032,
      "ither": 3033,
      "ft": 3034,
      "cond": 3035,
      "nam": 3036,
      "didn": 3037,
      "pen": 3038,
      "actually": 3039,
      "review": 3040,
      "ists": 3041,
      "POV": 3042,
      "argu": 3043,
      "play": 3044,
      "care": 3045,
      "ability": 3046,
      "ize": 3047,
      "ah": 3048,
      "ferent": 3049,
      "mit": 3050,
      "My": 3051,
      "problem": 3052,
      "os": 3053,
      "sent": 3054,
      "llo": 3055,
      "comp": 3056,
      "remove": 3057,
      "while": 3058,
      "sul": 3059,
      "guide": 3060,
      "Also": 3061,
      "welcome": 3062,
      "different": 3063,
      "others": 3064,
      "ull": 3065,
      "~~": 3066,
      "else": 3067,
      "::": 3068,
      "ians": 3069,
      "exper": 3070,
      "above": 3071,
      "descri": 3072,
      "rough": 3073,
      "possi": 3074,
      "FA": 3075,
      "ways": 3076,
      "unt": 3077,
      "imes": 3078,
      "import": 3079,
      "little": 3080,
      "jo": 3081,
      "account": 3082,
      "encyclo": 3083,
      "trying": 3084,
      "graph": 3085,
      "few": 3086,
      "head": 3087,
      "example": 3088,
      "az": 3089,
      "tell": 3090,
      "consider": 3091,
      "public": 3092,
      "orry": 3093,
      "defin": 3094,
      "fi": 3095,
      "17": 3096,
      "ING": 3097,
      "last": 3098,
      "oks": 3099,
      "sol": 3100,
      "mor": 3101,
      "Why": 3102,
      "issue": 3103,
      "great": 3104,
      "reliable": 3105,
      "IG": 3106,
      "ateg": 3107,
      "nothing": 3108,
      "__": 3109,
      "partic": 3110,
      "must": 3111,
      "discuss": 3112,
      "ings": 3113,
      "oup": 3114,
      "ude": 3115,
      "16": 3116,
      "lete": 3117,
      "accept": 3118,
      "lot": 3119,
      "adding": 3120,
      "ensus": 3121,
      "comple": 3122,
      "fl": 3123,
      "down": 3124,
      "give": 3125,
      "cial": 3126,
      "years": 3127,
      "ath": 3128,
      "questions": 3129,
      "prom": 3130,
      "anyone": 3131,
      "Amer": 3132,
      "angu": 3133,
      "vo": 3134,
      "vis": 3135,
      "through": 3136,
      "book": 3137,
      "making": 3138,
      "ater": 3139,
      "load": 3140,
      "tic": 3141,
      "big": 3142,
      "lines": 3143,
      "conf": 3144,
      "matter": 3145,
      "Americ": 3146,
      "thought": 3147,
      "prob": 3148,
      "doing": 3149,
      "rather": 3150,
      "24": 3151,
      "New": 3152,
      "AS": 3153,
      "reference": 3154,
      "continue": 3155,
      "vide": 3156,
      "og": 3157,
      "To": 3158,
      "sense": 3159,
      "far": 3160,
      "world": 3161,
      "ted": 3162,
      "lead": 3163,
      "ship": 3164,
      "Can": 3165,
      "speedy": 3166,
      "Ad": 3167,
      "ify": 3168,
      "ran": 3169,
      "write": 3170,
      "erial": 3171,
      "says": 3172,
      "OR": 3173,
      "posed": 3174,
      "urther": 3175,
      "langu": 3176,
      "plac": 3177,
      "group": 3178,
      "English": 3179,
      "least": 3180,
      "report": 3181,
      "material": 3182,
      "EN": 3183,
      "references": 3184,
      "!!!!!!!!!!!!!!!!": 3185,
      "ale": 3186,
      "idence": 3187,
      "webs": 3188,
      "nor": 3189,
      "best": 3190,
      "created": 3191,
      "SH": 3192,
      "cu": 3193,
      "site": 3194,
      "high": 3195,
      "....": 3196,
      "ild": 3197,
      "called": 3198,
      "ately": 3199,
      "produ": 3200,
      "original": 3201,
      "fect": 3202,
      "ead": 3203,
      "uy": 3204,
      "certain": 3205,
      "body": 3206,
      "www": 3207,
      "However": 3208,
      "isn": 3209,
      "sur": 3210,
      "etc": 3211,
      "sex": 3212,
      "vant": 3213,
      "und": 3214,
      "exist": 3215,
      "inde": 3216,
      "ged": 3217,
      "regard": 3218,
      "address": 3219,
      "ween": 3220,
      "ution": 3221,
      "=\"\"": 3222,
      "const": 3223,
      "ith": 3224,
      "ake": 3225,
      "appropri": 3226,
      "recent": 3227,
      "On": 3228,
      "probably": 3229,
      "char": 3230,
      "leave": 3231,
      "notable": 3232,
      "criter": 3233,
      "Mo": 3234,
      "simply": 3235,
      "thor": 3236,
      "bad": 3237,
      "LL": 3238,
      "test": 3239,
      "delete": 3240,
      "either": 3241,
      "enough": 3242,
      "around": 3243,
      "users": 3244,
      "templ": 3245,
      "consensus": 3246,
      "ided": 3247,
      "Not": 3248,
      "als": 3249,
      "written": 3250,
      "seem": 3251,
      "concer": 3252,
      "row": 3253,
      "bor": 3254,
      "io": 3255,
      "opinion": 3256,
      "reverted": 3257,
      "They": 3258,
      "kind": 3259,
      "Hello": 3260,
      "mary": 3261,
      "specific": 3262,
      "between": 3263,
      "22": 3264,
      "date": 3265,
      "requ": 3266,
      "fam": 3267,
      "logy": 3268,
      "version": 3269,
      "life": 3270,
      "trans": 3271,
      "har": 3272,
      "mind": 3273,
      "yle": 3274,
      "commun": 3275,
      "Just": 3276,
      "ED": 3277,
      "Image": 3278,
      "info": 3279,
      "sit": 3280,
      "ID": 3281,
      "pict": 3282,
      "ss": 3283,
      "ents": 3284,
      "ken": 3285,
      "research": 3286,
      "attack": 3287,
      "atch": 3288,
      "important": 3289,
      "cr": 3290,
      "viol": 3291,
      "impro": 3292,
      "ash": 3293,
      "''''": 3294,
      "ark": 3295,
      "appropriate": 3296,
      "Fe": 3297,
      "needs": 3298,
      "contro": 3299,
      "contributions": 3300,
      "shit": 3301,
      "ention": 3302,
      "title": 3303,
      "prov": 3304,
      "pose": 3305,
      "message": 3306,
      "dec": 3307,
      "complete": 3308,
      "ited": 3309,
      "number": 3310,
      "acks": 3311,
      "OO": 3312,
      "tur": 3313,
      "term": 3314,
      "Chr": 3315,
      "la": 3316,
      "evidence": 3317,
      "ese": 3318,
      "images": 3319,
      "haps": 3320,
      "invol": 3321,
      "ures": 3322,
      "relevant": 3323,
      "true": 3324,
      "ground": 3325,
      "UN": 3326,
      "move": 3327,
      "allow": 3328,
      "member": 3329,
      "notice": 3330,
      "language": 3331,
      "23": 3332,
      "direct": 3333,
      "ug": 3334,
      "RA": 3335,
      "given": 3336,
      "sci": 3337,
      "ger": 3338,
      "Bo": 3339,
      "having": 3340,
      "hand": 3341,
      "administ": 3342,
      "encyclopedia": 3343,
      "Jo": 3344,
      "See": 3345,
      "second": 3346,
      "possible": 3347,
      "style": 3348,
      "coun": 3349,
      "upload": 3350,
      "hether": 3351,
      "LE": 3352,
      "err": 3353,
      "yet": 3354,
      "saying": 3355,
      "ins": 3356,
      "ner": 3357,
      "ified": 3358,
      "bre": 3359,
      "clearly": 3360,
      "All": 3361,
      "lar": 3362,
      "quite": 3363,
      "criteria": 3364,
      "net": 3365,
      "always": 3366,
      "website": 3367,
      "ruct": 3368,
      "ration": 3369,
      "ized": 3370,
      "chool": 3371,
      "ute": 3372,
      "obvious": 3373,
      "guidelines": 3374,
      "based": 3375,
      "Ro": 3376,
      "ton": 3377,
      "hard": 3378,
      "ext": 3379,
      "Ed": 3380,
      "OM": 3381,
      "light": 3382,
      "polit": 3383,
      "fri": 3384,
      "ters": 3385,
      "sidered": 3386,
      "por": 3387,
      "pare": 3388,
      "known": 3389,
      "considered": 3390,
      "mail": 3391,
      "Any": 3392,
      "May": 3393,
      "pop": 3394,
      "Or": 3395,
      "veral": 3396,
      "jor": 3397,
      "changes": 3398,
      "words": 3399,
      "offic": 3400,
      "lished": 3401,
      "author": 3402,
      "FF": 3403,
      "utral": 3404,
      "ush": 3405,
      "stud": 3406,
      "dist": 3407,
      ".\"": 3408,
      "bers": 3409,
      "disput": 3410,
      "project": 3411,
      "tempt": 3412,
      "preci": 3413,
      "ail": 3414,
      "makes": 3415,
      "listed": 3416,
      "ities": 3417,
      "qual": 3418,
      "whether": 3419,
      "fully": 3420,
      "zzzz": 3421,
      "Man": 3422,
      "fil": 3423,
      "prote": 3424,
      "ption": 3425,
      "further": 3426,
      "idea": 3427,
      "Af": 3428,
      "position": 3429,
      "LO": 3430,
      "left": 3431,
      "AM": 3432,
      "nnnn": 3433,
      "bas": 3434,
      "instead": 3435,
      "air": 3436,
      "cannot": 3437,
      "wee": 3438,
      "warning": 3439,
      "uff": 3440,
      "until": 3441,
      "uyuy": 3442,
      "tail": 3443,
      "several": 3444,
      "HAHA": 3445,
      "course": 3446,
      "CH": 3447,
      "particular": 3448,
      "eng": 3449,
      "oc": 3450,
      "related": 3451,
      "AND": 3452,
      "tyty": 3453,
      "wish": 3454,
      "pho": 3455,
      "means": 3456,
      "AB": 3457,
      "friend": 3458,
      "ature": 3459,
      "sm": 3460,
      "happen": 3461,
      "ote": 3462,
      "NOT": 3463,
      "came": 3464,
      "anti": 3465,
      "mentioned": 3466,
      "25": 3467,
      "each": 3468,
      "cas": 3469,
      "tru": 3470,
      "eas": 3471,
      "stat": 3472,
      "media": 3473,
      "den": 3474,
      "Sh": 3475,
      "yes": 3476,
      "AR": 3477,
      "resul": 3478,
      "thanks": 3479,
      "following": 3480,
      "ised": 3481,
      "rules": 3482,
      "ST": 3483,
      "Ind": 3484,
      "entire": 3485,
      ";=": 3486,
      "Che": 3487,
      "var": 3488,
      "appreci": 3489,
      "pg": 3490,
      "Mar": 3491,
      "Well": 3492,
      "topic": 3493,
      "whole": 3494,
      "bro": 3495,
      "cle": 3496,
      "times": 3497,
      "usion": 3498,
      "cap": 3499,
      "sed": 3500,
      "exp": 3501,
      "attempt": 3502,
      "proper": 3503,
      "pur": 3504,
      "organ": 3505,
      "ategory": 3506,
      "Le": 3507,
      "diff": 3508,
      "statement": 3509,
      "template": 3510,
      "moron": 3511,
      "create": 3512,
      "1111": 3513,
      "class": 3514,
      "Artic": 3515,
      "law": 3516,
      "histor": 3517,
      "pup": 3518,
      "100": 3519,
      "Some": 3520,
      "Jew": 3521,
      "placed": 3522,
      "issues": 3523,
      "ness": 3524,
      "Ex": 3525,
      "pli": 3526,
      "three": 3527,
      "loc": 3528,
      "days": 3529,
      "ones": 3530,
      "facts": 3531,
      "detail": 3532,
      "fun": 3533,
      "WI": 3534,
      "agr": 3535,
      "set": 3536,
      "fort": 3537,
      "seen": 3538,
      "!!!": 3539,
      "include": 3540,
      "once": 3541,
      "nomin": 3542,
      "Ger": 3543,
      "Ag": 3544,
      "fix": 3545,
      "administrat": 3546,
      "ries": 3547,
      "SUCK": 3548,
      "open": 3549,
      "major": 3550,
      "ended": 3551,
      "Reg": 3552,
      "knowled": 3553,
      "Christ": 3554,
      "band": 3555,
      "rid": 3556,
      "gin": 3557,
      "ham": 3558,
      "na": 3559,
      "acy": 3560,
      "uring": 3561,
      "Brit": 3562,
      "CT": 3563,
      "national": 3564,
      "lling": 3565,
      "American": 3566,
      "car": 3567,
      "bu": 3568,
      "}}": 3569,
      "ilar": 3570,
      "general": 3571,
      "vel": 3572,
      "neutral": 3573,
      "Now": 3574,
      "accur": 3575,
      "mist": 3576,
      "WWWW": 3577,
      "2005": 3578,
      "puppe": 3579,
      "bal": 3580,
      "four": 3581,
      "Don": 3582,
      "Per": 3583,
      "dou": 3584,
      "respect": 3585,
      "cially": 3586,
      "including": 3587,
      "charac": 3588,
      "sock": 3589,
      "common": 3590,
      "parent": 3591,
      "sentence": 3592,
      "run": 3593,
      "SE": 3594,
      "jpg": 3595,
      "photo": 3596,
      "indic": 3597,
      "rad": 3598,
      "necess": 3599,
      "199": 3600,
      "mus": 3601,
      "cording": 3602,
      "myself": 3603,
      "hum": 3604,
      "action": 3605,
      "provide": 3606,
      "short": 3607,
      ".)": 3608,
      "rup": 3609,
      "def": 3610,
      "bio": 3611,
      "names": 3612,
      "ivers": 3613,
      "ward": 3614,
      "Here": 3615,
      "AG": 3616,
      "uro": 3617,
      "ago": 3618,
      "ns": 3619,
      "pend": 3620,
      "exact": 3621,
      "syst": 3622,
      "Pe": 3623,
      "ony": 3624,
      "sorry": 3625,
      "vice": 3626,
      "included": 3627,
      "men": 3628,
      "web": 3629,
      "Co": 3630,
      "Nor": 3631,
      "sha": 3632,
      "watch": 3633,
      "full": 3634,
      "away": 3635,
      "ping": 3636,
      "sourced": 3637,
      "{{": 3638,
      "order": 3639,
      "tro": 3640,
      "tty": 3641,
      "changed": 3642,
      "answer": 3643,
      "ount": 3644,
      "apo": 3645,
      "When": 3646,
      "uation": 3647,
      "appear": 3648,
      "lack": 3649,
      "cred": 3650,
      "news": 3651,
      "Sp": 3652,
      "accus": 3653,
      "ator": 3654,
      "worth": 3655,
      "process": 3656,
      "writing": 3657,
      "ik": 3658,
      "ler": 3659,
      "rote": 3660,
      "ARE": 3661,
      "fal": 3662,
      "serious": 3663,
      "getting": 3664,
      "school": 3665,
      "000": 3666,
      "started": 3667,
      "outh": 3668,
      "wrote": 3669,
      "auto": 3670,
      "notic": 3671,
      "suck": 3672,
      "ord": 3673,
      "prof": 3674,
      "ories": 3675,
      "summary": 3676,
      "agraph": 3677,
      "gay": 3678,
      "taken": 3679,
      "2006": 3680,
      "Qu": 3681,
      "Ser": 3682,
      "later": 3683,
      "ye": 3684,
      "ili": 3685,
      "however": 3686,
      "month": 3687,
      "stay": 3688,
      "love": 3689,
      "ides": 3690,
      "fer": 3691,
      "interested": 3692,
      "deal": 3693,
      "color": 3694,
      "bar": 3695,
      "ird": 3696,
      "contribs": 3697,
      "paragraph": 3698,
      "past": 3699,
      "meet": 3700,
      "sc": 3701,
      "similar": 3702,
      "faith": 3703,
      "Hey": 3704,
      "gram": 3705,
      "respond": 3706,
      "mi": 3707,
      "ait": 3708,
      "pass": 3709,
      "wise": 3710,
      "claims": 3711,
      "Lo": 3712,
      "Yes": 3713,
      "ank": 3714,
      "removing": 3715,
      "picture": 3716,
      "stuff": 3717,
      "sert": 3718,
      "previous": 3719,
      "plain": 3720,
      "official": 3721,
      "object": 3722,
      "TO": 3723,
      "wanted": 3724,
      "knowledge": 3725,
      "involved": 3726,
      "One": 3727,
      "ze": 3728,
      "next": 3729,
      "ctions": 3730,
      "kill": 3731,
      "sort": 3732,
      "improve": 3733,
      "regarding": 3734,
      "rupt": 3735,
      "power": 3736,
      "soci": 3737,
      "cult": 3738,
      "attacks": 3739,
      "gover": 3740,
      "30": 3741,
      "refer": 3742,
      "quot": 3743,
      "critic": 3744,
      "MO": 3745,
      "ames": 3746,
      "dom": 3747,
      "appears": 3748,
      "Po": 3749,
      "VE": 3750,
      "looking": 3751,
      "background": 3752,
      "Ne": 3753,
      "repe": 3754,
      "itself": 3755,
      "LI": 3756,
      "AD": 3757,
      "currently": 3758,
      "gn": 3759,
      "ross": 3760,
      "community": 3761,
      "Me": 3762,
      "ising": 3763,
      "relig": 3764,
      "vent": 3765,
      "RAP": 3766,
      "cover": 3767,
      "CO": 3768,
      "addition": 3769,
      "maybe": 3770,
      "uss": 3771,
      "false": 3772,
      "rom": 3773,
      "beha": 3774,
      "Pol": 3775,
      "within": 3776,
      "espe": 3777,
      "ling": 3778,
      "rac": 3779,
      "hn": 3780,
      "ization": 3781,
      "published": 3782,
      "ently": 3783,
      "Sorry": 3784,
      "tered": 3785,
      "country": 3786,
      "ifi": 3787,
      "especially": 3788,
      "vil": 3789,
      "policies": 3790,
      "fail": 3791,
      "edited": 3792,
      "andbox": 3793,
      "CC": 3794,
      "50": 3795,
      "Project": 3796,
      "books": 3797,
      "bed": 3798,
      "states": 3799,
      "velo": 3800,
      "child": 3801,
      "ield": 3802,
      "sound": 3803,
      "____": 3804,
      "hold": 3805,
      "completely": 3806,
      "notability": 3807,
      "del": 3808,
      "dont": 3809,
      "single": 3810,
      "bus": 3811,
      "behavi": 3812,
      "ball": 3813,
      "cing": 3814,
      "ference": 3815,
      "ogle": 3816,
      "SHIT": 3817,
      "explan": 3818,
      "uture": 3819,
      "protect": 3820,
      "upid": 3821,
      "represent": 3822,
      "DIE": 3823,
      "nment": 3824,
      "cide": 3825,
      "truth": 3826,
      "ina": 3827,
      "everyone": 3828,
      "ulti": 3829,
      "certainly": 3830,
      "ring": 3831,
      "nice": 3832,
      "record": 3833,
      "oun": 3834,
      "intro": 3835,
      "pretty": 3836,
      "WH": 3837,
      "GO": 3838,
      "likely": 3839,
      "signific": 3840,
      "hon": 3841,
      "bot": 3842,
      "week": 3843,
      "ME": 3844,
      "reading": 3845,
      "ible": 3846,
      "ification": 3847,
      "deb": 3848,
      "ange": 3849,
      "argument": 3850,
      "wasn": 3851,
      "ital": 3852,
      "hour": 3853,
      "len": 3854,
      "At": 3855,
      "ision": 3856,
      "perhaps": 3857,
      "disagree": 3858,
      "medi": 3859,
      "que": 3860,
      "Good": 3861,
      "War": 3862,
      "ps": 3863,
      "entry": 3864,
      "mem": 3865,
      "ulation": 3866,
      "asked": 3867,
      "Te": 3868,
      "guess": 3869,
      "2007": 3870,
      "2008": 3871,
      "working": 3872,
      "due": 3873,
      "tot": 3874,
      "uses": 3875,
      "itions": 3876,
      "threat": 3877,
      "guy": 3878,
      "fig": 3879,
      "sho": 3880,
      "during": 3881,
      "pat": 3882,
      "IGG": 3883,
      "AA": 3884,
      "By": 3885,
      "Since": 3886,
      "quote": 3887,
      "pie": 3888,
      "fucking": 3889,
      "plic": 3890,
      "33": 3891,
      "stupid": 3892,
      "ging": 3893,
      "iment": 3894,
      "views": 3895,
      "EW": 3896,
      "oid": 3897,
      "Wor": 3898,
      "key": 3899,
      "press": 3900,
      "gar": 3901,
      "wonder": 3902,
      "Again": 3903,
      "reed": 3904,
      "ann": 3905,
      "below": 3906,
      "talking": 3907,
      "Are": 3908,
      "aware": 3909,
      "hy": 3910,
      "Li": 3911,
      "posted": 3912,
      "game": 3913,
      "ured": 3914,
      "ron": 3915,
      "Wikiped": 3916,
      "OF": 3917,
      "atever": 3918,
      "bly": 3919,
      "noticed": 3920,
      "ury": 3921,
      "learn": 3922,
      "John": 3923,
      "Jun": 3924,
      "develo": 3925,
      "useful": 3926,
      "zer": 3927,
      "points": 3928,
      "iction": 3929,
      "United": 3930,
      "ret": 3931,
      "contact": 3932,
      "took": 3933,
      "live": 3934,
      "redirect": 3935,
      "ai": 3936,
      "system": 3937,
      "cited": 3938,
      "ilit": 3939,
      "eth": 3940,
      "BS": 3941,
      "Oh": 3942,
      "comes": 3943,
      "selves": 3944,
      "future": 3945,
      "small": 3946,
      "docu": 3947,
      "ants": 3948,
      "Bar": 3949,
      "edia": 3950,
      "meaning": 3951,
      "necessary": 3952,
      "II": 3953,
      "along": 3954,
      "response": 3955,
      "appreciate": 3956,
      "Ge": 3957,
      "Let": 3958,
      "Euro": 3959,
      "Jan": 3960,
      "win": 3961,
      "confir": 3962,
      "everything": 3963,
      "large": 3964,
      "sch": 3965,
      "oper": 3966,
      "coming": 3967,
      "email": 3968,
      "reasons": 3969,
      "rely": 3970,
      "21": 3971,
      "hate": 3972,
      "board": 3973,
      "aged": 3974,
      "Tr": 3975,
      "needed": 3976,
      "Ste": 3977,
      "looks": 3978,
      "joy": 3979,
      "ata": 3980,
      "ouse": 3981,
      "ively": 3982,
      "music": 3983,
      "Ju": 3984,
      "today": 3985,
      "oman": 3986,
      "Wel": 3987,
      "sandbox": 3988,
      "cogn": 3989,
      "British": 3990,
      "accurate": 3991,
      "198": 3992,
      "political": 3993,
      "Dis": 3994,
      "scient": 3995,
      "star": 3996,
      "ural": 3997,
      "actions": 3998,
      "provided": 3999,
      "rule": 4000,
      "valid": 4001,
      "stated": 4002,
      "jud": 4003,
      "Gree": 4004,
      "cident": 4005,
      "often": 4006,
      "graphy": 4007,
      "strong": 4008,
      "hom": 4009,
      "happy": 4010,
      "mission": 4011,
      "pers": 4012,
      "dispute": 4013,
      "di": 4014,
      "IC": 4015,
      "remain": 4016,
      "Tur": 4017,
      "rop": 4018,
      "ives": 4019,
      "pract": 4020,
      "effect": 4021,
      "DO": 4022,
      "username": 4023,
      "exactly": 4024,
      "speak": 4025,
      "Pr": 4026,
      "tm": 4027,
      "plan": 4028,
      "Spe": 4029,
      "problems": 4030,
      "controver": 4031,
      "List": 4032,
      "ley": 4033,
      "soon": 4034,
      "film": 4035,
      "hal": 4036,
      "ivid": 4037,
      "27": 4038,
      "field": 4039,
      "become": 4040,
      "iness": 4041,
      "haven": 4042,
      "type": 4043,
      "vol": 4044,
      "bel": 4045,
      "vandalize": 4046,
      "status": 4047,
      "character": 4048,
      "Hel": 4049,
      "moved": 4050,
      "iversity": 4051,
      "ared": 4052,
      "reverting": 4053,
      "multi": 4054,
      "continu": 4055,
      "ternal": 4056,
      "Pl": 4057,
      "except": 4058,
      "reply": 4059,
      "legal": 4060,
      "tried": 4061,
      "administrator": 4062,
      "ax": 4063,
      "NIGG": 4064,
      "FAT": 4065,
      "peri": 4066,
      "uc": 4067,
      "ali": 4068,
      "!!!!!!!!!!!!!!!!!!!!!!!!!!!!!!!!": 4069,
      "context": 4070,
      "God": 4071,
      "NPOV": 4072,
      "explanation": 4073,
      "thank": 4074,
      "urch": 4075,
      "Mr": 4076,
      "experi": 4077,
      "ALL": 4078,
      "remember": 4079,
      "story": 4080,
      "She": 4081,
      "wards": 4082,
      "lim": 4083,
      "deleting": 4084,
      "mark": 4085,
      "ani": 4086,
      "taking": 4087,
      "lam": 4088,
      "Fir": 4089,
      "unless": 4090,
      "YOUR": 4091,
      "uploaded": 4092,
      "gether": 4093,
      "banned": 4094,
      "ny": 4095,
      "saw": 4096,
      "five": 4097,
      "boy": 4098,
      "dra": 4099,
      "according": 4100,
      "ending": 4101,
      "tech": 4102,
      "ived": 4103,
      "Get": 4104,
      "separ": 4105,
      "assu": 4106,
      "subst": 4107,
      "NIGGER": 4108,
      "ont": 4109,
      "contain": 4110,
      "government": 4111,
      "2004": 4112,
      "job": 4113,
      "disrupt": 4114,
      "definition": 4115,
      "Ac": 4116,
      "together": 4117,
      "terms": 4118,
      "ially": 4119,
      "almost": 4120,
      "although": 4121,
      "description": 4122,
      "shows": 4123,
      "ier": 4124,
      "guys": 4125,
      "40": 4126,
      "obviously": 4127,
      "Europe": 4128,
      "level": 4129,
      "actual": 4130,
      "Ab": 4131,
      "cut": 4132,
      "whatever": 4133,
      "mal": 4134,
      "ric": 4135,
      "omet": 4136,
      "2010": 4137,
      "avoid": 4138,
      "WikiProject": 4139,
      "close": 4140,
      "conflic": 4141,
      "bum": 4142,
      "UNT": 4143,
      "ore": 4144,
      "Cl": 4145,
      "ety": 4146,
      "Col": 4147,
      "experiment": 4148,
      "works": 4149,
      "termin": 4150,
      "decide": 4151,
      "Edit": 4152,
      "resol": 4153,
      "pret": 4154,
      "ividual": 4155,
      "recently": 4156,
      "company": 4157,
      "clar": 4158,
      "Cheers": 4159,
      "emp": 4160,
      "bitch": 4161,
      "generally": 4162,
      "aking": 4163,
      "tags": 4164,
      "admins": 4165,
      "ient": 4166,
      "fish": 4167,
      "sl": 4168,
      "RO": 4169,
      "ired": 4170,
      "matically": 4171,
      "gy": 4172,
      "htm": 4173,
      "alone": 4174,
      "construct": 4175,
      "First": 4176,
      "nig": 4177,
      "ATE": 4178,
      "]]": 4179,
      "Isra": 4180,
      "Pre": 4181,
      "promot": 4182,
      "introdu": 4183,
      "file": 4184,
      "result": 4185,
      "doub": 4186,
      "human": 4187,
      "Russ": 4188,
      "aren": 4189,
      "MY": 4190,
      "enjoy": 4191,
      "Gr": 4192,
      "fine": 4193,
      "Hist": 4194,
      "ib": 4195,
      "nal": 4196,
      "biased": 4197,
      "Welcome": 4198,
      "Mus": 4199,
      "expect": 4200,
      "lock": 4201,
      "CUNT": 4202,
      "AID": 4203,
      "nic": 4204,
      "told": 4205,
      "OH": 4206,
      "cam": 4207,
      "criticism": 4208,
      "pot": 4209,
      "TAB": 4210,
      "JEW": 4211,
      "themselves": 4212,
      "went": 4213,
      "allowed": 4214,
      "citation": 4215,
      "mill": 4216,
      "Aug": 4217,
      "minor": 4218,
      "helpful": 4219,
      "ery": 4220,
      "ket": 4221,
      "Who": 4222,
      "face": 4223,
      "complain": 4224,
      "individual": 4225,
      "cite": 4226,
      "28": 4227,
      "PIG": 4228,
      "area": 4229,
      "attention": 4230,
      "BE": 4231,
      "2009": 4232,
      "ANK": 4233,
      "26": 4234,
      "event": 4235,
      "Will": 4236,
      "logical": 4237,
      "bias": 4238,
      "moder": 4239,
      "liber": 4240,
      "ama": 4241,
      "various": 4242,
      "members": 4243,
      "foot": 4244,
      "serv": 4245,
      "contributing": 4246,
      "space": 4247,
      "ele": 4248,
      "rece": 4249,
      "Gu": 4250,
      "ming": 4251,
      "recogn": 4252,
      "ener": 4253,
      "Fuck": 4254,
      "team": 4255,
      "simple": 4256,
      "song": 4257,
      "equ": 4258,
      "sus": 4259,
      "tom": 4260,
      "FUCKFUCK": 4261,
      "signed": 4262,
      "GA": 4263,
      "category": 4264,
      "estab": 4265,
      "particip": 4266,
      "nnnnnnnn": 4267,
      "dr": 4268,
      "ica": 4269,
      "uyuyuyuy": 4270,
      "death": 4271,
      "uk": 4272,
      "worked": 4273,
      "citations": 4274,
      "Pers": 4275,
      "ison": 4276,
      "anyway": 4277,
      "omen": 4278,
      "interesting": 4279,
      "piece": 4280,
      "fav": 4281,
      "avail": 4282,
      "sites": 4283,
      "Christian": 4284,
      "Help": 4285,
      "tytytyty": 4286,
      "29": 4287,
      "suc": 4288,
      "party": 4289,
      "zzzzzzzz": 4290,
      "met": 4291,
      "CRAP": 4292,
      "hours": 4293,
      "Aust": 4294,
      "ION": 4295,
      "belong": 4296,
      "gl": 4297,
      "quick": 4298,
      "transl": 4299,
      "istic": 4300,
      "significant": 4301,
      "ites": 4302,
      "tagged": 4303,
      "En": 4304,
      "therefore": 4305,
      "longer": 4306,
      "Of": 4307,
      "ream": 4308,
      "force": 4309,
      "~~~~": 4310,
      "Then": 4311,
      "IL": 4312,
      "IM": 4313,
      "igno": 4314,
      "''''''": 4315,
      "Did": 4316,
      "civil": 4317,
      "reme": 4318,
      "product": 4319,
      "dam": 4320,
      "ane": 4321,
      "These": 4322,
      "ensive": 4323,
      "apolog": 4324,
      "Act": 4325,
      "ambig": 4326,
      "ering": 4327,
      "creating": 4328,
      "UP": 4329,
      "fan": 4330,
      "mass": 4331,
      "RECT": 4332,
      "Ke": 4333,
      "himself": 4334,
      "theory": 4335,
      "automatically": 4336,
      "BL": 4337,
      "document": 4338,
      "\"::": 4339,
      "German": 4340,
      "insul": 4341,
      "sections": 4342,
      "Har": 4343,
      "Res": 4344,
      ":#": 4345,
      "ences": 4346,
      "consist": 4347,
      "REDI": 4348,
      "Mac": 4349,
      "VER": 4350,
      "happened": 4351,
      "near": 4352,
      "196": 4353,
      "umb": 4354,
      "Car": 4355,
      "mag": 4356,
      "With": 4357,
      "AIDS": 4358,
      "lat": 4359,
      "wid": 4360,
      "unblock": 4361,
      "Admin": 4362,
      "definite": 4363,
      "CRAPCRAP": 4364,
      "apan": 4365,
      "van": 4366,
      "Maybe": 4367,
      "opinions": 4368,
      "flu": 4369,
      "proof": 4370,
      "supposed": 4371,
      "EL": 4372,
      "TW": 4373,
      "ined": 4374,
      "conne": 4375,
      "nonsense": 4376,
      "Perhaps": 4377,
      "home": 4378,
      "verifi": 4379,
      "tild": 4380,
      "standard": 4381,
      "turn": 4382,
      "accepted": 4383,
      "Ok": 4384,
      "Page": 4385,
      "ben": 4386,
      "States": 4387,
      "Even": 4388,
      "city": 4389,
      "Jewish": 4390,
      "wouldn": 4391,
      "period": 4392,
      "ats": 4393,
      "half": 4394,
      "Articles": 4395,
      "doubt": 4396,
      "indicate": 4397,
      "multiple": 4398,
      "conv": 4399,
      "typ": 4400,
      "acceptable": 4401,
      "tildes": 4402,
      "wait": 4403,
      "nder": 4404,
      "Where": 4405,
      "ond": 4406,
      "ology": 4407,
      "available": 4408,
      ",\"\"": 4409,
      "bring": 4410,
      "ror": 4411,
      "idd": 4412,
      "mic": 4413,
      "proposed": 4414,
      "clean": 4415,
      "OK": 4416,
      "While": 4417,
      "197": 4418,
      "ican": 4419,
      "prop": 4420,
      "album": 4421,
      "lls": 4422,
      "indeed": 4423,
      "July": 4424,
      ");": 4425,
      "months": 4426,
      "width": 4427,
      "EDI": 4428,
      "izing": 4429,
      "solute": 4430,
      "ney": 4431,
      "Take": 4432,
      "Fo": 4433,
      "Feb": 4434,
      "11111111": 4435,
      "Dr": 4436,
      "wo": 4437,
      "quality": 4438,
      "World": 4439,
      "unch": 4440,
      "goes": 4441,
      "iot": 4442,
      "rights": 4443,
      "cir": 4444,
      "statements": 4445,
      "orial": 4446,
      "reach": 4447,
      "itive": 4448,
      "concept": 4449,
      "white": 4450,
      "gets": 4451,
      "ime": 4452,
      "ional": 4453,
      "science": 4454,
      "ste": 4455,
      "contest": 4456,
      "family": 4457,
      "August": 4458,
      "ession": 4459,
      "Article": 4460,
      "fortun": 4461,
      "REDIRECT": 4462,
      "itch": 4463,
      "violation": 4464,
      "living": 4465,
      "epis": 4466,
      "ster": 4467,
      "Mon": 4468,
      "incorrect": 4469,
      "RS": 4470,
      "fight": 4471,
      "CE": 4472,
      "honest": 4473,
      "ris": 4474,
      "Japan": 4475,
      "begin": 4476,
      "prove": 4477,
      "upon": 4478,
      "debate": 4479,
      "99": 4480,
      "third": 4481,
      "among": 4482,
      "Request": 4483,
      "map": 4484,
      "\"\"?": 4485,
      "dick": 4486,
      "elect": 4487,
      "hu": 4488,
      "mother": 4489,
      "feat": 4490,
      "After": 4491,
      "IST": 4492,
      "mom": 4493,
      "series": 4494,
      "Cor": 4495,
      "bur": 4496,
      "fac": 4497,
      "apparent": 4498,
      "shouldn": 4499,
      "born": 4500,
      "Sty": 4501,
      "UK": 4502,
      "phr": 4503,
      "push": 4504,
      "ons": 4505,
      "wide": 4506,
      "suff": 4507,
      "alleg": 4508,
      "aj": 4509,
      "hind": 4510,
      "step": 4511,
      "concl": 4512,
      ".,": 4513,
      "mm": 4514,
      "heard": 4515,
      "imate": 4516,
      "dest": 4517,
      "oo": 4518,
      "====": 4519,
      "Have": 4520,
      "ET": 4521,
      "independ": 4522,
      "WWWWWWWW": 4523,
      "King": 4524,
      "anda": 4525,
      "build": 4526,
      "purpose": 4527,
      "conflict": 4528,
      "px": 4529,
      "vot": 4530,
      "Category": 4531,
      "THIS": 4532,
      "explaining": 4533,
      "vision": 4534,
      "ignor": 4535,
      "understanding": 4536,
      "historical": 4537,
      "comput": 4538,
      "design": 4539,
      "Canad": 4540,
      "situation": 4541,
      "ilitary": 4542,
      "absolute": 4543,
      "EST": 4544,
      "details": 4545,
      "repeated": 4546,
      "usually": 4547,
      "error": 4548,
      "linked": 4549,
      "ices": 4550,
      "messages": 4551,
      "Sy": 4552,
      "advert": 4553,
      "ribut": 4554,
      "data": 4555,
      "otherwise": 4556,
      "separate": 4557,
      "couple": 4558,
      "TV": 4559,
      "hit": 4560,
      "neg": 4561,
      "warring": 4562,
      "calling": 4563,
      "behavior": 4564,
      "program": 4565,
      "liter": 4566,
      "His": 4567,
      "table": 4568,
      "aving": 4569,
      "asking": 4570,
      "Sep": 4571,
      "via": 4572,
      "border": 4573,
      "thus": 4574,
      "schol": 4575,
      "pill": 4576,
      "puppet": 4577,
      "March": 4578,
      "gs": 4579,
      "poor": 4580,
      "video": 4581,
      "cha": 4582,
      "UU": 4583,
      "abor": 4584,
      "rationale": 4585,
      "Style": 4586,
      "National": 4587,
      "Fran": 4588,
      "leng": 4589,
      "famili": 4590,
      "Bark": 4591,
      "cal": 4592,
      "lent": 4593,
      "uary": 4594,
      "bes": 4595,
      "pic": 4596,
      "somet": 4597,
      "lier": 4598,
      "sk": 4599,
      "existing": 4600,
      "[[": 4601,
      "ying": 4602,
      "Ye": 4603,
      "BO": 4604,
      "limit": 4605,
      "activ": 4606,
      "Fin": 4607,
      "iss": 4608,
      "hell": 4609,
      "vote": 4610,
      "plied": 4611,
      "unk": 4612,
      "spam": 4613,
      "directly": 4614,
      "Dav": 4615,
      "sad": 4616,
      "vir": 4617,
      "deser": 4618,
      "Add": 4619,
      "assert": 4620,
      "oney": 4621,
      "align": 4622,
      "2012": 4623,
      "invest": 4624,
      "Bro": 4625,
      "assume": 4626,
      "80": 4627,
      "creation": 4628,
      "produce": 4629,
      "mas": 4630,
      "utes": 4631,
      "anal": 4632,
      "Note": 4633,
      "sat": 4634,
      "June": 4635,
      "SP": 4636,
      "ances": 4637,
      "India": 4638,
      "lled": 4639,
      "prefer": 4640,
      "Oc": 4641,
      "blocking": 4642,
      "ya": 4643,
      "alth": 4644,
      "Other": 4645,
      "categ": 4646,
      "sible": 4647,
      "tar": 4648,
      "perfect": 4649,
      "Does": 4650,
      "hear": 4651,
      "Am": 4652,
      "Manual": 4653,
      "meant": 4654,
      "Because": 4655,
      "harass": 4656,
      "difference": 4657,
      "jour": 4658,
      "cast": 4659,
      "ene": 4660,
      "contribute": 4661,
      "countries": 4662,
      "drop": 4663,
      "0000": 4664,
      "control": 4665,
      "Mic": 4666,
      "described": 4667,
      "external": 4668,
      "scientific": 4669,
      "ga": 4670,
      "special": 4671,
      "Ob": 4672,
      "Could": 4673,
      "University": 4674,
      "FAG": 4675,
      "diffic": 4676,
      "History": 4677,
      "ential": 4678,
      "culture": 4679,
      "**": 4680,
      "inclusion": 4681,
      "WIK": 4682,
      "From": 4683,
      "hor": 4684,
      "ague": 4685,
      "Bl": 4686,
      "gre": 4687,
      "black": 4688,
      "lies": 4689,
      "contr": 4690,
      "require": 4691,
      "dri": 4692,
      "45": 4693,
      "LA": 4694,
      "bri": 4695,
      "changing": 4696,
      "Quest": 4697,
      "WANK": 4698,
      "iding": 4699,
      "lid": 4700,
      "movi": 4701,
      "????": 4702,
      "expand": 4703,
      "WANKER": 4704,
      "coll": 4705,
      "cock": 4706,
      "attle": 4707,
      "Austral": 4708,
      "Islam": 4709,
      "html": 4710,
      "FD": 4711,
      "primary": 4712,
      "aud": 4713,
      "fag": 4714,
      "ni": 4715,
      "rench": 4716,
      "phys": 4717,
      "giving": 4718,
      "ales": 4719,
      "decl": 4720,
      "decided": 4721,
      "numbers": 4722,
      "pet": 4723,
      "sequ": 4724,
      "admit": 4725,
      "Par": 4726,
      "amount": 4727,
      "Wik": 4728,
      "cases": 4729,
      "Ph": 4730,
      "extreme": 4731,
      "utorial": 4732,
      "develop": 4733,
      "irl": 4734,
      "January": 4735,
      "pillars": 4736,
      "sen": 4737,
      "HAHAHAHA": 4738,
      "eli": 4739,
      "(~~~~": 4740,
      "modern": 4741,
      "definitely": 4742,
      "Em": 4743,
      "2011": 4744,
      "business": 4745,
      "South": 4746,
      "fill": 4747,
      "FUCKING": 4748,
      "RR": 4749,
      "idiot": 4750,
      "early": 4751,
      "uni": 4752,
      "erous": 4753,
      "Sim": 4754,
      "reader": 4755,
      "discussed": 4756,
      "Greek": 4757,
      "60": 4758,
      "gan": 4759,
      "55": 4760,
      "Ma": 4761,
      "social": 4762,
      "groups": 4763,
      "constructive": 4764,
      "release": 4765,
      "willing": 4766,
      "Rf": 4767,
      "OP": 4768,
      "personally": 4769,
      "earlier": 4770,
      "Arab": 4771,
      "resto": 4772,
      "Republic": 4773,
      "arguments": 4774,
      "fall": 4775,
      "focus": 4776,
      "disruptive": 4777,
      "determin": 4778,
      "DY": 4779,
      "Su": 4780,
      "propos": 4781,
      "ASS": 4782,
      "popular": 4783,
      "Bas": 4784,
      "Tem": 4785,
      "mine": 4786,
      "ode": 4787,
      "named": 4788,
      "HATE": 4789,
      "seriously": 4790,
      "looked": 4791,
      "legit": 4792,
      "active": 4793,
      "More": 4794,
      "Feel": 4795,
      "takes": 4796,
      "Afr": 4797,
      "gave": 4798,
      "acade": 4799,
      "outside": 4800,
      "referenced": 4801,
      "concerns": 4802,
      "cuse": 4803,
      "mand": 4804,
      "ESS": 4805,
      "Roman": 4806,
      "dated": 4807,
      "augh": 4808,
      "specifically": 4809,
      "lege": 4810,
      "night": 4811,
      "treat": 4812,
      "online": 4813,
      "verse": 4814,
      "scre": 4815,
      "particularly": 4816,
      "cra": 4817,
      "mun": 4818,
      "access": 4819,
      "Google": 4820,
      "Wikipedian": 4821,
      "terror": 4822,
      "verifiable": 4823,
      "decision": 4824,
      "Israel": 4825,
      "UR": 4826,
      "Contri": 4827,
      "spo": 4828,
      "replace": 4829,
      "none": 4830,
      "appy": 4831,
      "Ap": 4832,
      "propag": 4833,
      "Naz": 4834,
      "former": 4835,
      "mous": 4836,
      "inci": 4837,
      "ethnic": 4838,
      "ado": 4839,
      "thinking": 4840,
      "Pa": 4841,
      "town": 4842,
      "Best": 4843,
      "reported": 4844,
      "fortunately": 4845,
      "Cent": 4846,
      "ENT": 4847,
      "ILL": 4848,
      "Would": 4849,
      "ko": 4850,
      "towards": 4851,
      "sial": 4852,
      "sucks": 4853,
      "million": 4854,
      "educ": 4855,
      "constit": 4856,
      "48": 4857,
      "reflect": 4858,
      "majority": 4859,
      "ceding": 4860,
      "Further": 4861,
      "ork": 4862,
      "wants": 4863,
      "Apri": 4864,
      "merely": 4865,
      "shall": 4866,
      "tra": 4867,
      "BC": 4868,
      "tool": 4869,
      "pictures": 4870,
      "nstar": 4871,
      "vered": 4872,
      "concern": 4873,
      "April": 4874,
      "plies": 4875,
      "chan": 4876,
      "cember": 4877,
      "readers": 4878,
      "internet": 4879,
      "leading": 4880,
      "Anyway": 4881,
      "benef": 4882,
      "edon": 4883,
      "conom": 4884,
      "01": 4885,
      "MA": 4886,
      "irrelevant": 4887,
      "interpret": 4888,
      "entirely": 4889,
      "altern": 4890,
      "chance": 4891,
      "unsigned": 4892,
      "match": 4893,
      "standards": 4894,
      "nat": 4895,
      "ister": 4896,
      "associ": 4897,
      "thern": 4898,
      "posts": 4899,
      "kept": 4900,
      "reasonable": 4901,
      "figure": 4902,
      "pay": 4903,
      "ament": 4904,
      "relation": 4905,
      "December": 4906,
      "70": 4907,
      "dead": 4908,
      "population": 4909,
      "ipple": 4910,
      "tober": 4911,
      "cand": 4912,
      "lying": 4913,
      "mistake": 4914,
      "Mc": 4915,
      "demon": 4916,
      "cop": 4917,
      "break": 4918,
      "'''": 4919,
      "friends": 4920,
      "Sm": 4921,
      "hes": 4922,
      "rand": 4923,
      "-)": 4924,
      "\"\"|": 4925,
      "abuse": 4926,
      "iddle": 4927,
      "tember": 4928,
      "lt": 4929,
      "antly": 4930,
      "organization": 4931,
      "stra": 4932,
      "forward": 4933,
      "absolutely": 4934,
      "solid": 4935,
      "events": 4936,
      "ferences": 4937,
      "Fair": 4938,
      "Ir": 4939,
      "familiar": 4940,
      "PS": 4941,
      "aid": 4942,
      "wing": 4943,
      "lex": 4944,
      "putting": 4945,
      "surpr": 4946,
      "Jews": 4947,
      "October": 4948,
      "lost": 4949,
      "cell": 4950,
      "pression": 4951,
      "Delet": 4952,
      "DE": 4953,
      "ished": 4954,
      "totally": 4955,
      "influ": 4956,
      "roy": 4957,
      "sym": 4958,
      "highly": 4959,
      "across": 4960,
      "olic": 4961,
      "pointed": 4962,
      "ix": 4963,
      "Nove": 4964,
      "posting": 4965,
      "gives": 4966,
      "advice": 4967,
      "letter": 4968,
      "ires": 4969,
      "behind": 4970,
      "infobox": 4971,
      "Jes": 4972,
      "desp": 4973,
      "gress": 4974,
      "arily": 4975,
      "fit": 4976,
      "assum": 4977,
      "mot": 4978,
      "trou": 4979,
      "Jim": 4980,
      "male": 4981,
      "prevent": 4982,
      "cript": 4983,
      "86": 4984,
      "Iran": 4985,
      "ulous": 4986,
      "club": 4987,
      "covered": 4988,
      "North": 4989,
      "moment": 4990,
      "Sco": 4991,
      "Look": 4992,
      "success": 4993,
      "plate": 4994,
      "America": 4995,
      "September": 4996,
      "31": 4997,
      "rant": 4998,
      "Arch": 4999,
      "gest": 5000,
      "ker": 5001,
      "trad": 5002,
      "November": 5003,
      "'.": 5004,
      "ried": 5005,
      "vertical": 5006,
      "lists": 5007,
      "duct": 5008,
      "children": 5009,
      "protected": 5010,
      "Happy": 5011,
      "immedi": 5012,
      "examples": 5013,
      "Cro": 5014,
      "ses": 5015,
      "ensor": 5016,
      "requesting": 5017,
      "News": 5018,
      "David": 5019,
      "77": 5020,
      "encycloped": 5021,
      "\"==": 5022,
      "Ant": 5023,
      "ana": 5024,
      "Stop": 5025,
      "UM": 5026,
      "90": 5027,
      "Sha": 5028,
      "Vandal": 5029,
      "bul": 5030,
      "religion": 5031,
      "cool": 5032,
      "spa": 5033,
      "enced": 5034,
      "________": 5035,
      "?)": 5036,
      "FC": 5037,
      "supported": 5038,
      "Inter": 5039,
      "explained": 5040,
      "inappropriate": 5041,
      "Gre": 5042,
      "sett": 5043,
      "local": 5044,
      "military": 5045,
      "init": 5046,
      "ruary": 5047,
      "Regard": 5048,
      "computer": 5049,
      "iet": 5050,
      "tre": 5051,
      "Regards": 5052,
      "estern": 5053,
      "apply": 5054,
      "importance": 5055,
      "confirm": 5056,
      "investig": 5057,
      "Her": 5058,
      "cum": 5059,
      "shot": 5060,
      "cient": 5061,
      "spect": 5062,
      "mistak": 5063,
      "shown": 5064,
      "Most": 5065,
      "properly": 5066,
      "controversial": 5067,
      "):": 5068,
      "BUT": 5069,
      "regards": 5070,
      "meth": 5071,
      "removal": 5072,
      "Second": 5073,
      "gone": 5074,
      "century": 5075,
      "summar": 5076,
      "easy": 5077,
      "sto": 5078,
      "February": 5079,
      "bert": 5080,
      "religious": 5081,
      "independent": 5082,
      "nel": 5083,
      "tests": 5084,
      "super": 5085,
      "erring": 5086,
      "administrators": 5087,
      "BIT": 5088,
      "google": 5089,
      ")\"": 5090,
      "stub": 5091,
      "intention": 5092,
      "mad": 5093,
      "suit": 5094,
      "People": 5095,
      "haha": 5096,
      "knows": 5097,
      "sometimes": 5098,
      "DON": 5099,
      "KK": 5100,
      "PR": 5101,
      "mur": 5102,
      "templates": 5103,
      "69": 5104,
      "noted": 5105,
      "belief": 5106,
      "nomination": 5107,
      "experience": 5108,
      "suspect": 5109,
      "apparently": 5110,
      "Inst": 5111,
      "AfD": 5112,
      "results": 5113,
      "igh": 5114,
      "discussions": 5115,
      "fund": 5116,
      "ald": 5117,
      "possibly": 5118,
      "BLP": 5119,
      "flag": 5120,
      "Great": 5121,
      "Under": 5122,
      "cup": 5123,
      "court": 5124,
      "68": 5125,
      "File": 5126,
      "Pri": 5127,
      "pens": 5128,
      "played": 5129,
      "beli": 5130,
      "08": 5131,
      "El": 5132,
      "SO": 5133,
      "rict": 5134,
      "sexual": 5135,
      "publish": 5136,
      "Indian": 5137,
      "Mer": 5138,
      "women": 5139,
      "forum": 5140,
      "front": 5141,
      "Its": 5142,
      "wording": 5143,
      "difficult": 5144,
      "Many": 5145,
      "crat": 5146,
      "anim": 5147,
      "evol": 5148,
      "York": 5149,
      "ators": 5150,
      "accounts": 5151,
      "basis": 5152,
      "join": 5153,
      "easily": 5154,
      "Red": 5155,
      "ka": 5156,
      "profession": 5157,
      "amp": 5158,
      "illy": 5159,
      "missing": 5160,
      "claimed": 5161,
      "money": 5162,
      "?!": 5163,
      "oud": 5164,
      "arbit": 5165,
      "Should": 5166,
      "total": 5167,
      "Part": 5168,
      "75": 5169,
      "Every": 5170,
      "bey": 5171,
      "graphies": 5172,
      "voc": 5173,
      "recomm": 5174,
      "paper": 5175,
      "Mal": 5176,
      "cies": 5177,
      "Cath": 5178,
      "ump": 5179,
      "Hope": 5180,
      "lip": 5181,
      "license": 5182,
      "ahead": 5183,
      "usage": 5184,
      "penis": 5185,
      "06": 5186,
      "Cop": 5187,
      "State": 5188,
      "76": 5189,
      "resident": 5190,
      "Ital": 5191,
      "favor": 5192,
      "Macedon": 5193,
      "believ": 5194,
      "sof": 5195,
      "ino": 5196,
      "cise": 5197,
      "ination": 5198,
      "perform": 5199,
      "speedily": 5200,
      "incident": 5201,
      "paign": 5202,
      "French": 5203,
      "rate": 5204,
      "ford": 5205,
      "ends": 5206,
      "ues": 5207,
      "irth": 5208,
      "index": 5209,
      "ges": 5210,
      "Char": 5211,
      "???": 5212,
      "luck": 5213,
      "wik": 5214,
      "teach": 5215,
      "final": 5216,
      "study": 5217,
      "negative": 5218,
      "Ear": 5219,
      "insert": 5220,
      "vio": 5221,
      "effort": 5222,
      "nature": 5223,
      "sis": 5224,
      "notes": 5225,
      "host": 5226,
      "newspa": 5227,
      "assho": 5228,
      "occur": 5229,
      "vari": 5230,
      "KE": 5231,
      "weight": 5232,
      "Church": 5233,
      "visit": 5234,
      "Mor": 5235,
      "eat": 5236,
      "argue": 5237,
      "HE": 5238,
      "base": 5239,
      "2013": 5240,
      "priv": 5241,
      "established": 5242,
      "03": 5243,
      "rain": 5244,
      "stream": 5245,
      "select": 5246,
      "IR": 5247,
      "ideas": 5248,
      "satis": 5249,
      "sal": 5250,
      "required": 5251,
      "PA": 5252,
      "moving": 5253,
      "(~~~~);": 5254,
      "Ver": 5255,
      "vict": 5256,
      "god": 5257,
      "han": 5258,
      "wers": 5259,
      "disambig": 5260,
      "Yeah": 5261,
      "FRE": 5262,
      "ather": 5263,
      "eder": 5264,
      "{|": 5265,
      "|-": 5266,
      "BITCH": 5267,
      "icking": 5268,
      "excl": 5269,
      "asing": 5270,
      "girl": 5271,
      "ridic": 5272,
      "LY": 5273,
      "games": 5274,
      "rian": 5275,
      "blood": 5276,
      "bother": 5277,
      "fat": 5278,
      "loy": 5279,
      "father": 5280,
      "pain": 5281,
      "36": 5282,
      "Tutorial": 5283,
      "gas": 5284,
      "expert": 5285,
      "describe": 5286,
      "house": 5287,
      "ANI": 5288,
      "hilo": 5289,
      "racist": 5290,
      "Nipple": 5291,
      "PH": 5292,
      "late": 5293,
      "sco": 5294,
      "encour": 5295,
      "promise": 5296,
      "conduct": 5297,
      "amas": 5298,
      "discussing": 5299,
      "places": 5300,
      "div": 5301,
      "released": 5302,
      "concerned": 5303,
      "protection": 5304,
      "die": 5305,
      "BEST": 5306,
      "Min": 5307,
      "struct": 5308,
      "contribution": 5309,
      "wondering": 5310,
      "propaganda": 5311,
      "adv": 5312,
      "comb": 5313,
      "trust": 5314,
      "format": 5315,
      "hesit": 5316,
      "nation": 5317,
      "acting": 5318,
      "service": 5319,
      "meets": 5320,
      "neither": 5321,
      "sounds": 5322,
      "bottom": 5323,
      "journal": 5324,
      "DICK": 5325,
      "Getting": 5326,
      "Sw": 5327,
      "demonstr": 5328,
      "Preceding": 5329,
      "inese": 5330,
      "suggested": 5331,
      "approach": 5332,
      "weeks": 5333,
      "parts": 5334,
      "capital": 5335,
      "episode": 5336,
      "suffic": 5337,
      "WIKIP": 5338,
      "presented": 5339,
      "compan": 5340,
      "nominated": 5341,
      "referring": 5342,
      "FOR": 5343,
      "ceed": 5344,
      "appreciated": 5345,
      "COCK": 5346,
      "phrase": 5347,
      "bing": 5348,
      "pun": 5349,
      "demo": 5350,
      "print": 5351,
      "trouble": 5352,
      "OT": 5353,
      "pir": 5354,
      "xy": 5355,
      "incre": 5356,
      "season": 5357,
      "value": 5358,
      "James": 5359,
      "econom": 5360,
      "itude": 5361,
      "became": 5362,
      "factual": 5363,
      "onymous": 5364,
      "censor": 5365,
      "crimin": 5366,
      "05": 5367,
      "Cy": 5368,
      "WE": 5369,
      "Actually": 5370,
      "blog": 5371,
      "types": 5372,
      "IV": 5373,
      "School": 5374,
      "couldn": 5375,
      "WILL": 5376,
      "WIKIPEDI": 5377,
      "35": 5378,
      "vs": 5379,
      "guideline": 5380,
      "cat": 5381,
      "suggestion": 5382,
      "warnings": 5383,
      "fixed": 5384,
      "licens": 5385,
      "characters": 5386,
      "encyclopedic": 5387,
      "prior": 5388,
      "showing": 5389,
      "Serb": 5390,
      "02": 5391,
      "topics": 5392,
      "tho": 5393,
      "intended": 5394,
      "submit": 5395,
      "joke": 5396,
      "basic": 5397,
      "Jesus": 5398,
      "Dear": 5399,
      "pan": 5400,
      "water": 5401,
      "anc": 5402,
      "ONG": 5403,
      "threaten": 5404,
      "cunt": 5405,
      "ids": 5406,
      "movie": 5407,
      "44": 5408,
      "LD": 5409,
      "reviewed": 5410,
      "Turk": 5411,
      "pas": 5412,
      "anymore": 5413,
      "2014": 5414,
      "brought": 5415,
      "Black": 5416,
      "sw": 5417,
      "istan": 5418,
      "Russian": 5419,
      "legitimate": 5420,
      "method": 5421,
      "',": 5422,
      "achi": 5423,
      "exists": 5424,
      "candid": 5425,
      "mes": 5426,
      "psy": 5427,
      "ousand": 5428,
      "grad": 5429,
      "miss": 5430,
      "php": 5431,
      "fre": 5432,
      "manner": 5433,
      "European": 5434,
      "lin": 5435,
      "ouch": 5436,
      "train": 5437,
      "telling": 5438,
      "round": 5439,
      "ube": 5440,
      "yours": 5441,
      "seeing": 5442,
      "spelling": 5443,
      "crap": 5444,
      "repeatedly": 5445,
      "asshole": 5446,
      "fool": 5447,
      "till": 5448,
      "commit": 5449,
      "SS": 5450,
      "ifies": 5451,
      "ignore": 5452,
      "versions": 5453,
      "received": 5454,
      "09": 5455,
      "71": 5456,
      "Block": 5457,
      "stri": 5458,
      "previously": 5459,
      "Template": 5460,
      "39": 5461,
      "Des": 5462,
      "Main": 5463,
      "thread": 5464,
      "speaking": 5465,
      "High": 5466,
      "categories": 5467,
      "West": 5468,
      "imag": 5469,
      "Although": 5470,
      "sme": 5471,
      "size": 5472,
      "despite": 5473,
      "THAT": 5474,
      "Right": 5475,
      "da": 5476,
      "agend": 5477,
      "checking": 5478,
      "Sup": 5479,
      "range": 5480,
      "Read": 5481,
      "!)": 5482,
      "sn": 5483,
      "cel": 5484,
      "track": 5485,
      "mostly": 5486,
      "worthy": 5487,
      "quotes": 5488,
      "BLO": 5489,
      "Port": 5490,
      "dates": 5491,
      "Commun": 5492,
      "hypo": 5493,
      "tin": 5494,
      "ously": 5495,
      "fairly": 5496,
      "llig": 5497,
      "chal": 5498,
      "ridiculous": 5499,
      "3RR": 5500,
      "stick": 5501,
      "tee": 5502,
      "Media": 5503,
      "bility": 5504,
      "gon": 5505,
      "realize": 5506,
      "campaign": 5507,
      "Ano": 5508,
      "38": 5509,
      "blat": 5510,
      "techn": 5511,
      "immediately": 5512,
      "somewhere": 5513,
      "ERS": 5514,
      "contributors": 5515,
      "maintain": 5516,
      "reality": 5517,
      "Ber": 5518,
      "ech": 5519,
      "gun": 5520,
      "reput": 5521,
      "leaving": 5522,
      "depend": 5523,
      "random": 5524,
      "orge": 5525,
      "lection": 5526,
      "dog": 5527,
      "78": 5528,
      "movement": 5529,
      "behaviour": 5530,
      "Sch": 5531,
      "hael": 5532,
      "ulations": 5533,
      "Deletion": 5534,
      "hiloso": 5535,
      "Common": 5536,
      "scholar": 5537,
      "thousand": 5538,
      "Administ": 5539,
      "bull": 5540,
      "listen": 5541,
      "hesitate": 5542,
      "OUS": 5543,
      "killed": 5544,
      "Willia": 5545,
      "role": 5546,
      "abag": 5547,
      "websites": 5548,
      "princi": 5549,
      "ordin": 5550,
      "academic": 5551,
      "refr": 5552,
      "agreed": 5553,
      "asc": 5554,
      "compar": 5555,
      "odd": 5556,
      "assist": 5557,
      "church": 5558,
      "NOES": 5559,
      "beyond": 5560,
      "teabag": 5561,
      "claiming": 5562,
      "Ben": 5563,
      "eyes": 5564,
      "grow": 5565,
      "hur": 5566,
      "ano": 5567,
      "cret": 5568,
      "ANN": 5569,
      "fucksex": 5570,
      "instance": 5571,
      "advertising": 5572,
      "Questions": 5573,
      "Copy": 5574,
      "WIKIPEDIA": 5575,
      "COM": 5576,
      "aging": 5577,
      "somebody": 5578,
      "TR": 5579,
      "communic": 5580,
      "Like": 5581,
      "knew": 5582,
      "China": 5583,
      "freezer": 5584,
      "Canada": 5585,
      "ource": 5586,
      "glad": 5587,
      "COCKSUCK": 5588,
      "amer": 5589,
      "spir": 5590,
      "Chinese": 5591,
      "accusations": 5592,
      "Kore": 5593,
      "archive": 5594,
      "uploading": 5595,
      "reedom": 5596,
      "FUCKFUCKFUCKFUCK": 5597,
      "FR": 5598,
      "Lu": 5599,
      "za": 5600,
      "04": 5601,
      "birth": 5602,
      "dig": 5603,
      "aming": 5604,
      "aut": 5605,
      "gree": 5606,
      "persons": 5607,
      "counter": 5608,
      "brief": 5609,
      "Off": 5610,
      "meas": 5611,
      "permission": 5612,
      "code": 5613,
      "broad": 5614,
      "uyuyuyuyuyuyuyuy": 5615,
      "07": 5616,
      "ots": 5617,
      "authority": 5618,
      "nnnnnnnnnnnnnnnn": 5619,
      "length": 5620,
      "Med": 5621,
      "San": 5622,
      "db": 5623,
      "nobody": 5624,
      "phy": 5625,
      "controversy": 5626,
      "beginning": 5627,
      "extremely": 5628,
      "Vandalism": 5629,
      "spl": 5630,
      "aspect": 5631,
      "whose": 5632,
      "practice": 5633,
      "Japanese": 5634,
      "limited": 5635,
      "udd": 5636,
      "merge": 5637,
      "BLOCK": 5638,
      "Gener": 5639,
      "tytytytytytytyty": 5640,
      "34": 5641,
      "City": 5642,
      "MM": 5643,
      "anish": 5644,
      "lots": 5645,
      "happens": 5646,
      "reverts": 5647,
      "turned": 5648,
      "aster": 5649,
      "azine": 5650,
      "refrain": 5651,
      "wan": 5652,
      "hamp": 5653,
      "Another": 5654,
      "FI": 5655,
      "helpme": 5656,
      "stating": 5657,
      "Person": 5658,
      "Irish": 5659,
      "tend": 5660,
      "refers": 5661,
      "England": 5662,
      "connection": 5663,
      "huge": 5664,
      "Paul": 5665,
      "CAN": 5666,
      "GG": 5667,
      "viet": 5668,
      "corpor": 5669,
      "involve": 5670,
      "Hind": 5671,
      "send": 5672,
      "va": 5673,
      "oppos": 5674,
      "Catholic": 5675,
      "appeared": 5676,
      "playing": 5677,
      "evolution": 5678,
      "La": 5679,
      "unsourced": 5680,
      "Keep": 5681,
      "F5": 5682,
      "edy": 5683,
      "ERE": 5684,
      "secondary": 5685,
      "Germany": 5686,
      "Chi": 5687,
      "room": 5688,
      "roll": 5689,
      "bold": 5690,
      "AY": 5691,
      "judge": 5692,
      "agenda": 5693,
      "ee": 5694,
      "ky": 5695,
      "input": 5696,
      "includes": 5697,
      "Regarding": 5698,
      "Air": 5699,
      "TAL": 5700,
      "ources": 5701,
      "58": 5702,
      "?\"\"": 5703,
      "Alex": 5704,
      "san": 5705,
      "...\"\"": 5706,
      "moti": 5707,
      "OW": 5708,
      "race": 5709,
      "ases": 5710,
      "mental": 5711,
      "redu": 5712,
      "starting": 5713,
      "lands": 5714,
      "ifying": 5715,
      "According": 5716,
      "CRAPCRAPCRAPCRAP": 5717,
      "click": 5718,
      "Fr": 5719,
      "imedia": 5720,
      "intellig": 5721,
      "biography": 5722,
      "featured": 5723,
      "Day": 5724,
      "rock": 5725,
      "EDOM": 5726,
      "companies": 5727,
      "vill": 5728,
      "checked": 5729,
      "share": 5730,
      "FREEDOM": 5731,
      "ba": 5732,
      "nigger": 5733,
      "eve": 5734,
      "fic": 5735,
      "atory": 5736,
      "intent": 5737,
      "shared": 5738,
      "mix": 5739,
      "ded": 5740,
      "pick": 5741,
      "arded": 5742,
      "closed": 5743,
      "glo": 5744,
      "reet": 5745,
      "contrad": 5746,
      "rude": 5747,
      "tempor": 5748,
      "Mi": 5749,
      "Sci": 5750,
      "tone": 5751,
      "positive": 5752,
      "straight": 5753,
      "rious": 5754,
      "offer": 5755,
      "choose": 5756,
      "feed": 5757,
      "distin": 5758,
      "referred": 5759,
      "Bill": 5760,
      "finding": 5761,
      "marks": 5762,
      "numerous": 5763,
      "Michael": 5764,
      "dow": 5765,
      "zzzzzzzzzzzzzzzz": 5766,
      "pressed": 5767,
      "keeping": 5768,
      "66": 5769,
      "Cur": 5770,
      "37": 5771,
      "TS": 5772,
      "phen": 5773,
      "confused": 5774,
      "proposal": 5775,
      "bast": 5776,
      "anonymous": 5777,
      "UST": 5778,
      "puppetry": 5779,
      "photos": 5780,
      "credit": 5781,
      "sold": 5782,
      "felt": 5783,
      "region": 5784,
      "USA": 5785,
      "ancest": 5786,
      "Cong": 5787,
      "Da": 5788,
      "acts": 5789,
      "Tri": 5790,
      "attribut": 5791,
      "homo": 5792,
      "64": 5793,
      "oh": 5794,
      "critical": 5795,
      "choice": 5796,
      "consistent": 5797,
      "Ang": 5798,
      "Met": 5799,
      "held": 5800,
      "pol": 5801,
      "regular": 5802,
      "basically": 5803,
      "bands": 5804,
      "lad": 5805,
      "ctor": 5806,
      "police": 5807,
      "George": 5808,
      "Cha": 5809,
      "Pale": 5810,
      "fire": 5811,
      "nia": 5812,
      "additions": 5813,
      "FFFA": 5814,
      "MOTH": 5815,
      "model": 5816,
      "CKS": 5817,
      "languages": 5818,
      "accused": 5819,
      "F5FFFA": 5820,
      "EVER": 5821,
      "anywhere": 5822,
      "1111111111111111": 5823,
      "professional": 5824,
      "eye": 5825,
      "lol": 5826,
      "missed": 5827,
      "CON": 5828,
      "inser": 5829,
      "raised": 5830,
      "Star": 5831,
      "copyrighted": 5832,
      "insist": 5833,
      "football": 5834,
      "98": 5835,
      "Coun": 5836,
      "Link": 5837,
      "afr": 5838,
      "gain": 5839,
      "isation": 5840,
      "titles": 5841,
      "undred": 5842,
      "!!!!!!!!!!!!!!!!!!!!!!!!!!!!!!!!!!!!!!!!!!!!!!!!!!!!!!!!!!!!!!!!": 5843,
      "72": 5844,
      "TE": 5845,
      "aks": 5846,
      "onto": 5847,
      "Which": 5848,
      "reland": 5849,
      "normal": 5850,
      "Wikipedians": 5851,
      "usive": 5852,
      "56": 5853,
      "Ireland": 5854,
      "rr": 5855,
      "touch": 5856,
      "zy": 5857,
      "return": 5858,
      "updated": 5859,
      "students": 5860,
      "42": 5861,
      "Pen": 5862,
      "istics": 5863,
      "failed": 5864,
      "Nazi": 5865,
      "satisf": 5866,
      "explic": 5867,
      "funny": 5868,
      "32": 5869,
      "BOO": 5870,
      "pure": 5871,
      "era": 5872,
      "ports": 5873,
      "offensive": 5874,
      "commer": 5875,
      "owner": 5876,
      "::::": 5877,
      "famous": 5878,
      "LOL": 5879,
      "Ah": 5880,
      "Ko": 5881,
      "Armen": 5882,
      "\":": 5883,
      "Hun": 5884,
      "atively": 5885,
      "strongly": 5886,
      "wood": 5887,
      "disambiguation": 5888,
      "IF": 5889,
      "clicking": 5890,
      "bol": 5891,
      "ior": 5892,
      "applic": 5893,
      "followed": 5894,
      "Fl": 5895,
      "IA": 5896,
      "itution": 5897,
      "logged": 5898,
      "Soviet": 5899,
      "watching": 5900,
      "elsewhere": 5901,
      "Free": 5902,
      "Sun": 5903,
      "stalk": 5904,
      "forts": 5905,
      "minutes": 5906,
      "international": 5907,
      "considering": 5908,
      "_talk": 5909,
      "perfectly": 5910,
      "Bio": 5911,
      "Count": 5912,
      "Ha": 5913,
      "enter": 5914,
      "areas": 5915,
      "suggestions": 5916,
      "East": 5917,
      "ju": 5918,
      "south": 5919,
      "ptions": 5920,
      "misleading": 5921,
      "function": 5922,
      "draw": 5923,
      "sufficient": 5924,
      "Pat": 5925,
      "hundred": 5926,
      "replaced": 5927,
      "ondon": 5928,
      "additional": 5929,
      "fring": 5930,
      "subjects": 5931,
      "troll": 5932,
      "health": 5933,
      "whom": 5934,
      "core": 5935,
      "logic": 5936,
      "Croat": 5937,
      "mamas": 5938,
      "young": 5939,
      "philoso": 5940,
      "aring": 5941,
      "update": 5942,
      "blank": 5943,
      "engine": 5944,
      "resolution": 5945,
      "efforts": 5946,
      "split": 5947,
      "CA": 5948,
      "ium": 5949,
      "ilt": 5950,
      "thinks": 5951,
      "disputed": 5952,
      "AGE": 5953,
      "interpretation": 5954,
      "thetic": 5955,
      "entially": 5956,
      "waste": 5957,
      "fered": 5958,
      "speech": 5959,
      "reached": 5960,
      "padding": 5961,
      "Steve": 5962,
      "experimenting": 5963,
      "WWWWWWWWWWWWWWWW": 5964,
      "collabor": 5965,
      "TALK": 5966,
      "tele": 5967,
      "cks": 5968,
      "seemed": 5969,
      "assess": 5970,
      "easier": 5971,
      "recommend": 5972,
      "Tom": 5973,
      "ience": 5974,
      "sem": 5975,
      "road": 5976,
      "somewhat": 5977,
      "running": 5978,
      "apologize": 5979,
      "Lat": 5980,
      "cru": 5981,
      "conform": 5982,
      "unders": 5983,
      "Mag": 5984,
      "battle": 5985,
      "middle": 5986,
      "atives": 5987,
      "ara": 5988,
      "tten": 5989,
      "matic": 5990,
      "Therefore": 5991,
      "located": 5992,
      "tradition": 5993,
      "GE": 5994,
      "Rich": 5995,
      "cant": 5996,
      "geo": 5997,
      "higher": 5998,
      "confirmed": 5999,
      "proven": 6000,
      "Unfortunately": 6001,
      "African": 6002,
      "atic": 6003,
      "Mu": 6004,
      "Op": 6005,
      "existence": 6006,
      "harm": 6007,
      "introduction": 6008,
      "BUTT": 6009,
      "slight": 6010,
      "vey": 6011,
      "participate": 6012,
      "alternative": 6013,
      "ustr": 6014,
      "mainstream": 6015,
      "improving": 6016,
      "Sam": 6017,
      "bunch": 6018,
      "poop": 6019,
      "pointing": 6020,
      "pushing": 6021,
      "nar": 6022,
      "blocks": 6023,
      "ONE": 6024,
      "promote": 6025,
      "occup": 6026,
      "Palest": 6027,
      "helping": 6028,
      "Barnstar": 6029,
      "Administrat": 6030,
      "Big": 6031,
      "President": 6032,
      "coverage": 6033,
      "46": 6034,
      "HT": 6035,
      "FFFF": 6036,
      "relationship": 6037,
      "1px": 6038,
      "Sing": 6039,
      "ULL": 6040,
      "Vi": 6041,
      "ked": 6042,
      "pi": 6043,
      "thesis": 6044,
      "arian": 6045,
      "aby": 6046,
      "White": 6047,
      "2015": 6048,
      "osex": 6049,
      "died": 6050,
      "conspir": 6051,
      "Gen": 6052,
      "].": 6053,
      "worse": 6054,
      "contains": 6055,
      "formatt": 6056,
      "Love": 6057,
      "London": 6058,
      "frequ": 6059,
      "hat": 6060,
      "throw": 6061,
      "chart": 6062,
      "lig": 6063,
      "ruction": 6064,
      "%\"\"": 6065,
      "Cour": 6066,
      "squ": 6067,
      "peer": 6068,
      "ties": 6069,
      "requested": 6070,
      "85": 6071,
      "ACC": 6072,
      "Je": 6073,
      "brother": 6074,
      "CS": 6075,
      "swe": 6076,
      "Review": 6077,
      "listing": 6078,
      "avy": 6079,
      "Chris": 6080,
      "Roy": 6081,
      "double": 6082,
      "explicit": 6083,
      "AH": 6084,
      "ja": 6085,
      "hood": 6086,
      "matters": 6087,
      "RAPE": 6088,
      "iously": 6089,
      "FUCKER": 6090,
      "tood": 6091,
      "imp": 6092,
      "requires": 6093,
      "energy": 6094,
      "fol": 6095,
      "wit": 6096,
      "oul": 6097,
      "syste": 6098,
      "osexual": 6099,
      "ias": 6100,
      "OOOO": 6101,
      "SECKS": 6102,
      "About": 6103,
      "BUTTSECKS": 6104,
      "LF": 6105,
      "ught": 6106,
      "rew": 6107,
      "verify": 6108,
      "biographies": 6109,
      "pred": 6110,
      "rul": 6111,
      "iving": 6112,
      "ops": 6113,
      "ashing": 6114,
      "destroy": 6115,
      "victim": 6116,
      "acted": 6117,
      "icken": 6118,
      "building": 6119,
      "Hit": 6120,
      "MIN": 6121,
      "dered": 6122,
      "truly": 6123,
      "tor": 6124,
      "lower": 6125,
      "principle": 6126,
      "heart": 6127,
      "jection": 6128,
      "Only": 6129,
      "domain": 6130,
      "TWAT": 6131,
      "circum": 6132,
      "54": 6133,
      "\"\")": 6134,
      "sight": 6135,
      "aa": 6136,
      "ston": 6137,
      "territ": 6138,
      "cost": 6139,
      "2003": 6140,
      "Alban": 6141,
      "tware": 6142,
      "establish": 6143,
      "ANY": 6144,
      "ysis": 6145,
      "Once": 6146,
      "shortly": 6147,
      "defend": 6148,
      "Contribut": 6149,
      "commercial": 6150,
      "59": 6151,
      "Bul": 6152,
      "Cau": 6153,
      "tax": 6154,
      "errors": 6155,
      "capt": 6156,
      "Jud": 6157,
      "Law": 6158,
      "ds": 6159,
      "nik": 6160,
      "nty": 6161,
      "brary": 6162,
      "defined": 6163,
      "reports": 6164,
      "Kar": 6165,
      "SER": 6166,
      "cil": 6167,
      "suppose": 6168,
      "thoughts": 6169,
      "providing": 6170,
      "Russia": 6171,
      "screen": 6172,
      "67": 6173,
      "NA": 6174,
      "usual": 6175,
      "helps": 6176,
      "citing": 6177,
      "careful": 6178,
      "addressed": 6179,
      "quickly": 6180,
      "faggot": 6181,
      "%;": 6182,
      "anno": 6183,
      "aries": 6184,
      "somehow": 6185,
      "citiz": 6186,
      "paid": 6187,
      "Party": 6188,
      "bastard": 6189,
      "Sa": 6190,
      "fiction": 6191,
      "ANT": 6192,
      "ridge": 6193,
      "threats": 6194,
      "Times": 6195,
      "bb": 6196,
      "Americans": 6197,
      "criterion": 6198,
      "Australia": 6199,
      "(\"\"": 6200,
      "Sal": 6201,
      "remind": 6202,
      "perspect": 6203,
      "pled": 6204,
      "keeps": 6205,
      "HAVE": 6206,
      "sentences": 6207,
      "Check": 6208,
      "Internet": 6209,
      "reve": 6210,
      "evil": 6211,
      "newspaper": 6212,
      "Att": 6213,
      "aver": 6214,
      "freedom": 6215,
      "reject": 6216,
      "ancient": 6217,
      "caused": 6218,
      "finally": 6219,
      "specified": 6220,
      "supporting": 6221,
      "solution": 6222,
      "Bur": 6223,
      "Cap": 6224,
      "OBS": 6225,
      "Uk": 6226,
      "rum": 6227,
      "odes": 6228,
      "tagging": 6229,
      "DONT": 6230,
      "Wales": 6231,
      "nu": 6232,
      "fellow": 6233,
      "warned": 6234,
      "files": 6235,
      "location": 6236,
      "continued": 6237,
      "Western": 6238,
      "mid": 6239,
      "worry": 6240,
      "2000": 6241,
      "correctly": 6242,
      "concerning": 6243,
      "widely": 6244,
      "restored": 6245,
      "BY": 6246,
      "DR": 6247,
      "LONG": 6248,
      "rap": 6249,
      "gotten": 6250,
      "indust": 6251,
      "Hum": 6252,
      "silly": 6253,
      "yout": 6254,
      "convers": 6255,
      "sockpuppet": 6256,
      "surprised": 6257,
      "contributor": 6258,
      "fringe": 6259,
      ".[": 6260,
      "Sex": 6261,
      "YM": 6262,
      "dia": 6263,
      "arm": 6264,
      "anger": 6265,
      "pron": 6266,
      "standing": 6267,
      "label": 6268,
      "ays": 6269,
      ".....": 6270,
      "mentions": 6271,
      "tired": 6272,
      "quoted": 6273,
      "Trans": 6274,
      "appeal": 6275,
      "necessarily": 6276,
      "49": 6277,
      "entries": 6278,
      "six": 6279,
      "OUT": 6280,
      "integr": 6281,
      "provides": 6282,
      "lence": 6283,
      "figures": 6284,
      "experienced": 6285,
      "understood": 6286,
      "House": 6287,
      "Mart": 6288,
      "Ori": 6289,
      "cry": 6290,
      "cross": 6291,
      "began": 6292,
      "hey": 6293,
      "thats": 6294,
      "opposed": 6295,
      "attitude": 6296,
      "Someone": 6297,
      "private": 6298,
      "career": 6299,
      "substanti": 6300,
      "DYK": 6301,
      "natural": 6302,
      "Str": 6303,
      "script": 6304,
      "theories": 6305,
      "okay": 6306,
      "Polic": 6307,
      "development": 6308,
      "Park": 6309,
      "avi": 6310,
      "dumb": 6311,
      "lims": 6312,
      "peace": 6313,
      "compe": 6314,
      "KILL": 6315,
      "ises": 6316,
      "semi": 6317,
      "brain": 6318,
      "Frank": 6319,
      "William": 6320,
      "contradict": 6321,
      "craft": 6322,
      "afraid": 6323,
      "nes": 6324,
      "vility": 6325,
      "contents": 6326,
      "woman": 6327,
      "express": 6328,
      "Speedy": 6329,
      "88": 6330,
      "Found": 6331,
      "Kur": 6332,
      "bom": 6333,
      "lets": 6334,
      "writer": 6335,
      "cities": 6336,
      "HH": 6337,
      "sole": 6338,
      "occas": 6339,
      "credible": 6340,
      "belongs": 6341,
      "47": 6342,
      "Sure": 6343,
      "sess": 6344,
      "logo": 6345,
      "Arb": 6346,
      "originally": 6347,
      "Post": 6348,
      "LIVE": 6349,
      "Polish": 6350,
      "41": 6351,
      "MS": 6352,
      "rog": 6353,
      "medical": 6354,
      "merged": 6355,
      "throughout": 6356,
      "hardly": 6357,
      "associated": 6358,
      "Cit": 6359,
      "Pub": 6360,
      "NOOBS": 6361,
      "attempts": 6362,
      "Furthermore": 6363,
      "ek": 6364,
      "forget": 6365,
      "SELF": 6366,
      "Hu": 6367,
      "reads": 6368,
      "conclusion": 6369,
      "Archive": 6370,
      "Mark": 6371,
      "fu": 6372,
      "pus": 6373,
      "demand": 6374,
      "harassment": 6375,
      "gonna": 6376,
      "Gover": 6377,
      "thy": 6378,
      "verified": 6379,
      "preh": 6380,
      "president": 6381,
      "INES": 6382,
      "parents": 6383,
      "dealing": 6384,
      "significance": 6385,
      "translation": 6386,
      "nearly": 6387,
      "DAM": 6388,
      "utter": 6389,
      "cale": 6390,
      "magazine": 6391,
      "Okay": 6392,
      ";\"\"": 6393,
      "Que": 6394,
      "bill": 6395,
      "gent": 6396,
      "istered": 6397,
      "conserv": 6398,
      "weak": 6399,
      "Cons": 6400,
      "Bastered": 6401,
      "reasoning": 6402,
      "ISM": 6403,
      "interview": 6404,
      "collect": 6405,
      "benefit": 6406,
      "Mis": 6407,
      "anch": 6408,
      "studies": 6409,
      "detailed": 6410,
      "Int": 6411,
      "inc": 6412,
      "aves": 6413,
      "NOW": 6414,
      "delay": 6415,
      "Tech": 6416,
      "metal": 6417,
      "Emp": 6418,
      "BTW": 6419,
      "mir": 6420,
      "anybody": 6421,
      "forms": 6422,
      "save": 6423,
      "promin": 6424,
      "Kingdom": 6425,
      "mistakes": 6426,
      "CARE": 6427,
      "vandalizing": 6428,
      "twice": 6429,
      "calls": 6430,
      "ibility": 6431,
      "target": 6432,
      "conspiracy": 6433,
      "Ter": 6434,
      "Up": 6435,
      "abs": 6436,
      "asty": 6437,
      "regardless": 6438,
      "Was": 6439,
      "ining": 6440,
      "sec": 6441,
      "vere": 6442,
      "vili": 6443,
      "fault": 6444,
      "aff": 6445,
      "opening": 6446,
      "loss": 6447,
      "Those": 6448,
      "hasn": 6449,
      "https": 6450,
      "Peter": 6451,
      "tour": 6452,
      "responsible": 6453,
      "Bra": 6454,
      "pal": 6455,
      "zen": 6456,
      "ari": 6457,
      "deep": 6458,
      "hair": 6459,
      "wars": 6460,
      "mentioning": 6461,
      "Spanish": 6462,
      "fans": 6463,
      "goal": 6464,
      "ANON": 6465,
      "puppets": 6466,
      "objective": 6467,
      "Muslim": 6468,
      "ederal": 6469,
      "Dep": 6470,
      "forced": 6471,
      "imply": 6472,
      "earth": 6473,
      "award": 6474,
      "IPP": 6475,
      "individuals": 6476,
      "=)": 6477,
      "Au": 6478,
      "tact": 6479,
      "inno": 6480,
      "suggesting": 6481,
      "minority": 6482,
      "57": 6483,
      "cul": 6484,
      "sides": 6485,
      "station": 6486,
      "justify": 6487,
      "INK": 6488,
      "WHAT": 6489,
      "rative": 6490,
      "grand": 6491,
      "latest": 6492,
      "Commons": 6493,
      "DAMN": 6494,
      "Jer": 6495,
      "Ry": 6496,
      "Try": 6497,
      "dict": 6498,
      "rer": 6499,
      "instruct": 6500,
      "busy": 6501,
      "analysis": 6502,
      "PHIL": 6503,
      "Ty": 6504,
      "icks": 6505,
      "degree": 6506,
      "noticeboard": 6507,
      "STOP": 6508,
      "ignored": 6509,
      "dickhead": 6510,
      "thousands": 6511,
      "uu": 6512,
      "agon": 6513,
      "applied": 6514,
      "gue": 6515,
      "userpage": 6516,
      "\",": 6517,
      "UE": 6518,
      "revision": 6519,
      "society": 6520,
      "potential": 6521,
      "deserve": 6522,
      "RfC": 6523,
      "murder": 6524,
      "BI": 6525,
      "NY": 6526,
      "uous": 6527,
      "reviews": 6528,
      "confusing": 6529,
      "hitler": 6530,
      "Ken": 6531,
      "diction": 6532,
      "pha": 6533,
      "Prof": 6534,
      "clarify": 6535,
      "fundament": 6536,
      "PHILIPP": 6537,
      "thors": 6538,
      "perman": 6539,
      "office": 6540,
      "blue": 6541,
      "leader": 6542,
      "latter": 6543,
      "software": 6544,
      "blatant": 6545,
      "hampion": 6546,
      "JER": 6547,
      "_of": 6548,
      "Thom": 6549,
      "iven": 6550,
      "spend": 6551,
      "Sock": 6552,
      "violate": 6553,
      "ignorant": 6554,
      "summaries": 6555,
      "YMOUS": 6556,
      "ANONYMOUS": 6557,
      "Pak": 6558,
      "Ru": 6559,
      "sick": 6560,
      "earch": 6561,
      "THING": 6562,
      "player": 6563,
      "copied": 6564,
      "involvement": 6565,
      "Ukrain": 6566,
      "52": 6567,
      "Sub": 6568,
      "parties": 6569,
      "alleged": 6570,
      "cratic": 6571,
      "PHILIPPINES": 6572,
      "progress": 6573,
      "hot": 6574,
      "holder": 6575,
      "_of_": 6576,
      "native": 6577,
      "deliber": 6578,
      "modif": 6579,
      "anted": 6580,
      "Finally": 6581,
      "influence": 6582,
      "structure": 6583,
      "unblocked": 6584,
      "laws": 6585,
      "contrary": 6586,
      "sens": 6587,
      "rown": 6588,
      "propose": 6589,
      "myth": 6590,
      "wikiped": 6591,
      "Turkish": 6592,
      "PHILIPPINESLONG": 6593,
      "Fan": 6594,
      "IE": 6595,
      "stands": 6596,
      "invent": 6597,
      "Conf": 6598,
      "complex": 6599,
      "connect": 6600,
      "PE": 6601,
      "Sat": 6602,
      "Sign": 6603,
      "affect": 6604,
      "User_talk": 6605,
      "SHUT": 6606,
      "fighting": 6607,
      "Instead": 6608,
      "COCKSUCKER": 6609,
      "motiv": 6610,
      "lay": 6611,
      "ander": 6612,
      "talkpage": 6613,
      "complaint": 6614,
      "53": 6615,
      "Cal": 6616,
      "PAGE": 6617,
      "fast": 6618,
      "anced": 6619,
      "izations": 6620,
      "spent": 6621,
      "restore": 6622,
      "Civ": 6623,
      "laugh": 6624,
      "advoc": 6625,
      "irty": 6626,
      "Intern": 6627,
      "pathetic": 6628,
      "substant": 6629,
      "WT": 6630,
      "cyclo": 6631,
      "carefully": 6632,
      "announ": 6633,
      "mouth": 6634,
      "accident": 6635,
      "foreign": 6636,
      "authors": 6637,
      "rd": 6638,
      "yo": 6639,
      "uded": 6640,
      "identity": 6641,
      "Israeli": 6642,
      "Australian": 6643,
      "cellent": 6644,
      "Never": 6645,
      "Old": 6646,
      "compet": 6647,
      "eved": 6648,
      "signature": 6649,
      "Demo": 6650,
      "voice": 6651,
      "MOTHJER": 6652,
      "perspective": 6653,
      "Last": 6654,
      "altered": 6655,
      "lives": 6656,
      "Obama": 6657,
      "Hitler": 6658,
      "Win": 6659,
      "College": 6660,
      "Ca": 6661,
      "OLE": 6662,
      "wall": 6663,
      "english": 6664,
      "ality": 6665,
      "shut": 6666,
      "antic": 6667,
      "portun": 6668,
      "phone": 6669,
      "Anti": 6670,
      "43": 6671,
      ";)": 6672,
      "IDI": 6673,
      "equal": 6674,
      "isions": 6675,
      "ada": 6676,
      "impossible": 6677,
      "registered": 6678,
      "cracy": 6679,
      "assuming": 6680,
      "Bel": 6681,
      "........": 6682,
      "82": 6683,
      "VAND": 6684,
      "oil": 6685,
      "curity": 6686,
      "wishes": 6687,
      "garian": 6688,
      "92": 6689,
      "fasc": 6690,
      "ico": 6691,
      "\"\"...": 6692,
      "chicken": 6693,
      "ida": 6694,
      "grammar": 6695,
      "damn": 6696,
      "BA": 6697,
      "Vir": 6698,
      "rible": 6699,
      "ilities": 6700,
      "precise": 6701,
      "naming": 6702,
      "engage": 6703,
      "ARD": 6704,
      "licensed": 6705,
      "94": 6706,
      "Er": 6707,
      "fant": 6708,
      "compromise": 6709,
      "compreh": 6710,
      "hopefully": 6711,
      "alent": 6712,
      "Robert": 6713,
      "remains": 6714,
      "continues": 6715,
      "bon": 6716,
      "minim": 6717,
      "opportun": 6718,
      "politics": 6719,
      "yeah": 6720,
      "operation": 6721,
      "voted": 6722,
      "arbitration": 6723,
      "MU": 6724,
      "Notability": 6725,
      "disputes": 6726,
      "insult": 6727,
      "ife": 6728,
      "Rock": 6729,
      "literature": 6730,
      "VANDAL": 6731,
      "PG": 6732,
      "Sar": 6733,
      "option": 6734,
      "walk": 6735,
      "poses": 6736,
      "achieve": 6737,
      "65": 6738,
      "PRO": 6739,
      "TA": 6740,
      "rare": 6741,
      "rass": 6742,
      "rice": 6743,
      "heil": 6744,
      "button": 6745,
      "plement": 6746,
      "players": 6747,
      "projects": 6748,
      "election": 6749,
      "UUUU": 6750,
      "International": 6751,
      "2nd": 6752,
      "Sem": 6753,
      "onic": 6754,
      "chi": 6755,
      "cele": 6756,
      "plenty": 6757,
      "2001": 6758,
      "syn": 6759,
      "Dec": 6760,
      "homosexual": 6761,
      "Smith": 6762,
      "Bet": 6763,
      "Bush": 6764,
      "Crit": 6765,
      "wa": 6766,
      "forth": 6767,
      "confusion": 6768,
      "DOG": 6769,
      "Special": 6770,
      "suitable": 6771,
      "Earth": 6772,
      "feedback": 6773,
      "pse": 6774,
      "oring": 6775,
      "omin": 6776,
      "heading": 6777,
      "photograph": 6778,
      "cultural": 6779,
      "eventually": 6780,
      "Scott": 6781,
      "General": 6782,
      "undo": 6783,
      "proced": 6784,
      "agreement": 6785,
      "identify": 6786,
      "Out": 6787,
      "Ri": 6788,
      "bag": 6789,
      "cli": 6790,
      "yer": 6791,
      "plus": 6792,
      "Both": 6793,
      "ART": 6794,
      "Bot": 6795,
      "Wow": 6796,
      "ners": 6797,
      "smo": 6798,
      "amed": 6799,
      "amaz": 6800,
      "serve": 6801,
      "warrant": 6802,
      "friendly": 6803,
      "ADMIN": 6804,
      "Ira": 6805,
      "Time": 6806,
      "mut": 6807,
      "ria": 6808,
      "unable": 6809,
      "teen": 6810,
      "excuse": 6811,
      "extra": 6812,
      "strange": 6813,
      "violations": 6814,
      "explo": 6815,
      "paste": 6816,
      "conversation": 6817,
      "Mat": 6818,
      "tes": 6819,
      "forces": 6820,
      "raise": 6821,
      "desc": 6822,
      "Union": 6823,
      "corrected": 6824,
      "largest": 6825,
      "Non": 6826,
      "hh": 6827,
      "university": 6828,
      "ISH": 6829,
      "LOSER": 6830,
      "attempting": 6831,
      "persist": 6832,
      "France": 6833,
      "ius": 6834,
      "jan": 6835,
      "slow": 6836,
      "Thus": 6837,
      "berg": 6838,
      "hide": 6839,
      "retarded": 6840,
      "spirit": 6841,
      "Use": 6842,
      "ological": 6843,
      "impression": 6844,
      "graphical": 6845,
      "hands": 6846,
      "emphas": 6847,
      "DEN": 6848,
      "Raj": 6849,
      "eg": 6850,
      "zed": 6851,
      "Inte": 6852,
      "ception": 6853,
      "SUCKS": 6854,
      "responding": 6855,
      "alifor": 6856,
      "YOURSELF": 6857,
      "ades": 6858,
      "ower": 6859,
      "worst": 6860,
      "knowing": 6861,
      "determine": 6862,
      "Sur": 6863,
      "bound": 6864,
      "plot": 6865,
      "icated": 6866,
      "aven": 6867,
      "Neutral": 6868,
      "RfA": 6869,
      "west": 6870,
      "unnecessary": 6871,
      "bitches": 6872,
      "Addition": 6873,
      "symbol": 6874,
      "technical": 6875,
      "Du": 6876,
      "fle": 6877,
      "iles": 6878,
      "thered": 6879,
      "founded": 6880,
      "neutrality": 6881,
      "mediation": 6882,
      "Otherwise": 6883,
      "education": 6884,
      "temporary": 6885,
      "CD": 6886,
      "Dar": 6887,
      "bits": 6888,
      "itute": 6889,
      "master": 6890,
      "flow": 6891,
      "ram": 6892,
      "justified": 6893,
      "formal": 6894,
      "genre": 6895,
      "Stud": 6896,
      "AAAA": 6897,
      "Canadian": 6898,
      "Super": 6899,
      "advance": 6900,
      "Empire": 6901,
      "AFD": 6902,
      "MON": 6903,
      "ette": 6904,
      "ITY": 6905,
      "curious": 6906,
      "repeat": 6907,
      "Bob": 6908,
      "alter": 6909,
      "lived": 6910,
      "wered": 6911,
      "olly": 6912,
      "ATION": 6913,
      "Jack": 6914,
      "Mel": 6915,
      "PLE": 6916,
      "chap": 6917,
      "ski": 6918,
      "forgot": 6919,
      "artist": 6920,
      "quit": 6921,
      "lick": 6922,
      "Jose": 6923,
      "kid": 6924,
      "student": 6925,
      "3333": 6926,
      "episodes": 6927,
      "smells": 6928,
      "Court": 6929,
      "EE": 6930,
      "Pos": 6931,
      "mach": 6932,
      "attr": 6933,
      "attacking": 6934,
      "films": 6935,
      "WITH": 6936,
      "built": 6937,
      "Wikimedia": 6938,
      ")?": 6939,
      "96": 6940,
      "FO": 6941,
      "Pal": 6942,
      "bat": 6943,
      "applies": 6944,
      "central": 6945,
      "arguing": 6946,
      "trolling": 6947,
      "activity": 6948,
      "Contribs": 6949,
      "global": 6950,
      "IDIOT": 6951,
      "Bos": 6952,
      "Lit": 6953,
      "ls": 6954,
      "asp": 6955,
      "nology": 6956,
      "crime": 6957,
      "employ": 6958,
      "Califor": 6959,
      "eval": 6960,
      "informed": 6961,
      "college": 6962,
      "placing": 6963,
      "Discus": 6964,
      "liberal": 6965,
      "Green": 6966,
      "GGT": 6967,
      "Sl": 6968,
      "bra": 6969,
      "lose": 6970,
      "trave": 6971,
      "Italian": 6972,
      "97": 6973,
      "nut": 6974,
      "chat": 6975,
      "likes": 6976,
      "idden": 6977,
      "Const": 6978,
      "editorial": 6979,
      "Anyone": 6980,
      "tun": 6981,
      "sourcing": 6982,
      "charge": 6983,
      "Feat": 6984,
      "scholars": 6985,
      "BOOBS": 6986,
      "County": 6987,
      "Iraq": 6988,
      "YY": 6989,
      "aRe": 6990,
      "nasty": 6991,
      "skill": 6992,
      "ensure": 6993,
      "linking": 6994,
      "Gold": 6995,
      "BeCau": 6996,
      "improved": 6997,
      "responded": 6998,
      "Class": 6999,
      "favour": 7000,
      "channel": 7001,
      "Jimbo": 7002,
      "BeCauSe": 7003,
      "87": 7004,
      "Bes": 7005,
      "FGGT": 7006,
      "Mad": 7007,
      "olog": 7008,
      "female": 7009,
      "Anth": 7010,
      "blind": 7011,
      "broken": 7012,
      "balance": 7013,
      "schools": 7014,
      "convin": 7015,
      "viron": 7016,
      "ancestry": 7017,
      "++": 7018,
      "84": 7019,
      "FY": 7020,
      "df": 7021,
      "revis": 7022,
      "irection": 7023,
      "Georg": 7024,
      "documented": 7025,
      "51": 7026,
      "Bull": 7027,
      "Fam": 7028,
      "rist": 7029,
      "seven": 7030,
      "specify": 7031,
      "resolved": 7032,
      "physical": 7033,
      "________________": 7034,
      "Dan": 7035,
      "Den": 7036,
      "Ra": 7037,
      "flo": 7038,
      "mig": 7039,
      "sle": 7040,
      "mod": 7041,
      "expected": 7042,
      "virt": 7043,
      "encourage": 7044,
      "comparison": 7045,
      "hence": 7046,
      "proceed": 7047,
      "aka": 7048,
      "strict": 7049,
      "attacked": 7050,
      "Northern": 7051,
      "Requests": 7052,
      "adopt": 7053,
      "beliefs": 7054,
      "explicitly": 7055,
      "BAG": 7056,
      "census": 7057,
      "edu": 7058,
      "ung": 7059,
      "univers": 7060,
      "prose": 7061,
      "served": 7062,
      "requests": 7063,
      "passed": 7064,
      "Grand": 7065,
      "expanded": 7066,
      "81": 7067,
      "95": 7068,
      "SA": 7069,
      "Two": 7070,
      "ered": 7071,
      "exam": 7072,
      "mathem": 7073,
      "erson": 7074,
      "ASE": 7075,
      "production": 7076,
      "larger": 7077,
      "Encyclo": 7078,
      "Hindu": 7079,
      "formatting": 7080,
      "Bible": 7081,
      "rees": 7082,
      "publication": 7083,
      "WHO": 7084,
      "tools": 7085,
      "Washing": 7086,
      "cow": 7087,
      "pace": 7088,
      "uncivil": 7089,
      "ivity": 7090,
      "graphic": 7091,
      "norm": 7092,
      "External": 7093,
      "Persian": 7094,
      "Very": 7095,
      "gment": 7096,
      "beat": 7097,
      "unclear": 7098,
      "ghan": 7099,
      "shop": 7100,
      "llocks": 7101,
      "documents": 7102,
      "allegations": 7103,
      "Latin": 7104,
      "?\"": 7105,
      "Bu": 7106,
      "Mex": 7107,
      "pis": 7108,
      "ato": 7109,
      "becoming": 7110,
      "sake": 7111,
      "violating": 7112,
      "recognized": 7113,
      "songs": 7114,
      "imagine": 7115,
      "nikko": 7116,
      "Our": 7117,
      "vast": 7118,
      "sue": 7119,
      "poll": 7120,
      "2002": 7121,
      "contributed": 7122,
      "compared": 7123,
      "unique": 7124,
      "reveal": 7125,
      "74": 7126,
      "rich": 7127,
      "inaccurate": 7128,
      "ingu": 7129,
      "icism": 7130,
      "accuse": 7131,
      "powers": 7132,
      "herent": 7133,
      "food": 7134,
      "carry": 7135,
      "balanced": 7136,
      "1st": 7137,
      "rewrite": 7138,
      "deed": 7139,
      "soever": 7140,
      "gov": 7141,
      "useless": 7142,
      "item": 7143,
      "species": 7144,
      "spac": 7145,
      "developed": 7146,
      "damage": 7147,
      "LAW": 7148,
      "Administrators": 7149,
      "California": 7150,
      "Washington": 7151,
      "AIN": 7152,
      "hic": 7153,
      "jew": 7154,
      "udo": 7155,
      "icial": 7156,
      "utions": 7157,
      "usions": 7158,
      "civili": 7159,
      "accom": 7160,
      "Wil": 7161,
      "objection": 7162,
      "Unless": 7163,
      "mainly": 7164,
      "greater": 7165,
      "Turkey": 7166,
      "votes": 7167,
      "green": 7168,
      "investigation": 7169,
      "hundreds": 7170,
      "systems": 7171,
      "CR": 7172,
      "Yet": 7173,
      "weren": 7174,
      "formation": 7175,
      "portion": 7176,
      "prev": 7177,
      "learning": 7178,
      "duplic": 7179,
      "WHY": 7180,
      "Bre": 7181,
      "FL": 7182,
      "Lou": 7183,
      "Show": 7184,
      "Ze": 7185,
      "hang": 7186,
      "ero": 7187,
      "alle": 7188,
      "lia": 7189,
      "apart": 7190,
      "seek": 7191,
      "Army": 7192,
      "reporting": 7193,
      "historians": 7194,
      "Cam": 7195,
      "Ram": 7196,
      "zard": 7197,
      "lla": 7198,
      "resources": 7199,
      "essor": 7200,
      "survi": 7201,
      "Jef": 7202,
      "Name": 7203,
      "Ve": 7204,
      "ANAL": 7205,
      "safe": 7206,
      "Before": 7207,
      "radio": 7208,
      "accusation": 7209,
      "draft": 7210,
      "psycho": 7211,
      "challeng": 7212,
      "measure": 7213,
      "polite": 7214,
      "Ham": 7215,
      "Jones": 7216,
      "Lord": 7217,
      "TER": 7218,
      "Vol": 7219,
      "pull": 7220,
      "peoples": 7221,
      "obtain": 7222,
      "vandalized": 7223,
      "oldid": 7224,
      "barnstar": 7225,
      "assertion": 7226,
      "aspects": 7227,
      "BN": 7228,
      "ji": 7229,
      "asy": 7230,
      "wife": 7231,
      "terday": 7232,
      "whatsoever": 7233,
      "Real": 7234,
      "suppor": 7235,
      "compli": 7236,
      "Joe": 7237,
      "waiting": 7238,
      "Ev": 7239,
      "NN": 7240,
      "bury": 7241,
      "becomes": 7242,
      "ager": 7243,
      "Art": 7244,
      "equiv": 7245,
      "Copyright": 7246,
      "||": 7247,
      "army": 7248,
      "exe": 7249,
      "suggests": 7250,
      "COI": 7251,
      "niggas": 7252,
      "Music": 7253,
      "Ban": 7254,
      "Phi": 7255,
      "dru": 7256,
      "dub": 7257,
      "imately": 7258,
      "surely": 7259,
      "FDL": 7260,
      "treatment": 7261,
      "Brad": 7262,
      "jer": 7263,
      "arri": 7264,
      "formed": 7265,
      "Remember": 7266,
      "viously": 7267,
      "feeling": 7268,
      "treated": 7269,
      "ACCESS": 7270,
      "Origin": 7271,
      "EX": 7272,
      "Hy": 7273,
      "dep": 7274,
      "illegal": 7275,
      "interests": 7276,
      "path": 7277,
      "deserves": 7278,
      "average": 7279,
      "GFDL": 7280,
      "Tim": 7281,
      "Wol": 7282,
      "ux": 7283,
      "ches": 7284,
      "disco": 7285,
      "hop": 7286,
      "Muslims": 7287,
      "Christianity": 7288,
      "EID": 7289,
      "kie": 7290,
      "phan": 7291,
      "boxes": 7292,
      "promotional": 7293,
      "Richard": 7294,
      "MP": 7295,
      "RFC": 7296,
      "remarks": 7297,
      "theless": 7298,
      "outhern": 7299,
      "feature": 7300,
      "rail": 7301,
      "References": 7302,
      "learned": 7303,
      "accusing": 7304,
      "Point": 7305,
      "79": 7306,
      "Mil": 7307,
      "biz": 7308,
      "entit": 7309,
      "implement": 7310,
      "observ": 7311,
      "accuracy": 7312,
      "appearance": 7313,
      "shoot": 7314,
      "redirects": 7315,
      "Islamic": 7316,
      "successful": 7317,
      "!\"\"": 7318,
      "Pho": 7319,
      "display": 7320,
      "OUR": 7321,
      "intel": 7322,
      "EDIT": 7323,
      "Hal": 7324,
      "Wo": 7325,
      "bud": 7326,
      "sell": 7327,
      "astic": 7328,
      "!!!!!!!!!!!!": 7329,
      "DID": 7330,
      "sexSex": 7331,
      "objections": 7332,
      "Either": 7333,
      "buy": 7334,
      "kin": 7335,
      "vin": 7336,
      "remark": 7337,
      "stories": 7338,
      "unfortunately": 7339,
      "newcom": 7340,
      "restrict": 7341,
      "spread": 7342,
      "IGHT": 7343,
      "1967": 7344,
      "Charles": 7345,
      "industry": 7346,
      "DENEID": 7347,
      ")\"\"": 7348,
      "EP": 7349,
      "Year": 7350,
      "uine": 7351,
      "inside": 7352,
      "mechan": 7353,
      "hoo": 7354,
      "creator": 7355,
      "hibit": 7356,
      "Commit": 7357,
      "heads": 7358,
      "thorough": 7359,
      "Greece": 7360,
      "productive": 7361,
      "HAHAHAHAHAHAHAHA": 7362,
      "mistaken": 7363,
      "censorship": 7364,
      "rational": 7365,
      "letting": 7366,
      "spin": 7367,
      "archives": 7368,
      "follows": 7369,
      "existed": 7370,
      "improvement": 7371,
      "Liber": 7372,
      "Science": 7373,
      "0s": 7374,
      "Cre": 7375,
      "SC": 7376,
      "Still": 7377,
      "ancial": 7378,
      "street": 7379,
      "pleas": 7380,
      "justice": 7381,
      "morrow": 7382,
      "shame": 7383,
      "closely": 7384,
      "categor": 7385,
      "Swed": 7386,
      "mans": 7387,
      "rot": 7388,
      "coupled": 7389,
      "supports": 7390,
      "older": 7391,
      "Christians": 7392,
      "paragraphs": 7393,
      "assistance": 7394,
      "Korean": 7395,
      "AK": 7396,
      "Mary": 7397,
      "athe": 7398,
      "aint": 7399,
      "opposite": 7400,
      "Del": 7401,
      "Ret": 7402,
      "Tor": 7403,
      "consequ": 7404,
      "kets": 7405,
      "iff": 7406,
      "Web": 7407,
      "drive": 7408,
      "Central": 7409,
      ".”": 7410,
      "GET": 7411,
      "Source": 7412,
      "toler": 7413,
      "blogs": 7414,
      "showed": 7415,
      "stopped": 7416,
      "purposes": 7417,
      "represented": 7418,
      "zero": 7419,
      "slightly": 7420,
      "instructions": 7421,
      "Featured": 7422,
      "Ros": 7423,
      "UL": 7424,
      "catch": 7425,
      "lean": 7426,
      "cher": 7427,
      "oppose": 7428,
      "Nov": 7429,
      "interpre": 7430,
      "organizations": 7431,
      "physics": 7432,
      "Palestin": 7433,
      "500": 7434,
      "AP": 7435,
      "ov": 7436,
      "convert": 7437,
      "sume": 7438,
      "clue": 7439,
      "ifications": 7440,
      "genuine": 7441,
      "brand": 7442,
      "Adam": 7443,
      "Given": 7444,
      "Net": 7445,
      "Os": 7446,
      "Over": 7447,
      "Yu": 7448,
      "novel": 7449,
      "meat": 7450,
      "differences": 7451,
      "labe": 7452,
      "officially": 7453,
      "promotion": 7454,
      "designed": 7455,
      "candidates": 7456,
      "Nice": 7457,
      "dark": 7458,
      "render": 7459,
      "astern": 7460,
      "OULD": 7461,
      "manage": 7462,
      "firm": 7463,
      "colum": 7464,
      "valu": 7465,
      "lingu": 7466,
      "initial": 7467,
      "Royal": 7468,
      "ingly": 7469,
      "fear": 7470,
      "ulated": 7471,
      "Iranian": 7472,
      "89": 7473,
      "Battle": 7474,
      "ease": 7475,
      "pdf": 7476,
      "western": 7477,
      "onom": 7478,
      "honestly": 7479,
      "terrorist": 7480,
      "FE": 7481,
      "Guy": 7482,
      "direction": 7483,
      "chron": 7484,
      "cture": 7485,
      "commonly": 7486,
      "constantly": 7487,
      "Book": 7488,
      "ountain": 7489,
      "apology": 7490,
      "GOD": 7491,
      "planet": 7492,
      "Africa": 7493,
      "Depart": 7494,
      "Thomas": 7495,
      "83": 7496,
      "AC": 7497,
      "Mur": 7498,
      "paged": 7499,
      "incorpor": 7500,
      "ona": 7501,
      "aside": 7502,
      "unte": 7503,
      "wash": 7504,
      "etic": 7505,
      "materials": 7506,
      "produced": 7507,
      "largely": 7508,
      "bullshit": 7509,
      "inserted": 7510,
      "Azer": 7511,
      "Fred": 7512,
      "Jay": 7513,
      "Tod": 7514,
      "ae": 7515,
      "card": 7516,
      "mate": 7517,
      "nis": 7518,
      "naz": 7519,
      "environ": 7520,
      "apt": 7521,
      "fake": 7522,
      "explains": 7523,
      "BBC": 7524,
      "Di": 7525,
      "Haw": 7526,
      "egg": 7527,
      "tomorrow": 7528,
      "arse": 7529,
      "Comment": 7530,
      "politic": 7531,
      "records": 7532,
      "elimin": 7533,
      "substantial": 7534,
      "Committee": 7535,
      "Egy": 7536,
      "Know": 7537,
      "Rob": 7538,
      "cen": 7539,
      "elete": 7540,
      "caust": 7541,
      "Head": 7542,
      "Leg": 7543,
      "Histor": 7544,
      "FIRE": 7545,
      "Press": 7546,
      "Tit": 7547,
      "tas": 7548,
      "Arbit": 7549,
      "finished": 7550,
      "freely": 7551,
      "blan": 7552,
      "yourselfgo": 7553,
      "scientists": 7554,
      "resolve": 7555,
      "Human": 7556,
      "LAWDY": 7557,
      "pagedelete": 7558,
      "Tex": 7559,
      "cis": 7560,
      "hack": 7561,
      "agrees": 7562,
      "Three": 7563,
      "permit": 7564,
      "yesterday": 7565,
      "activities": 7566,
      "constitutes": 7567,
      "Ali": 7568,
      "Back": 7569,
      "bridge": 7570,
      "uate": 7571,
      "ern": 7572,
      "positions": 7573,
      "Assad": 7574,
      "vandals": 7575,
      "collection": 7576,
      "directed": 7577,
      "marked": 7578,
      "convention": 7579,
      "Bal": 7580,
      "turns": 7581,
      "attempted": 7582,
      "Britain": 7583,
      "ville": 7584,
      "volution": 7585,
      "xymoron": 7586,
      "prominent": 7587,
      "intellect": 7588,
      "BER": 7589,
      "CUR": 7590,
      "OFF": 7591,
      "Pop": 7592,
      "Van": 7593,
      "dating": 7594,
      "ocide": 7595,
      "ume": 7596,
      "arrog": 7597,
      "stage": 7598,
      "utch": 7599,
      "justification": 7600,
      "Social": 7601,
      "FUCKFUCKFUCKFUCKFUCKFUCKFUCKFUCK": 7602,
      "territory": 7603,
      "Life": 7604,
      "acknowled": 7605,
      "server": 7606,
      "Associ": 7607,
      "Nothing": 7608,
      "everybody": 7609,
      "define": 7610,
      "aniel": 7611,
      "Obviously": 7612,
      "Fri": 7613,
      "ding": 7614,
      "manip": 7615,
      "desk": 7616,
      "network": 7617,
      "introduced": 7618,
      "uyuyuyuyuyuyuyuyuyuyuyuyuyuyuyuy": 7619,
      "nnnnnnnnnnnnnnnnnnnnnnnnnnnnnnnn": 7620,
      "Foundation": 7621,
      "Intro": 7622,
      "opportunity": 7623,
      "Hill": 7624,
      "enforce": 7625,
      "secret": 7626,
      "hob": 7627,
      "grounds": 7628,
      "allows": 7629,
      "pattern": 7630,
      "terrorism": 7631,
      "hurt": 7632,
      "Virgin": 7633,
      "mac": 7634,
      "acity": 7635,
      "mere": 7636,
      "implies": 7637,
      "identified": 7638,
      "lenge": 7639,
      "Macedonia": 7640,
      "reputation": 7641,
      "Call": 7642,
      "gust": 7643,
      "arms": 7644,
      "letters": 7645,
      "center": 7646,
      "distribut": 7647,
      "engaged": 7648,
      "League": 7649,
      "hammad": 7650,
      "Support": 7651,
      "tytytytytytytytytytytytytytytyty": 7652,
      "62": 7653,
      "93": 7654,
      "DC": 7655,
      "DD": 7656,
      "bare": 7657,
      "gi": 7658,
      "liable": 7659,
      "civility": 7660,
      "overall": 7661,
      "domin": 7662,
      "recognize": 7663,
      "Brown": 7664,
      "television": 7665,
      "Budd": 7666,
      "Hen": 7667,
      "fied": 7668,
      "bell": 7669,
      "\"\"\"": 7670,
      "advis": 7671,
      "vial": 7672,
      "spell": 7673,
      "monit": 7674,
      "Afghan": 7675,
      "Ron": 7676,
      "Rand": 7677,
      "xx": 7678,
      "ert": 7679,
      "agi": 7680,
      "habit": 7681,
      "chose": 7682,
      "liar": 7683,
      "hoax": 7684,
      "IPs": 7685,
      "profile": 7686,
      "ifiability": 7687,
      "folks": 7688,
      "BG": 7689,
      "DS": 7690,
      "Sir": 7691,
      "Sum": 7692,
      "toward": 7693,
      "sun": 7694,
      "excellent": 7695,
      "intend": 7696,
      "submission": 7697,
      "subsequ": 7698,
      "insulting": 7699,
      "cellpadding": 7700,
      "advise": 7701,
      "criminal": 7702,
      "Having": 7703,
      "task": 7704,
      "reaction": 7705,
      "locaust": 7706,
      "conven": 7707,
      "commentary": 7708,
      "CHE": 7709,
      "impact": 7710,
      "Besides": 7711,
      "Dou": 7712,
      "Has": 7713,
      "Tru": 7714,
      "Unt": 7715,
      "haz": 7716,
      "useum": 7717,
      "possibility": 7718,
      "decline": 7719,
      "Community": 7720,
      "philosophy": 7721,
      "Queen": 7722,
      "Bus": 7723,
      "Mod": 7724,
      "hits": 7725,
      "recall": 7726,
      "ongoing": 7727,
      "itation": 7728,
      "adequ": 7729,
      "===": 7730,
      "fili": 7731,
      "determined": 7732,
      "entitled": 7733,
      "Award": 7734,
      "Ba": 7735,
      "HO": 7736,
      "None": 7737,
      "Such": 7738,
      "edition": 7739,
      "iling": 7740,
      "ola": 7741,
      "Question": 7742,
      "Current": 7743,
      "Department": 7744,
      "anon": 7745,
      "iful": 7746,
      "redund": 7747,
      "Need": 7748,
      "ventions": 7749,
      "GOT": 7750,
      "exception": 7751,
      "benefits": 7752,
      "normally": 7753,
      "Mill": 7754,
      "PC": 7755,
      "dies": 7756,
      "nav": 7757,
      "rating": 7758,
      "duction": 7759,
      "speculation": 7760,
      "181": 7761,
      "Poland": 7762,
      "equally": 7763,
      "ignoring": 7764,
      "ArbCom": 7765,
      "Today": 7766,
      "300": 7767,
      "Apo": 7768,
      "Ce": 7769,
      "Vo": 7770,
      "wind": 7771,
      "yn": 7772,
      "stone": 7773,
      "sey": 7774,
      "riage": 7775,
      "Think": 7776,
      "math": 7777,
      "mature": 7778,
      "violates": 7779,
      "deny": 7780,
      "lacking": 7781,
      "scene": 7782,
      "candidate": 7783,
      "CRAPCRAPCRAPCRAPCRAPCRAPCRAPCRAP": 7784,
      "Council": 7785,
      "stalking": 7786,
      "youtube": 7787,
      ".'": 7788,
      "HOM": 7789,
      "Oxymoron": 7790,
      "Sen": 7791,
      "iers": 7792,
      "vague": 7793,
      "didnt": 7794,
      "Soci": 7795,
      "colon": 7796,
      "addresses": 7797,
      "fails": 7798,
      "sky": 7799,
      "matches": 7800,
      "Policy": 7801,
      "Jeff": 7802,
      "Bunk": 7803,
      "brow": 7804,
      "fing": 7805,
      "icine": 7806,
      "adds": 7807,
      "answers": 7808,
      "dude": 7809,
      "responsi": 7810,
      "village": 7811,
      "Government": 7812,
      "NE": 7813,
      "Pict": 7814,
      "Tony": 7815,
      "uel": 7816,
      "vac": 7817,
      "Notice": 7818,
      "happening": 7819,
      "admitted": 7820,
      "Congrat": 7821,
      "Daniel": 7822,
      "OL": 7823,
      "rection": 7824,
      "vehic": 7825,
      "unacceptable": 7826,
      "frank": 7827,
      "fraud": 7828,
      "gold": 7829,
      "opposition": 7830,
      "answered": 7831,
      "market": 7832,
      "trial": 7833,
      "feelings": 7834,
      "experts": 7835,
      "surd": 7836,
      "violated": 7837,
      "skin": 7838,
      "believed": 7839,
      "thodo": 7840,
      "pussy": 7841,
      "IVE": 7842,
      "Lin": 7843,
      "Lad": 7844,
      "Watch": 7845,
      "gang": 7846,
      "sar": 7847,
      "FAC": 7848,
      "ashion": 7849,
      "handle": 7850,
      "ignorance": 7851,
      "economic": 7852,
      "Consider": 7853,
      "91": 7854,
      "Us": 7855,
      "Val": 7856,
      "unlike": 7857,
      "covers": 7858,
      "Incident": 7859,
      "Editing": 7860,
      "\"::::": 7861,
      "png": 7862,
      "unit": 7863,
      "ilty": 7864,
      "kings": 7865,
      "desire": 7866,
      "realized": 7867,
      "reviewing": 7868,
      "bloody": 7869,
      "Contributions": 7870,
      "Anthony": 7871,
      "3rd": 7872,
      "Middle": 7873,
      "bin": 7874,
      "vance": 7875,
      "accord": 7876,
      "library": 7877,
      "compare": 7878,
      "north": 7879,
      "disruption": 7880,
      "features": 7881,
      "skills": 7882,
      "Ash": 7883,
      "Fil": 7884,
      "PERS": 7885,
      "WAS": 7886,
      "dirty": 7887,
      "ala": 7888,
      "offered": 7889,
      "unlikely": 7890,
      "papers": 7891,
      "recorded": 7892,
      "intelligence": 7893,
      "emot": 7894,
      "stru": 7895,
      "els": 7896,
      "temper": 7897,
      "regarded": 7898,
      "portr": 7899,
      "soft": 7900,
      "scholarly": 7901,
      "distinction": 7902,
      "conservative": 7903,
      "fundamental": 7904,
      "Cr": 7905,
      "Sand": 7906,
      "dogs": 7907,
      "trade": 7908,
      "angry": 7909,
      "Info": 7910,
      "affili": 7911,
      "Asia": 7912,
      "III": 7913,
      "criticisms": 7914,
      "Scot": 7915,
      "threatening": 7916,
      "Armenian": 7917,
      "Cat": 7918,
      "Eastern": 7919,
      "gor": 7920,
      "perce": 7921,
      "reser": 7922,
      "ula": 7923,
      "ulate": 7924,
      "essentially": 7925,
      "partial": 7926,
      "123": 7927,
      "describing": 7928,
      "breed": 7929,
      "AME": 7930,
      "apologies": 7931,
      "Mike": 7932,
      "frequently": 7933,
      "Martin": 7934,
      "Pakistan": 7935,
      "Hor": 7936,
      "Mem": 7937,
      "Rac": 7938,
      "VD": 7939,
      "WOR": 7940,
      "dare": 7941,
      "sche": 7942,
      "scale": 7943,
      "depart": 7944,
      "bye": 7945,
      "prison": 7946,
      "ached": 7947,
      "extent": 7948,
      "nationality": 7949,
      "racism": 7950,
      "products": 7951,
      "massive": 7952,
      "dictionary": 7953,
      "River": 7954,
      "mathemat": 7955,
      "BAN": 7956,
      "Clear": 7957,
      "Eth": 7958,
      "Ot": 7959,
      "Ur": 7960,
      "lan": 7961,
      "dem": 7962,
      "absurd": 7963,
      "unreliable": 7964,
      "unknown": 7965,
      "titled": 7966,
      "biggest": 7967,
      "ships": 7968,
      "brew": 7969,
      "smart": 7970,
      "clarification": 7971,
      "receive": 7972,
      "BunkSteve": 7973,
      "bass": 7974,
      "ua": 7975,
      "vention": 7976,
      "acknowledge": 7977,
      "////": 7978,
      "Images": 7979,
      "publications": 7980,
      "morning": 7981,
      "credibility": 7982,
      "Seriously": 7983,
      "Moreover": 7984,
      "Far": 7985,
      "Nig": 7986,
      "Rad": 7987,
      "Ti": 7988,
      "kids": 7989,
      "lor": 7990,
      "abusing": 7991,
      "lict": 7992,
      "chosen": 7993,
      "consideration": 7994,
      "flaw": 7995,
      "Guide": 7996,
      "movies": 7997,
      "animals": 7998,
      "Serbian": 7999,
      "traditional": 8000,
      "Discussion": 8001,
      "((": 8002,
      "911": 8003,
      "Apr": 8004,
      "jack": 8005,
      "sect": 8006,
      "preced": 8007,
      "rape": 8008,
      "primar": 8009,
      "finish": 8010,
      "refs": 8011,
      "encyclopa": 8012,
      "ugly": 8013,
      "00000000": 8014,
      "innocent": 8015,
      "EAT": 8016,
      "unconstructive": 8017,
      "ounds": 8018,
      "writes": 8019,
      "typical": 8020,
      "Macedonian": 8021,
      "Men": 8022,
      "asser": 8023,
      "invited": 8024,
      "challenge": 8025,
      "reputable": 8026,
      "citizen": 8027,
      "PLEASE": 8028,
      "Put": 8029,
      "SI": 8030,
      "Son": 8031,
      "Ta": 8032,
      "dat": 8033,
      "scri": 8034,
      "tab": 8035,
      "replied": 8036,
      "kee": 8037,
      "boys": 8038,
      "items": 8039,
      "ponents": 8040,
      "indicates": 8041,
      "MOS": 8042,
      "maps": 8043,
      "11111111111111111111111111111111": 8044,
      "RT": 8045,
      "Vict": 8046,
      "eness": 8047,
      "ros": 8048,
      "lio": 8049,
      "actor": 8050,
      "ressing": 8051,
      "Chang": 8052,
      "financial": 8053,
      "pair": 8054,
      "tells": 8055,
      "Christmas": 8056,
      "notices": 8057,
      "failure": 8058,
      "satisfy": 8059,
      "circumst": 8060,
      "deliberately": 8061,
      "Bor": 8062,
      "RFA": 8063,
      "lessly": 8064,
      "101": 8065,
      "ITE": 8066,
      "qualify": 8067,
      "parently": 8068,
      "Space": 8069,
      "assumed": 8070,
      "slav": 8071,
      "mixed": 8072,
      "celebr": 8073,
      "Joseph": 8074,
      "newcomers": 8075,
      "kins": 8076,
      "pics": 8077,
      "artists": 8078,
      "frustr": 8079,
      "ophi": 8080,
      "merit": 8081,
      "hero": 8082,
      "fucker": 8083,
      "testing": 8084,
      "preferred": 8085,
      "spoken": 8086,
      "Mos": 8087,
      "hol": 8088,
      "mu": 8089,
      "itar": 8090,
      "Indeed": 8091,
      "illust": 8092,
      "Really": 8093,
      "helped": 8094,
      "critics": 8095,
      "trivial": 8096,
      "promoting": 8097,
      "literally": 8098,
      "Center": 8099,
      "annoying": 8100,
      "equivalent": 8101,
      "Philip": 8102,
      "()": 8103,
      "Come": 8104,
      "Gra": 8105,
      "Make": 8106,
      "MANN": 8107,
      "PM": 8108,
      "consul": 8109,
      "weap": 8110,
      "discovered": 8111,
      "offended": 8112,
      "whereas": 8113,
      "finite": 8114,
      "distort": 8115,
      "historian": 8116,
      "watchlist": 8117,
      "effects": 8118,
      "Foot": 8119,
      "submitted": 8120,
      "switch": 8121,
      "Croatian": 8122,
      "pronoun": 8123,
      "Interest": 8124,
      "))": 8125,
      "BT": 8126,
      "Rom": 8127,
      "Shi": 8128,
      "Ten": 8129,
      "VI": 8130,
      "hun": 8131,
      "loser": 8132,
      "urb": 8133,
      "pressing": 8134,
      "command": 8135,
      "string": 8136,
      "ackson": 8137,
      "representation": 8138,
      "zzzzzzzzzzzzzzzzzzzzzzzzzzzzzzzz": 8139,
      "/////": 8140,
      "Sin": 8141,
      "Wal": 8142,
      "pp": 8143,
      "sports": 8144,
      "los": 8145,
      "sud": 8146,
      "ours": 8147,
      "perate": 8148,
      "quant": 8149,
      "presum": 8150,
      "writers": 8151,
      "condition": 8152,
      "cares": 8153,
      "opened": 8154,
      "volunte": 8155,
      "limate": 8156,
      "albums": 8157,
      "stein": 8158,
      "BUM": 8159,
      "GN": 8160,
      "Hmm": 8161,
      "gif": 8162,
      "dot": 8163,
      "upset": 8164,
      "bothered": 8165,
      "hoping": 8166,
      "viewpoint": 8167,
      "informative": 8168,
      "Island": 8169,
      "relatively": 8170,
      "constant": 8171,
      "STUP": 8172,
      "poorly": 8173,
      "Bay": 8174,
      "Glo": 8175,
      "Say": 8176,
      "[]": 8177,
      "iation": 8178,
      "rang": 8179,
      "\"\").": 8180,
      "sop": 8181,
      "izes": 8182,
      "puts": 8183,
      "historic": 8184,
      "respected": 8185,
      "publisher": 8186,
      "Serbia": 8187,
      "Personal": 8188,
      "216": 8189,
      "73": 8190,
      "Bri": 8191,
      "Tam": 8192,
      "rewritten": 8193,
      "ancy": 8194,
      "league": 8195,
      "proud": 8196,
      "mond": 8197,
      "specifies": 8198,
      "Comp": 8199,
      "describes": 8200,
      "statistics": 8201,
      "fixing": 8202,
      "window": 8203,
      "Play": 8204,
      "Research": 8205,
      "Muhammad": 8206,
      "Encyclopedia": 8207,
      "Until": 8208,
      "Hon": 8209,
      "NT": 8210,
      "rated": 8211,
      "reci": 8212,
      "orm": 8213,
      "ened": 8214,
      "unfair": 8215,
      "Their": 8216,
      "Though": 8217,
      "refuse": 8218,
      "AST": 8219,
      "capable": 8220,
      "LIKE": 8221,
      "continuing": 8222,
      "elements": 8223,
      "Fox": 8224,
      "besides": 8225,
      "universe": 8226,
      "Verifiability": 8227,
      "valuable": 8228,
      "Dist": 8229,
      "Def": 8230,
      "Fre": 8231,
      "Night": 8232,
      "fashion": 8233,
      "gri": 8234,
      "tim": 8235,
      "esh": 8236,
      "sty": 8237,
      "heavy": 8238,
      "implic": 8239,
      "Start": 8240,
      "Death": 8241,
      "Bell": 8242,
      "launch": 8243,
      "directory": 8244,
      "Coll": 8245,
      "Disney": 8246,
      "element": 8247,
      "????????": 8248,
      "believes": 8249,
      "WWWWWWWWWWWWWWWWWWWWWWWWWWWWWWWW": 8250,
      "CSD": 8251,
      "pseudo": 8252,
      "Family": 8253,
      "Arbitration": 8254,
      "agiar": 8255,
      "STUPID": 8256,
      "Ama": 8257,
      "Jour": 8258,
      "stuck": 8259,
      "pov": 8260,
      "percent": 8261,
      "ulty": 8262,
      "caught": 8263,
      "highest": 8264,
      "denial": 8265,
      "AGAIN": 8266,
      "millions": 8267,
      "MainPage": 8268,
      "Texas": 8269,
      "security": 8270,
      "deem": 8271,
      "Contro": 8272,
      "organisation": 8273,
      "boymamas": 8274,
      "massac": 8275,
      "Apparently": 8276,
      "punish": 8277,
      "connected": 8278,
      "nick": 8279,
      "rs": 8280,
      "ini": 8281,
      "proved": 8282,
      "ets": 8283,
      "causes": 8284,
      "GAY": 8285,
      "electron": 8286,
      "assessment": 8287,
      "Public": 8288,
      "BLE": 8289,
      "PD": 8290,
      "iny": 8291,
      "abusive": 8292,
      "tect": 8293,
      "estim": 8294,
      "minute": 8295,
      "gender": 8296,
      "Isn": 8297,
      "Group": 8298,
      "crazy": 8299,
      "violence": 8300,
      "scope": 8301,
      "Korea": 8302,
      "Ryan": 8303,
      "chapter": 8304,
      "MainPageBG": 8305,
      "BULL": 8306,
      "Es": 8307,
      "Ox": 8308,
      "fest": 8309,
      "pti": 8310,
      "ugu": 8311,
      "wed": 8312,
      "proves": 8313,
      "ques": 8314,
      "whoever": 8315,
      "commented": 8316,
      "Andrew": 8317,
      "lede": 8318,
      "USE": 8319,
      "USS": 8320,
      "bigger": 8321,
      "Polit": 8322,
      "cocks": 8323,
      "PERSON": 8324,
      "Kind": 8325,
      "gall": 8326,
      "mart": 8327,
      "oute": 8328,
      "uted": 8329,
      "liament": 8330,
      "specially": 8331,
      "closer": 8332,
      "greatly": 8333,
      "cris": 8334,
      "district": 8335,
      "aughter": 8336,
      "settle": 8337,
      "Koso": 8338,
      "Louis": 8339,
      "primarily": 8340,
      "PP": 8341,
      "conventions": 8342,
      "killing": 8343,
      "hole": 8344,
      "illa": 8345,
      "pring": 8346,
      "forever": 8347,
      "icted": 8348,
      "bling": 8349,
      "ESE": 8350,
      "technology": 8351,
      "harassing": 8352,
      "newspapers": 8353,
      "technically": 8354,
      "Bad": 8355,
      "Find": 8356,
      "Lar": 8357,
      "gins": 8358,
      "pu": 8359,
      "arts": 8360,
      "neigh": 8361,
      "butt": 8362,
      "disgust": 8363,
      "!!!!!!": 8364,
      "\"::::::": 8365,
      "OWN": 8366,
      "sir": 8367,
      "ario": 8368,
      "icious": 8369,
      "aggress": 8370,
      "Third": 8371,
      "grade": 8372,
      "prepare": 8373,
      "pointless": 8374,
      "distingu": 8375,
      "BOT": 8376,
      "Blue": 8377,
      "Hopefully": 8378,
      "missions": 8379,
      "BR": 8380,
      "WANT": 8381,
      "dear": 8382,
      "decent": 8383,
      "rif": 8384,
      "resist": 8385,
      "presence": 8386,
      "emer": 8387,
      "speakers": 8388,
      "voting": 8389,
      "methods": 8390,
      "distinct": 8391,
      "accompl": 8392,
      "Edu": 8393,
      "Mass": 8394,
      "Move": 8395,
      "dro": 8396,
      "dim": 8397,
      "hidden": 8398,
      "wrest": 8399,
      "iter": 8400,
      "comfort": 8401,
      "Reliable": 8402,
      "owned": 8403,
      "flat": 8404,
      "administrative": 8405,
      "racial": 8406,
      "suspic": 8407,
      "bringing": 8408,
      ".-": 8409,
      "AW": 8410,
      "Br": 8411,
      "Jac": 8412,
      "Mess": 8413,
      "bow": 8414,
      "east": 8415,
      "alpha": 8416,
      "behalf": 8417,
      "discrimin": 8418,
      "cious": 8419,
      "assign": 8420,
      "herit": 8421,
      "Seems": 8422,
      "property": 8423,
      "sockpuppetry": 8424,
      "memory": 8425,
      "smaller": 8426,
      "ethnicity": 8427,
      "occasion": 8428,
      "Conflict": 8429,
      "Gi": 8430,
      "Na": 8431,
      "Sc": 8432,
      "nations": 8433,
      "plant": 8434,
      "corrupt": 8435,
      "warn": 8436,
      "Street": 8437,
      "kindly": 8438,
      "expan": 8439,
      "nominate": 8440,
      "powerful": 8441,
      "burg": 8442,
      "Francis": 8443,
      "Photo": 8444,
      "redundant": 8445,
      "thodox": 8446,
      "Gar": 8447,
      "Pan": 8448,
      "eld": 8449,
      "uit": 8450,
      "ento": 8451,
      "beaut": 8452,
      "libel": 8453,
      "wealth": 8454,
      "doesnt": 8455,
      "definitions": 8456,
      "download": 8457,
      "filled": 8458,
      "wanna": 8459,
      "61": 8460,
      "Bang": 8461,
      "HER": 8462,
      "Khan": 8463,
      "Matt": 8464,
      "MUST": 8465,
      "Open": 8466,
      "wp": 8467,
      "asion": 8468,
      "shi": 8469,
      "exer": 8470,
      "disease": 8471,
      "preser": 8472,
      "crimes": 8473,
      "cites": 8474,
      "144": 8475,
      "relevance": 8476,
      "turning": 8477,
      "authorit": 8478,
      "aircraft": 8479,
      "CHAN": 8480,
      "ALLY": 8481,
      "facilit": 8482,
      "Viet": 8483,
      "Way": 8484,
      "opt": 8485,
      "sport": 8486,
      "thet": 8487,
      "sets": 8488,
      "ller": 8489,
      "doct": 8490,
      "extr": 8491,
      "ults": 8492,
      "sales": 8493,
      "communist": 8494,
      "quotation": 8495,
      "drink": 8496,
      "conclusions": 8497,
      "DELE": 8498,
      "initi": 8499,
      "committed": 8500,
      "phenomen": 8501,
      "rejected": 8502,
      "Additionally": 8503,
      "jerk": 8504,
      "Society": 8505,
      "Eli": 8506,
      "IME": 8507,
      "Jackson": 8508,
      "OS": 8509,
      "kj": 8510,
      "stable": 8511,
      "cape": 8512,
      "guilty": 8513,
      "rence": 8514,
      "ureau": 8515,
      "factor": 8516,
      "Altern": 8517,
      "reasonably": 8518,
      "Cont": 8519,
      "practic": 8520,
      "risk": 8521,
      "Bullshit": 8522,
      "Care": 8523,
      "Face": 8524,
      "Long": 8525,
      "bai": 8526,
      "fly": 8527,
      "gus": 8528,
      "kick": 8529,
      "laz": 8530,
      "anth": 8531,
      "heavi": 8532,
      "\"\";": 8533,
      "appointed": 8534,
      "privi": 8535,
      "relations": 8536,
      "controlled": 8537,
      "quoting": 8538,
      "circ": 8539,
      "dialect": 8540,
      "sudden": 8541,
      "Gal": 8542,
      "Tai": 8543,
      "arrest": 8544,
      "bear": 8545,
      "sored": 8546,
      "prod": 8547,
      "frame": 8548,
      "deletions": 8549,
      "married": 8550,
      "commons": 8551,
      "1999": 8552,
      "steps": 8553,
      "WIKI": 8554,
      "HELL": 8555,
      "MONGO": 8556,
      "Dave": 8557,
      "Hani": 8558,
      "iently": 8559,
      "zing": 8560,
      "lift": 8561,
      "proto": 8562,
      "discour": 8563,
      "pressure": 8564,
      "archived": 8565,
      "feels": 8566,
      "highlight": 8567,
      "250": 8568,
      "Prince": 8569,
      "locked": 8570,
      "teams": 8571,
      "Phil": 8572,
      "Arabic": 8573,
      "Secondly": 8574,
      "Introduction": 8575,
      "alot": 8576,
      "advant": 8577,
      "door": 8578,
      "tel": 8579,
      "plat": 8580,
      "Chic": 8581,
      "herself": 8582,
      "Acade": 8583,
      "VANDALISM": 8584,
      "expansion": 8585,
      "Dy": 8586,
      "EV": 8587,
      "HS": 8588,
      "Home": 8589,
      "Hard": 8590,
      "Military": 8591,
      "Power": 8592,
      "Using": 8593,
      "brit": 8594,
      "bush": 8595,
      "rem": 8596,
      "retain": 8597,
      "coordin": 8598,
      "Inc": 8599,
      "Section": 8600,
      "extensive": 8601,
      "\":::": 8602,
      "academ": 8603,
      "daily": 8604,
      "DVD": 8605,
      "EU": 8606,
      "ray": 8607,
      "rise": 8608,
      "arter": 8609,
      "expressed": 8610,
      "etings": 8611,
      "quette": 8612,
      "empt": 8613,
      "conditions": 8614,
      "defending": 8615,
      "represents": 8616,
      "insults": 8617,
      "horse": 8618,
      "judgement": 8619,
      "machine": 8620,
      "FYI": 8621,
      "Clearly": 8622,
      "IMO": 8623,
      "Ms": 8624,
      "Sandbox": 8625,
      "rev": 8626,
      "isan": 8627,
      "weird": 8628,
      "Wizard": 8629,
      "urn": 8630,
      "serving": 8631,
      "Hebrew": 8632,
      "strateg": 8633,
      "joined": 8634,
      "minded": 8635,
      "occurred": 8636,
      "Cult": 8637,
      "Fire": 8638,
      "loves": 8639,
      "iled": 8640,
      "grav": 8641,
      "sons": 8642,
      "genocide": 8643,
      "branch": 8644,
      "trivia": 8645,
      "150": 8646,
      "credited": 8647,
      "verifiability": 8648,
      "Juda": 8649,
      "ARTIC": 8650,
      "supporters": 8651,
      "Hanibal": 8652,
      "Cer": 8653,
      "HR": 8654,
      "Oper": 8655,
      "Ray": 8656,
      "Sol": 8657,
      "baby": 8658,
      "vest": 8659,
      "staff": 8660,
      "mode": 8661,
      "moves": 8662,
      "wasting": 8663,
      "talks": 8664,
      "evident": 8665,
      "READ": 8666,
      "subjective": 8667,
      "129": 8668,
      "Being": 8669,
      "casual": 8670,
      "meeting": 8671,
      "circumstances": 8672,
      "Hanibal911": 8673,
      "Cup": 8674,
      "Div": 8675,
      "Dutch": 8676,
      "fare": 8677,
      "jun": 8678,
      "jum": 8679,
      "punk": 8680,
      "defam": 8681,
      "obsc": 8682,
      "invite": 8683,
      "THEY": 8684,
      "leads": 8685,
      "services": 8686,
      "ELESS": 8687,
      "requirements": 8688,
      "intelligent": 8689,
      "substantially": 8690,
      "210": 8691,
      "Dick": 8692,
      "JPG": 8693,
      "dream": 8694,
      "infl": 8695,
      "ador": 8696,
      "embar": 8697,
      "marriage": 8698,
      "FACK": 8699,
      "Nazis": 8700,
      "increase": 8701,
      "Personally": 8702,
      "Constitution": 8703,
      "Baby": 8704,
      "Ill": 8705,
      "gary": 8706,
      "het": 8707,
      "agan": 8708,
      "ilst": 8709,
      "trh": 8710,
      "blame": 8711,
      "approved": 8712,
      "filed": 8713,
      "emplo": 8714,
      "arbitr": 8715,
      "dedicated": 8716,
      "Metal": 8717,
      "Hanibal911You": 8718,
      "Dun": 8719,
      "lly": 8720,
      "lab": 8721,
      "stars": 8722,
      "neo": 8723,
      "urs": 8724,
      "Revert": 8725,
      "Notrh": 8726,
      "cert": 8727,
      "USELESS": 8728,
      "breaking": 8729,
      "brown": 8730,
      "SECUR": 8731,
      "selecting": 8732,
      "MMMM": 8733,
      "occupation": 8734,
      "victims": 8735,
      "dubious": 8736,
      "intellectual": 8737,
      "212": 8738,
      "CENT": 8739,
      "Fa": 8740,
      "KNOW": 8741,
      "Len": 8742,
      "bour": 8743,
      "cation": 8744,
      "island": 8745,
      "aran": 8746,
      "stem": 8747,
      "entity": 8748,
      "fee": 8749,
      "ression": 8750,
      "referencing": 8751,
      "merging": 8752,
      "internal": 8753,
      "173": 8754,
      "ENS": 8755,
      "diffs": 8756,
      "holding": 8757,
      "Stephen": 8758,
      "Editor": 8759,
      "ELAND": 8760,
      "increasing": 8761,
      "column": 8762,
      "HOMELAND": 8763,
      "Notrhby": 8764,
      "SECURITY": 8765,
      "BB": 8766,
      "Direct": 8767,
      "Ga": 8768,
      "Top": 8769,
      "ders": 8770,
      "dial": 8771,
      "kers": 8772,
      "slo": 8773,
      "height": 8774,
      "grap": 8775,
      "whenever": 8776,
      "ponent": 8777,
      "banof": 8778,
      "moral": 8779,
      "allowing": 8780,
      "qualified": 8781,
      "contained": 8782,
      "complaints": 8783,
      "cleanup": 8784,
      "Republican": 8785,
      "animal": 8786,
      "southbanof": 8787,
      "Oppose": 8788,
      "Notrhbysouthbanof": 8789,
      "Bat": 8790,
      "Fat": 8791,
      "Ren": 8792,
      "SU": 8793,
      "],": 8794,
      "encies": 8795,
      "icide": 8796,
      "rial": 8797,
      "units": 8798,
      "nowhere": 8799,
      "sibly": 8800,
      "Recent": 8801,
      "relating": 8802,
      "problematic": 8803,
      "responses": 8804,
      "greatest": 8805,
      "balls": 8806,
      "!!!!!!!!!!!!!!!!!!!!!!!!!!!!!!!!!!!!!!!!!!!!!!!!!!!!!!!!!!!!!!!!!!!!!!!!!!!!!!!!!!!!!!!!!!!!!!!!!!!!!!!!!!!!!!!!!!!!!!!!!!!!!!!!": 8807,
      "purely": 8808,
      "Braz": 8809,
      "convinced": 8810,
      "BULLSHIT": 8811,
      "SECURITYFUCK": 8812,
      "Nat": 8813,
      "SN": 8814,
      "ii": 8815,
      "tan": 8816,
      "concent": 8817,
      "complic": 8818,
      "endor": 8819,
      "cougar": 8820,
      "akes": 8821,
      "Doc": 8822,
      "texts": 8823,
      "questionable": 8824,
      "accurately": 8825,
      "Looks": 8826,
      "advertise": 8827,
      "sometime": 8828,
      "demonstrate": 8829,
      "communication": 8830,
      "intentions": 8831,
      "bomb": 8832,
      "63": 8833,
      "Cast": 8834,
      "MC": 8835,
      "Mah": 8836,
      "cision": 8837,
      "fD": 8838,
      "lap": 8839,
      "nals": 8840,
      "tree": 8841,
      "ware": 8842,
      "stren": 8843,
      "\"\"\"\"": 8844,
      "wild": 8845,
      "urally": 8846,
      "resource": 8847,
      "granted": 8848,
      "renamed": 8849,
      "udes": 8850,
      "209": 8851,
      "Beat": 8852,
      "argued": 8853,
      "passage": 8854,
      "CUNTBAG": 8855,
      "Without": 8856,
      "training": 8857,
      "application": 8858,
      "principles": 8859,
      "invented": 8860,
      "Original": 8861,
      "Association": 8862,
      "BUS": 8863,
      "XX": 8864,
      "dang": 8865,
      "flight": 8866,
      "sea": 8867,
      "iance": 8868,
      "ival": 8869,
      "managed": 8870,
      "starts": 8871,
      "wont": 8872,
      "ASSH": 8873,
      "IDE": 8874,
      "1000": 8875,
      "techni": 8876,
      "Respon": 8877,
      "hearing": 8878,
      "constitution": 8879,
      "Congratulations": 8880,
      "accordance": 8881,
      "Journal": 8882,
      "Cri": 8883,
      "Federal": 8884,
      "Got": 8885,
      "Pet": 8886,
      "bie": 8887,
      "pin": 8888,
      "tutorial": 8889,
      "mob": 8890,
      "genetic": 8891,
      "figh": 8892,
      "introduce": 8893,
      "Harry": 8894,
      "procedure": 8895,
      "Creat": 8896,
      "CIA": 8897,
      "whel": 8898,
      "republic": 8899,
      "arer": 8900,
      "iders": 8901,
      "excess": 8902,
      "max": 8903,
      "grace": 8904,
      "awards": 8905,
      "142": 8906,
      "surround": 8907,
      "undue": 8908,
      "harrass": 8909,
      "indicated": 8910,
      "drawn": 8911,
      "Club": 8912,
      "footnote": 8913,
      "translated": 8914,
      "Italy": 8915,
      "variety": 8916,
      "attributed": 8917,
      "destroyed": 8918,
      "Afghanistan": 8919,
      "Oxford": 8920,
      "Chicago": 8921,
      "Sk": 8922,
      "stress": 8923,
      "ads": 8924,
      "pool": 8925,
      "plagiar": 8926,
      "viewed": 8927,
      "cheese": 8928,
      "OMIT": 8929,
      "douche": 8930,
      "Plus": 8931,
      "Criticism": 8932,
      "heavily": 8933,
      "BM": 8934,
      "Num": 8935,
      "champion": 8936,
      "depict": 8937,
      "dish": 8938,
      "illustr": 8939,
      "ANS": 8940,
      "mann": 8941,
      "archite": 8942,
      "gger": 8943,
      "Holy": 8944,
      "Leave": 8945,
      "Germans": 8946,
      "effective": 8947,
      "girls": 8948,
      "tiny": 8949,
      "conformance": 8950,
      "A7": 8951,
      "Dark": 8952,
      "GRE": 8953,
      "Lead": 8954,
      "Nick": 8955,
      "bage": 8956,
      "rants": 8957,
      "THER": 8958,
      "decisions": 8959,
      "depth": 8960,
      "nazi": 8961,
      "120": 8962,
      "Bi": 8963,
      "Fun": 8964,
      "Sources": 8965,
      "VOMIT": 8966,
      "iments": 8967,
      "Whatever": 8968,
      "hadn": 8969,
      "construction": 8970,
      "222": 8971,
      "defense": 8972,
      "pending": 8973,
      "improvements": 8974,
      "explanations": 8975,
      "sanction": 8976,
      "Biographies": 8977,
      "spacing": 8978,
      "frankly": 8979,
      "Fal": 8980,
      "sin": 8981,
      "isl": 8982,
      "itz": 8983,
      "itic": 8984,
      "notification": 8985,
      "unrelated": 8986,
      "uding": 8987,
      "Report": 8988,
      "192": 8989,
      "Stand": 8990,
      "kinds": 8991,
      "honor": 8992,
      "Tell": 8993,
      "shock": 8994,
      "consistency": 8995,
      "tables": 8996,
      "collap": 8997,
      "idiots": 8998,
      "Portal": 8999,
      "facilitate": 9000,
      "Mid": 9001,
      "WR": 9002,
      "essay": 9003,
      "advan": 9004,
      "commenting": 9005,
      "childish": 9006,
      "Tele": 9007,
      "spamming": 9008,
      "selected": 9009,
      "printed": 9010,
      "Bish": 9011,
      "CAL": 9012,
      "Log": 9013,
      "Tag": 9014,
      "Whether": 9015,
      "eh": 9016,
      "gate": 9017,
      "gross": 9018,
      "lu": 9019,
      "rout": 9020,
      "hello": 9021,
      "christ": 9022,
      "expression": 9023,
      "span": 9024,
      "sphere": 9025,
      "ief": 9026,
      "SHOULD": 9027,
      "transfer": 9028,
      "Boy": 9029,
      "ABOUT": 9030,
      "biographical": 9031,
      "challenged": 9032,
      "Palestinian": 9033,
      "responsibility": 9034,
      "Vietnam": 9035,
      "Elect": 9036,
      "JUST": 9037,
      "Pur": 9038,
      "RAL": 9039,
      "_for": 9040,
      "btw": 9041,
      "pto": 9042,
      "aling": 9043,
      "esome": 9044,
      "ables": 9045,
      "evin": 9046,
      "195": 9047,
      "typing": 9048,
      "medicine": 9049,
      "venue": 9050,
      "Below": 9051,
      "completed": 9052,
      "Too": 9053,
      "Box": 9054,
      "administration": 9055,
      "pieces": 9056,
      "remaining": 9057,
      "ambiguous": 9058,
      "american": 9059,
      "Civil": 9060,
      "interpreted": 9061,
      "Zion": 9062,
      "sister": 9063,
      "vegg": 9064,
      "iler": 9065,
      "prejud": 9066,
      "offense": 9067,
      "overwhel": 9068,
      "poster": 9069,
      "issued": 9070,
      "solve": 9071,
      "leaders": 9072,
      "association": 9073,
      "KKKK": 9074,
      ".—": 9075,
      "Frequ": 9076,
      "Nic": 9077,
      "Shar": 9078,
      "federal": 9079,
      "jump": 9080,
      "kn": 9081,
      "scan": 9082,
      "sland": 9083,
      "usively": 9084,
      "poly": 9085,
      "outs": 9086,
      "quer": 9087,
      "goals": 9088,
      "app": 9089,
      "Record": 9090,
      "Prob": 9091,
      "charges": 9092,
      "potentially": 9093,
      "concepts": 9094,
      "concernThanks": 9095,
      "ietales": 9096,
      "Henry": 9097,
      "_for_": 9098,
      "veggietales": 9099,
      "Blo": 9100,
      "Rel": 9101,
      "Sik": 9102,
      "pes": 9103,
      "pig": 9104,
      "pack": 9105,
      "uated": 9106,
      "aly": 9107,
      "icans": 9108,
      "guard": 9109,
      "Force": 9110,
      "origins": 9111,
      "Something": 9112,
      "passing": 9113,
      "Bulgarian": 9114,
      "Little": 9115,
      "Azerbai": 9116,
      "Scotland": 9117,
      "Judaism": 9118,
      "ICK": 9119,
      "Ly": 9120,
      "bn": 9121,
      "cab": 9122,
      "font": 9123,
      "jok": 9124,
      "thent": 9125,
      "guitar": 9126,
      "Hell": 9127,
      "earn": 9128,
      "20th": 9129,
      "Asian": 9130,
      "margin": 9131,
      "141": 9132,
      "sockpuppets": 9133,
      "1998": 9134,
      "elections": 9135,
      "declared": 9136,
      "assumption": 9137,
      "inserting": 9138,
      "square": 9139,
      "caption": 9140,
      "citizens": 9141,
      "fictional": 9142,
      "obscure": 9143,
      "End": 9144,
      "ND": 9145,
      "isnt": 9146,
      "alin": 9147,
      "stro": 9148,
      "!!!!!": 9149,
      "spelled": 9150,
      "...)": 9151,
      "bled": 9152,
      "realise": 9153,
      "Comments": 9154,
      "compat": 9155,
      "involving": 9156,
      "runs": 9157,
      "Greeks": 9158,
      "requirement": 9159,
      "constitute": 9160,
      "forums": 9161,
      "Congress": 9162,
      "EVERY": 9163,
      "precisely": 9164,
      "Ele": 9165,
      "Land": 9166,
      "Next": 9167,
      "WER": 9168,
      "euro": 9169,
      "unci": 9170,
      "irt": 9171,
      "ody": 9172,
      "guid": 9173,
      "backed": 9174,
      "Andy": 9175,
      "ISBN": 9176,
      "refused": 9177,
      "122": 9178,
      "WWE": 9179,
      "UNBLOCK": 9180,
      "Marx": 9181,
      "Spain": 9182,
      "CCCC": 9183,
      "Turks": 9184,
      "pretend": 9185,
      "soldiers": 9186,
      "OOOOOOOO": 9187,
      "Window": 9188,
      "minimum": 9189,
      "ancestryFuck": 9190,
      "adopted": 9191,
      "acknowledged": 9192,
      "ASSHOLE": 9193,
      "Champion": 9194,
      "Fort": 9195,
      "Wall": 9196,
      "gers": 9197,
      "causing": 9198,
      "regist": 9199,
      "leges": 9200,
      "founder": 9201,
      "130": 9202,
      "authorities": 9203,
      "AGF": 9204,
      "practices": 9205,
      "planning": 9206,
      "translate": 9207,
      "audio": 9208,
      "threatened": 9209,
      "emphasis": 9210,
      "Slav": 9211,
      "Mexico": 9212,
      "Global": 9213,
      "bab": 9214,
      "ibly": 9215,
      "zon": 9216,
      "rein": 9217,
      "orient": 9218,
      "asha": 9219,
      "grat": 9220,
      "closing": 9221,
      "ONLY": 9222,
      "county": 9223,
      "paraph": 9224,
      "bank": 9225,
      "168": 9226,
      "broke": 9227,
      "govern": 9228,
      "programs": 9229,
      "Institute": 9230,
      "IRC": 9231,
      "licensing": 9232,
      "ordinary": 9233,
      "Albanian": 9234,
      "Georgia": 9235,
      "Miss": 9236,
      "NC": 9237,
      "bles": 9238,
      "cc": 9239,
      "cket": 9240,
      "ufact": 9241,
      "returned": 9242,
      "ache": 9243,
      "!!!!!!!": 9244,
      "obs": 9245,
      "logies": 9246,
      "ips": 9247,
      "approx": 9248,
      "videos": 9249,
      "orders": 9250,
      "dealt": 9251,
      "Angel": 9252,
      "View": 9253,
      "integrity": 9254,
      "Victor": 9255,
      "Company": 9256,
      "Kosovo": 9257,
      "Gam": 9258,
      "Rather": 9259,
      "daughter": 9260,
      "hint": 9261,
      "whe": 9262,
      "aman": 9263,
      "disci": 9264,
      "prime": 9265,
      "Holocaust": 9266,
      "header": 9267,
      "177": 9268,
      "rank": 9269,
      "politically": 9270,
      "Example": 9271,
      "recognition": 9272,
      "Paris": 9273,
      "focused": 9274,
      "anoy": 9275,
      "vehicle": 9276,
      "Much": 9277,
      "NPA": 9278,
      "PIE": 9279,
      "Wat": 9280,
      "fet": 9281,
      "som": 9282,
      "ita": 9283,
      "ension": 9284,
      "root": 9285,
      "dozen": 9286,
      "ami": 9287,
      "gos": 9288,
      "cold": 9289,
      "speaks": 9290,
      "posit": 9291,
      "wanting": 9292,
      "INT": 9293,
      "trip": 9294,
      "174": 9295,
      "crack": 9296,
      "Plan": 9297,
      "calm": 9298,
      "ownership": 9299,
      "Hom": 9300,
      "HERE": 9301,
      "ML": 9302,
      "Sil": 9303,
      "Vill": 9304,
      "fab": 9305,
      "las": 9306,
      "iah": 9307,
      "perial": 9308,
      "obsess": 9309,
      "affair": 9310,
      "vandalising": 9311,
      "chem": 9312,
      "fuckin": 9313,
      "inval": 9314,
      "128": 9315,
      "specul": 9316,
      "survey": 9317,
      "organized": 9318,
      "Spam": 9319,
      "Warning": 9320,
      "Library": 9321,
      "grey": 9322,
      "declined": 9323,
      "reduce": 9324,
      "execut": 9325,
      "Slo": 9326,
      "Squ": 9327,
      "rab": 9328,
      "sac": 9329,
      "uries": 9330,
      "lym": 9331,
      "doctor": 9332,
      "talked": 9333,
      "licker": 9334,
      "misunderstanding": 9335,
      "Uni": 9336,
      "Board": 9337,
      "denied": 9338,
      "nationalist": 9339,
      "Brother": 9340,
      "dropdown": 9341,
      "Micro": 9342,
      "gather": 9343,
      "educated": 9344,
      "Greetings": 9345,
      "performance": 9346,
      "COCKSUCKING": 9347,
      "Links": 9348,
      "Croatia": 9349,
      "modified": 9350,
      "permitted": 9351,
      "Dra": 9352,
      "Down": 9353,
      "Hall": 9354,
      "Pres": 9355,
      "Sto": 9356,
      "crow": 9357,
      "climate": 9358,
      "thin": 9359,
      "doll": 9360,
      "sovere": 9361,
      "terrible": 9362,
      "url": 9363,
      "urge": 9364,
      "legally": 9365,
      "generation": 9366,
      "dynam": 9367,
      "Edits": 9368,
      "antime": 9369,
      "humans": 9370,
      "contrast": 9371,
      "entertain": 9372,
      "announced": 9373,
      "environment": 9374,
      "arrogant": 9375,
      "Frequently": 9376,
      "AE": 9377,
      "Fer": 9378,
      "Gay": 9379,
      "Game": 9380,
      "Ker": 9381,
      "SBS": 9382,
      "rome": 9383,
      "reversion": 9384,
      "dev": 9385,
      "petty": 9386,
      "Reply": 9387,
      "factually": 9388,
      "Nobody": 9389,
      "supply": 9390,
      "BOB": 9391,
      "journals": 9392,
      "COMM": 9393,
      "Wolf": 9394,
      "!\"": 9395,
      "Camp": 9396,
      "NEW": 9397,
      "scr": 9398,
      "insp": 9399,
      "reck": 9400,
      "onian": 9401,
      "ening": 9402,
      "une": 9403,
      "logist": 9404,
      "counts": 9405,
      "director": 9406,
      "ugs": 9407,
      "caste": 9408,
      "Lee": 9409,
      "Neil": 9410,
      "holds": 9411,
      "promoted": 9412,
      "receiving": 9413,
      "Regardless": 9414,
      "wikimedia": 9415,
      "Office": 9416,
      "rollback": 9417,
      "FFFFFF": 9418,
      "Ukrainian": 9419,
      "employe": 9420,
      "Cze": 9421,
      "Dude": 9422,
      "Kat": 9423,
      "kh": 9424,
      "pher": 9425,
      "piss": 9426,
      "spot": 9427,
      "uations": 9428,
      "anarch": 9429,
      "astr": 9430,
      "taught": 9431,
      "207": 9432,
      "aker": 9433,
      "aked": 9434,
      "identical": 9435,
      "Edgar": 9436,
      "profit": 9437,
      "redirected": 9438,
      "Looking": 9439,
      "encouraged": 9440,
      "democracy": 9441,
      "Flor": 9442,
      "Duke": 9443,
      "bian": 9444,
      "zo": 9445,
      "indefinitely": 9446,
      "goslav": 9447,
      "boo": 9448,
      "inton": 9449,
      "190": 9450,
      "partisan": 9451,
      "owns": 9452,
      "centuries": 9453,
      "blah": 9454,
      "mitt": 9455,
      "engaging": 9456,
      "capacity": 9457,
      "Leban": 9458,
      "sorts": 9459,
      "Fucking": 9460,
      "publishing": 9461,
      "amazing": 9462,
      "obtained": 9463,
      "NEVER": 9464,
      "QU": 9465,
      "Tha": 9466,
      "WAL": 9467,
      "bird": 9468,
      "gal": 9469,
      "inf": 9470,
      "tery": 9471,
      "ota": 9472,
      "Chat": 9473,
      "prompt": 9474,
      "plified": 9475,
      "trolls": 9476,
      "newsletter": 9477,
      "protecting": 9478,
      "disagreement": 9479,
      "perior": 9480,
      "conflicts": 9481,
      "convince": 9482,
      "royal": 9483,
      "strike": 9484,
      "sleep": 9485,
      "Windows": 9486,
      "paraphr": 9487,
      "ACT": 9488,
      "Han": 9489,
      "Pac": 9490,
      "Tre": 9491,
      "Tro": 9492,
      "hill": 9493,
      "wis": 9494,
      "inline": 9495,
      "itism": 9496,
      "meantime": 9497,
      "notion": 9498,
      "conce": 9499,
      "liver": 9500,
      "Chan": 9501,
      "worded": 9502,
      "merits": 9503,
      "108": 9504,
      "sheet": 9505,
      "FACT": 9506,
      "solved": 9507,
      "meaningful": 9508,
      "documentation": 9509,
      "settled": 9510,
      "blanking": 9511,
      "Truth": 9512,
      "Cross": 9513,
      "Live": 9514,
      "rage": 9515,
      "wen": 9516,
      "tha": 9517,
      "lli": 9518,
      "rier": 9519,
      "protest": 9520,
      "fell": 9521,
      "apy": 9522,
      "apped": 9523,
      "elabor": 9524,
      "ANISH": 9525,
      "everywhere": 9526,
      "Prov": 9527,
      "gotta": 9528,
      "values": 9529,
      "1991": 9530,
      "humor": 9531,
      "hyper": 9532,
      "falls": 9533,
      "bully": 9534,
      "division": 9535,
      "wikipedians": 9536,
      "phaned": 9537,
      "Creation": 9538,
      "BERT": 9539,
      "prepared": 9540,
      "4th": 9541,
      ";-)": 9542,
      "AF": 9543,
      "Age": 9544,
      "Bab": 9545,
      "Som": 9546,
      "Same": 9547,
      "SAG": 9548,
      "tv": 9549,
      "wat": 9550,
      "ropo": 9551,
      "sie": 9552,
      "opath": 9553,
      "authent": 9554,
      "ava": 9555,
      "approval": 9556,
      "146": 9557,
      "badly": 9558,
      "1990": 9559,
      "figured": 9560,
      "meaningless": 9561,
      "Child": 9562,
      "narrow": 9563,
      "CHEESE": 9564,
      "Gur": 9565,
      "KING": 9566,
      "Mas": 9567,
      "Oct": 9568,
      "kno": 9569,
      "wave": 9570,
      "actors": 9571,
      "Repe": 9572,
      "correction": 9573,
      "118": 9574,
      "manual": 9575,
      "ATOR": 9576,
      "relative": 9577,
      "corrections": 9578,
      "carried": 9579,
      "respective": 9580,
      "Service": 9581,
      "limits": 9582,
      "terminology": 9583,
      "bullying": 9584,
      "Everything": 9585,
      "witness": 9586,
      "solely": 9587,
      "virtually": 9588,
      "drug": 9589,
      "Infobox": 9590,
      "streng": 9591,
      "RI": 9592,
      "Test": 9593,
      "thur": 9594,
      "retired": 9595,
      "river": 9596,
      "unbiased": 9597,
      "immig": 9598,
      "prohibit": 9599,
      "addressing": 9600,
      "tips": 9601,
      "hook": 9602,
      "serves": 9603,
      "overview": 9604,
      "cycle": 9605,
      "correcting": 9606,
      "extended": 9607,
      "judgment": 9608,
      "plane": 9609,
      "drama": 9610,
      "Mongo": 9611,
      "SPANISH": 9612,
      "FAGGOT": 9613,
      "Major": 9614,
      "deeply": 9615,
      "descend": 9616,
      "uguese": 9617,
      "Certain": 9618,
      "Ado": 9619,
      "Give": 9620,
      "Iron": 9621,
      "Max": 9622,
      "Ni": 9623,
      "Pot": 9624,
      "hl": 9625,
      "kit": 9626,
      "ission": 9627,
      "alive": 9628,
      "stain": 9629,
      "liked": 9630,
      "igation": 9631,
      "trick": 9632,
      "angle": 9633,
      "sip": 9634,
      "price": 9635,
      "intervention": 9636,
      "install": 9637,
      "159": 9638,
      "objects": 9639,
      "levels": 9640,
      "analog": 9641,
      "opposing": 9642,
      "subsequent": 9643,
      "aggressive": 9644,
      "During": 9645,
      "Hence": 9646,
      "JIM": 9647,
      "Rick": 9648,
      "dan": 9649,
      "kar": 9650,
      "rie": 9651,
      "seeking": 9652,
      "descent": 9653,
      "regions": 9654,
      "regional": 9655,
      "103": 9656,
      "seconds": 9657,
      "indication": 9658,
      "scen": 9659,
      "fields": 9660,
      "ROBERT": 9661,
      "oooo": 9662,
      "****": 9663,
      "Alexander": 9664,
      "Palestine": 9665,
      "Bradbury": 9666,
      "distinguish": 9667,
      "Neither": 9668,
      "UC": 9669,
      "Writ": 9670,
      "din": 9671,
      "fif": 9672,
      "jar": 9673,
      "rics": 9674,
      "reversions": 9675,
      "acqu": 9676,
      "ading": 9677,
      "riot": 9678,
      "resort": 9679,
      "bollocks": 9680,
      "displayed": 9681,
      "Reference": 9682,
      "manufact": 9683,
      "Ann": 9684,
      "Season": 9685,
      "Online": 9686,
      "delanoy": 9687,
      "garbage": 9688,
      "succeed": 9689,
      "dropped": 9690,
      "straw": 9691,
      "rarely": 9692,
      "Darwin": 9693,
      "adequate": 9694,
      "Facebook": 9695,
      "lazy": 9696,
      "endorse": 9697,
      "ATHE": 9698,
      "Greg": 9699,
      "HD": 9700,
      "Sho": 9701,
      "Water": 9702,
      "fits": 9703,
      "gro": 9704,
      "ios": 9705,
      "mountain": 9706,
      "ental": 9707,
      "memor": 9708,
      "comic": 9709,
      "prus": 9710,
      "19th": 9711,
      "colour": 9712,
      "banning": 9713,
      "UND": 9714,
      "handed": 9715,
      "OME": 9716,
      "weekend": 9717,
      "winning": 9718,
      "enemy": 9719,
      "suspected": 9720,
      "alphabet": 9721,
      "BUSH": 9722,
      ".(": 9723,
      "Langu": 9724,
      "ein": 9725,
      "mud": 9726,
      "keting": 9727,
      "antis": 9728,
      "coo": 9729,
      "derived": 9730,
      "Ref": 9731,
      "Relig": 9732,
      "110": 9733,
      "ggle": 9734,
      "reliability": 9735,
      "effic": 9736,
      "institution": 9737,
      "Books": 9738,
      "representative": 9739,
      "scientist": 9740,
      "speaker": 9741,
      "ULLMANN": 9742,
      "warranted": 9743,
      "SAGET": 9744,
      "Der": 9745,
      "EC": 9746,
      "NS": 9747,
      "Rus": 9748,
      "Rod": 9749,
      "Sel": 9750,
      "fought": 9751,
      "ogue": 9752,
      "thew": 9753,
      "atures": 9754,
      "toe": 9755,
      "acies": 9756,
      "weigh": 9757,
      "outcome": 9758,
      "shif": 9759,
      "logging": 9760,
      "instances": 9761,
      "searching": 9762,
      "visible": 9763,
      "stats": 9764,
      "socks": 9765,
      "patience": 9766,
      "operating": 9767,
      "Arabs": 9768,
      "demonstrated": 9769,
      "folk": 9770,
      "permanently": 9771,
      "Possibly": 9772,
      "Yugoslav": 9773,
      "CENTRAL": 9774,
      "Probably": 9775,
      "PIECE": 9776,
      "ATHEIST": 9777,
      "Mont": 9778,
      "Rog": 9779,
      "TT": 9780,
      "fro": 9781,
      "rhe": 9782,
      "iting": 9783,
      "agg": 9784,
      "contemporary": 9785,
      "outing": 9786,
      "dishonest": 9787,
      "whore": 9788,
      "avo": 9789,
      "109": 9790,
      "interviews": 9791,
      "kinda": 9792,
      "Serbs": 9793,
      "empire": 9794,
      "cleaning": 9795,
      "setting": 9796,
      "expertise": 9797,
      "advantage": 9798,
      "Categ": 9799,
      "Four": 9800,
      "Lic": 9801,
      "Nations": 9802,
      "Pir": 9803,
      "Pash": 9804,
      "Somet": 9805,
      "Word": 9806,
      "assure": 9807,
      "esy": 9808,
      "agno": 9809,
      "discover": 9810,
      "iano": 9811,
      "raising": 9812,
      "Information": 9813,
      "Removed": 9814,
      "114": 9815,
      "ideology": 9816,
      "adminship": 9817,
      "presenting": 9818,
      "descriptions": 9819,
      "......": 9820,
      "shitFuck": 9821,
      "1993": 9822,
      "significantly": 9823,
      "Suggest": 9824,
      "replacement": 9825,
      "joining": 9826,
      "communicate": 9827,
      "heritage": 9828,
      "Bru": 9829,
      "Dam": 9830,
      "Los": 9831,
      "Table": 9832,
      "ien": 9833,
      "revolution": 9834,
      "oral": 9835,
      "esp": 9836,
      "abase": 9837,
[...]
