{
  "version": "1.0",
  "truncation": {
    "direction": "Right",
    "max_length": 128,
    "strategy": "LongestFirst",
    "stride": 0
  },
  "padding": {
    "strategy": {
      "Fixed": 128
    },
    "direction": "Right",
    "pad_to_multiple_of": null,
    "pad_id": 0,
    "pad_type_id": 0,
    "pad_token": "[PAD]"
  },
  "added_tokens": [
    {
      "id": 0,
      "content": "[PAD]",
      "single_word": false,
      "lstrip": false,
      "rstrip": false,
      "normalized": false,
      "special": true
    },
    {
      "id": 1,
      "content": "[UNK]",
      "single_word": false,
      "lstrip": false,
      "rstrip": false,
      "normalized": false,
      "special": true
    },
    {
      "id": 2,
      "content": "[CLS]",
      "single_word": false,
      "lstrip": false,
      "rstrip": false,
      "normalized": false,
      "special": true
    },
    {
      "id": 3,
      "content": "[SEP]",
      "single_word": false,
      "lstrip": false,
      "rstrip": false,
      "normalized": false,
      "special": true
    },
    {
      "id": 4,
      "content": "[MASK]",
      "single_word": false,
      "lstrip": false,
      "rstrip": false,
      "normalized": false,
      "special": true
    }
  ],
  "normalizer": {
    "type": "BertNormalizer",
    "clean_text": true,
    "handle_chinese_chars": true,
    "strip_accents": null,
    "lowercase": true
  },
  "pre_tokenizer": {
    "type": "BertPreTokenizer"
  },
  "post_processor": {
    "type": "TemplateProcessing",
    "single": [
      {
        "SpecialToken": {
          "id": "[CLS]",
          "type_id": 0
        }
      },
      {
        "Sequence": {
          "id": "A",
          "type_id": 0
        }
      },
      {
        "SpecialToken": {
          "id": "[SEP]",
          "type_id": 0
        }
      }
    ],
    "pair": [
      {
        "SpecialToken": {
          "id": "[CLS]",
          "type_id": 0
        }
      },
      {
        "Sequence": {
          "id": "A",
          "type_id": 0
        }
      },
      {
        "SpecialToken": {
          "id": "[SEP]",
          "type_id": 0
        }
      },
      {
        "Sequence": {
          "id": "B",
          "type_id": 1
        }
      },
      {
        "SpecialToken": {
          "id": "[SEP]",
          "type_id": 1
        }
      }
    ],
    "special_tokens": {
      "[CLS]": {
        "id": "[CLS]",
        "ids": [
          2
        ],
        "tokens": [
          "[CLS]"
        ]
      },
      "[SEP]": {
        "id": "[SEP]",
        "ids": [
          3
        ],
        "tokens": [
          "[SEP]"
        ]
      }
    }
  },
  "decoder": {
    "type": "WordPiece",
    "prefix": "##",
    "cleanup": true
  },
  "model": {
    "type": "WordPiece",
    "unk_token": "[UNK]",
    "continuing_subword_prefix": "##",
    "max_input_chars_per_word": 100,
    "vocab": {
      "[PAD]": 0,
      "[UNK]": 1,
      "[CLS]": 2,
      "[SEP]": 3,
      "[MASK]": 4,
      "!": 5,
      "\"": 6,
      "#": 7,
      "$": 8,
      "%": 9,
      "&": 10,
      "'": 11,
      "(": 12,
      ")": 13,
      "*": 14,
      "+": 15,
      ",": 16,
      "-": 17,
      ".": 18,
      "/": 19,
      "0": 20,
      "1": 21,
      "2": 22,
      "3": 23,
      "4": 24,
      "5": 25,
      "6": 26,
      "7": 27,
      "8": 28,
      "9": 29,
      ":": 30,
      ";": 31,
      "<": 32,
      "=": 33,
      ">": 34,
      "?": 35,
      "@": 36,
      "[": 37,
      "\\": 38,
      "]": 39,
      "^": 40,
      "_": 41,
      "`": 42,
      "a": 43,
      "b": 44,
      "c": 45,
      "d": 46,
      "e": 47,
      "f": 48,
      "g": 49,
      "h": 50,
      "i": 51,
      "j": 52,
      "k": 53,
      "l": 54,
      "m": 55,
      "n": 56,
      "o": 57,
      "p": 58,
      "q": 59,
      "r": 60,
      "s": 61,
      "t": 62,
      "u": 63,
      "v": 64,
      "w": 65,
      "x": 66,
      "y": 67,
      "z": 68,
      "{": 69,
      "|": 70,
      "}": 71,
      "~": 72,
      "¡": 73,
      "¢": 74,
      "£": 75,
      "¤": 76,
      "¥": 77,
      "¦": 78,
      "§": 79,
      "¨": 80,
      "©": 81,
      "ª": 82,
      "«": 83,
      "¬": 84,
      "®": 85,
      "¯": 86,
      "°": 87,
      "±": 88,
      "²": 89,
      "³": 90,
      "´": 91,
      "µ": 92,
      "¶": 93,
      "·": 94,
      "¸": 95,
      "¹": 96,
      "º": 97,
      "»": 98,
      "¼": 99,
      "½": 100,
      "¾": 101,
      "¿": 102,
      "×": 103,
      "ß": 104,
      "æ": 105,
      "ð": 106,
      "÷": 107,
      "ø": 108,
      "þ": 109,
      "đ": 110,
      "ħ": 111,
      "ı": 112,
      "ŀ": 113,
      "ł": 114,
      "ŋ": 115,
      "œ": 116,
      "ŧ": 117,
      "ſ": 118,
      "ƒ": 119,
      "ƭ": 120,
      "ǀ": 121,
      "ǁ": 122,
      "ǂ": 123,
      "ǃ": 124,
      "ǌ": 125,
      "ǝ": 126,
      "ɐ": 127,
      "ɑ": 128,
      "ɒ": 129,
      "ɓ": 130,
      "ɔ": 131,
      "ɕ": 132,
      "ɖ": 133,
      "ɗ": 134,
      "ɘ": 135,
      "ə": 136,
      "ɚ": 137,
      "ɛ": 138,
      "ɜ": 139,
      "ɝ": 140,
      "ɞ": 141,
      "ɟ": 142,
      "ɠ": 143,
      "ɡ": 144,
      "ɢ": 145,
      "ɣ": 146,
      "ɤ": 147,
      "ɥ": 148,
      "ɦ": 149,
      "ɧ": 150,
      "ɨ": 151,
      "ɪ": 152,
      "ɫ": 153,
      "ɬ": 154,
      "ɭ": 155,
      "ɮ": 156,
      "ɯ": 157,
      "ɰ": 158,
      "ɱ": 159,
      "ɲ": 160,
      "ɳ": 161,
      "ɴ": 162,
      "ɵ": 163,
      "ɶ": 164,
      "ɸ": 165,
      "ɹ": 166,
      "ɺ": 167,
      "ɻ": 168,
      "ɽ": 169,
      "ɾ": 170,
      "ɿ": 171,
      "ʀ": 172,
      "ʁ": 173,
      "ʂ": 174,
      "ʃ": 175,
      "ʄ": 176,
      "ʇ": 177,
      "ʈ": 178,
      "ʉ": 179,
      "ʊ": 180,
      "ʋ": 181,
      "ʌ": 182,
      "ʍ": 183,
      "ʎ": 184,
      "ʏ": 185,
      "ʐ": 186,
      "ʑ": 187,
      "ʒ": 188,
      "ʔ": 189,
      "ʕ": 190,
      "ʘ": 191,
      "ʙ": 192,
      "ʛ": 193,
      "ʜ": 194,
      "ʝ": 195,
      "ʞ": 196,
      "ʟ": 197,
      "ʡ": 198,
      "ʢ": 199,
      "ʧ": 200,
      "ʨ": 201,
      "ʰ": 202,
      "ʲ": 203,
      "ʷ": 204,
      "ʻ": 205,
      "ʼ": 206,
      "ʾ": 207,
      "ʿ": 208,
      "ˀ": 209,
      "ˁ": 210,
      "ˈ": 211,
      "ˉ": 212,
      "ˌ": 213,
      "ː": 214,
      "ˑ": 215,
      "˜": 216,
      "ˠ": 217,
      "ˡ": 218,
      "ˢ": 219,
      "ˤ": 220,
      "ͱ": 221,
      "ͳ": 222,
      "ͼ": 223,
      "α": 224,
      "β": 225,
      "γ": 226,
      "δ": 227,
      "ε": 228,
      "ζ": 229,
      "η": 230,
      "θ": 231,
      "ι": 232,
      "κ": 233,
      "λ": 234,
      "μ": 235,
      "ν": 236,
      "ξ": 237,
      "ο": 238,
      "π": 239,
      "ρ": 240,
      "ς": 241,
      "σ": 242,
      "τ": 243,
      "υ": 244,
      "φ": 245,
      "χ": 246,
      "ψ": 247,
      "ω": 248,
      "ϛ": 249,
      "ϝ": 250,
      "ϟ": 251,
      "ϸ": 252,
      "ϻ": 253,
      "а": 254,
      "б": 255,
      "в": 256,
      "г": 257,
      "д": 258,
      "е": 259,
      "ж": 260,
      "з": 261,
      "и": 262,
      "к": 263,
      "л": 264,
      "м": 265,
      "н": 266,
      "о": 267,
      "п": 268,
      "р": 269,
      "с": 270,
      "т": 271,
      "у": 272,
      "ф": 273,
      "х": 274,
      "ц": 275,
      "ч": 276,
      "ш": 277,
      "щ": 278,
      "ъ": 279,
      "ы": 280,
      "ь": 281,
      "э": 282,
      "ю": 283,
      "я": 284,
      "ђ": 285,
      "є": 286,
      "ѕ": 287,
      "і": 288,
      "ј": 289,
      "љ": 290,
      "њ": 291,
      "ћ": 292,
      "џ": 293,
      "҈": 294,
      "҉": 295,
      "ґ": 296,
      "ҝ": 297,
      "ү": 298,
      "ա": 299,
      "գ": 300,
      "թ": 301,
      "ի": 302,
      "ճ": 303,
      "մ": 304,
      "յ": 305,
      "ն": 306,
      "շ": 307,
      "ո": 308,
      "ր": 309,
      "ւ": 310,
      "׀": 311,
      "א": 312,
      "ב": 313,
      "ג": 314,
      "ד": 315,
      "ה": 316,
      "ו": 317,
      "ז": 318,
      "ח": 319,
      "ט": 320,
      "י": 321,
      "ך": 322,
      "כ": 323,
      "ל": 324,
      "ם": 325,
      "מ": 326,
      "ן": 327,
      "נ": 328,
      "ס": 329,
      "ע": 330,
      "פ": 331,
      "ץ": 332,
      "צ": 333,
      "ק": 334,
      "ר": 335,
      "ש": 336,
      "ת": 337,
      "״": 338,
      "،": 339,
      "ء": 340,
      "ا": 341,
      "ب": 342,
      "ة": 343,
      "ت": 344,
      "ث": 345,
      "ج": 346,
      "ح": 347,
      "خ": 348,
      "د": 349,
      "ذ": 350,
      "ر": 351,
      "ز": 352,
      "س": 353,
      "ش": 354,
      "ص": 355,
      "ض": 356,
      "ط": 357,
      "ظ": 358,
      "ع": 359,
      "غ": 360,
      "ف": 361,
      "ق": 362,
      "ك": 363,
      "ل": 364,
      "م": 365,
      "ن": 366,
      "ه": 367,
      "و": 368,
      "ى": 369,
      "ي": 370,
      "پ": 371,
      "چ": 372,
      "ڜ": 373,
      "ک": 374,
      "ڬ": 375,
      "گ": 376,
      "ڰ": 377,
      "ڵ": 378,
      "ہ": 379,
      "ی": 380,
      "۞": 381,
      "۩": 382,
      "۵": 383,
      "۸": 384,
      "ۻ": 385,
      "۾": 386,
      "ݓ": 387,
      "ݗ": 388,
      "ݜ": 389,
      "ݟ": 390,
      "ݡ": 391,
      "ݣ": 392,
      "ݭ": 393,
      "߷": 394,
      "अ": 395,
      "आ": 396,
      "इ": 397,
      "ऋ": 398,
      "औ": 399,
      "क": 400,
      "ख": 401,
      "ग": 402,
      "घ": 403,
      "च": 404,
      "ज": 405,
      "ट": 406,
      "ठ": 407,
      "ड": 408,
      "ण": 409,
      "त": 410,
      "थ": 411,
      "द": 412,
      "ध": 413,
      "न": 414,
      "प": 415,
      "फ": 416,
      "ब": 417,
      "भ": 418,
      "म": 419,
      "य": 420,
      "र": 421,
      "ल": 422,
      "व": 423,
      "श": 424,
      "ष": 425,
      "स": 426,
      "ह": 427,
      "ा": 428,
      "ि": 429,
      "ी": 430,
      "ॉ": 431,
      "ो": 432,
      "ॐ": 433,
      "०": 434,
      "१": 435,
      "२": 436,
      "३": 437,
      "४": 438,
      "५": 439,
      "६": 440,
      "७": 441,
      "८": 442,
      "९": 443,
      "ং": 444,
      "অ": 445,
      "ই": 446,
      "ক": 447,
      "জ": 448,
      "ট": 449,
      "ত": 450,
      "দ": 451,
      "ন": 452,
      "ব": 453,
      "ভ": 454,
      "ম": 455,
      "য": 456,
      "র": 457,
      "ল": 458,
      "স": 459,
      "হ": 460,
      "া": 461,
      "ি": 462,
      "ে": 463,
      "ৗ": 464,
      "০": 465,
      "১": 466,
      "২": 467,
      "৳": 468,
      "ਖ": 469,
      "ਜ": 470,
      "ਨ": 471,
      "ਫ": 472,
      "ਮ": 473,
      "ਰ": 474,
      "ਸ": 475,
      "ਾ": 476,
      "੭": 477,
      "અ": 478,
      "દ": 479,
      "ન": 480,
      "વ": 481,
      "ા": 482,
      "୯": 483,
      "அ": 484,
      "ஆ": 485,
      "இ": 486,
      "உ": 487,
      "எ": 488,
      "ஒ": 489,
      "க": 490,
      "ங": 491,
      "ச": 492,
      "ஜ": 493,
      "ட": 494,
      "ண": 495,
      "த": 496,
      "ந": 497,
      "ன": 498,
      "ப": 499,
      "ம": 500,
      "ய": 501,
      "ர": 502,
      "ற": 503,
      "ல": 504,
      "ள": 505,
      "ழ": 506,
      "வ": 507,
      "ா": 508,
      "ி": 509,
      "ு": 510,
      "ெ": 511,
      "ே": 512,
      "ை": 513,
      "௹": 514,
      "అ": 515,
      "ద": 516,
      "న": 517,
      "వ": 518,
      "ు": 519,
      "ಅ": 520,
      "ಠ": 521,
      "ದ": 522,
      "ನ": 523,
      "ವ": 524,
      "ಾ": 525,
      "ು": 526,
      "ം": 527,
      "ക": 528,
      "ട": 529,
      "ദ": 530,
      "മ": 531,
      "ര": 532,
      "വ": 533,
      "സ": 534,
      "ാ": 535,
      "െ": 536,
      "േ": 537,
      "ක": 538,
      "ත": 539,
      "ඳ": 540,
      "ර": 541,
      "ව": 542,
      "ก": 543,
      "ป": 544,
      "ร": 545,
      "ล": 546,
      "า": 547,
      "฿": 548,
      "แ": 549,
      "๛": 550,
      "ກ": 551,
      "ຄ": 552,
      "ງ": 553,
      "ຈ": 554,
      "ຊ": 555,
      "ດ": 556,
      "ຕ": 557,
      "ທ": 558,
      "ນ": 559,
      "ປ": 560,
      "ພ": 561,
      "ມ": 562,
      "ຣ": 563,
      "ລ": 564,
      "ວ": 565,
      "ສ": 566,
      "ຫ": 567,
      "ອ": 568,
      "ຮ": 569,
      "ະ": 570,
      "າ": 571,
      "ແ": 572,
      "ໂ": 573,
      "ໄ": 574,
      "ໜ": 575,
      "༆": 576,
      "࿓": 577,
      "ა": 578,
      "გ": 579,
      "ე": 580,
      "ვ": 581,
      "თ": 582,
      "ი": 583,
      "ლ": 584,
      "მ": 585,
      "ნ": 586,
      "ო": 587,
      "პ": 588,
      "რ": 589,
      "ს": 590,
      "ფ": 591,
      "ღ": 592,
      "ხ": 593,
      "ჷ": 594,
      "ᄀ": 595,
      "ᄂ": 596,
      "ᄃ": 597,
      "ᄄ": 598,
      "ᄅ": 599,
      "ᄆ": 600,
      "ᄇ": 601,
      "ᄈ": 602,
      "ᄉ": 603,
      "ᄋ": 604,
      "ᄌ": 605,
      "ᄍ": 606,
      "ᄎ": 607,
      "ᄐ": 608,
      "ᄑ": 609,
      "ᄒ": 610,
      "ᅡ": 611,
      "ᅢ": 612,
      "ᅣ": 613,
      "ᅥ": 614,
      "ᅧ": 615,
      "ᅩ": 616,
      "ᅭ": 617,
      "ᅮ": 618,
      "ᅲ": 619,
      "ᅳ": 620,
      "ᅴ": 621,
      "ᅵ": 622,
      "ᆨ": 623,
      "ᆫ": 624,
      "ᆮ": 625,
      "ᆯ": 626,
      "ᆷ": 627,
      "ᆸ": 628,
      "ᆺ": 629,
      "ᆻ": 630,
      "ᆼ": 631,
      "ት": 632,
      "ው": 633,
      "ይ": 634,
      "ᛏ": 635,
      "ក": 636,
      "ប": 637,
      "រ": 638,
      "ែ": 639,
      "៛": 640,
      "᧾": 641,
      "ᴀ": 642,
      "ᴥ": 643,
      "ᴬ": 644,
      "ᴷ": 645,
      "ᴸ": 646,
      "ᵀ": 647,
      "ᵃ": 648,
      "ᵏ": 649,
      "ᵗ": 650,
      "ᵮ": 651,
      "ᵽ": 652,
      "ᶏ": 653,
      "‐": 654,
      "‑": 655,
      "‒": 656,
      "–": 657,
      "—": 658,
      "―": 659,
      "‖": 660,
      "‘": 661,
      "’": 662,
      "“": 663,
      "”": 664,
      "„": 665,
      "†": 666,
      "‡": 667,
      "•": 668,
      "…": 669,
      "‧": 670,
      "′": 671,
      "″": 672,
      "‹": 673,
      "›": 674,
      "‽": 675,
      "‿": 676,
      "⁂": 677,
      "⁄": 678,
      "⁞": 679,
      "⁰": 680,
      "⁴": 681,
      "⁽": 682,
      "⁾": 683,
      "ⁿ": 684,
      "₂": 685,
      "₠": 686,
      "₡": 687,
      "₢": 688,
      "₣": 689,
      "₤": 690,
      "₥": 691,
      "₦": 692,
      "₧": 693,
      "₨": 694,
      "₩": 695,
      "₪": 696,
      "₫": 697,
      "€": 698,
      "₭": 699,
      "₮": 700,
      "₯": 701,
      "₰": 702,
      "₳": 703,
      "₴": 704,
      "₵": 705,
      "№": 706,
      "ℚ": 707,
      "℠": 708,
      "™": 709,
      "℥": 710,
      "ℱ": 711,
      "ℳ": 712,
      "ⅎ": 713,
      "⅓": 714,
      "⅔": 715,
      "⅛": 716,
      "⅜": 717,
      "⅝": 718,
      "⅞": 719,
      "ↄ": 720,
      "←": 721,
      "↑": 722,
      "→": 723,
      "↓": 724,
      "↔": 725,
      "↕": 726,
      "↗": 727,
      "↨": 728,
      "⇄": 729,
      "⇒": 730,
      "⇔": 731,
      "⇝": 732,
      "∀": 733,
      "∂": 734,
      "∅": 735,
      "∆": 736,
      "∇": 737,
      "∈": 738,
      "∑": 739,
      "−": 740,
      "∗": 741,
      "∙": 742,
      "√": 743,
      "∞": 744,
      "∧": 745,
      "∪": 746,
      "∫": 747,
      "∴": 748,
      "≈": 749,
      "≡": 750,
      "≤": 751,
      "≥": 752,
      "≼": 753,
      "≽": 754,
      "⊂": 755,
      "⊕": 756,
      "⊗": 757,
      "⊙": 758,
      "⊝": 759,
      "⊥": 760,
      "⋅": 761,
      "ⓐ": 762,
      "ⓣ": 763,
      "─": 764,
      "━": 765,
      "│": 766,
      "┃": 767,
      "┌": 768,
      "┏": 769,
      "┐": 770,
      "┓": 771,
      "└": 772,
      "┗": 773,
      "┘": 774,
      "┛": 775,
      "├": 776,
      "═": 777,
      "║": 778,
      "╔": 779,
      "╗": 780,
      "╚": 781,
      "╝": 782,
      "╟": 783,
      "╢": 784,
      "╦": 785,
      "╩": 786,
      "╫": 787,
      "█": 788,
      "▎": 789,
      "■": 790,
      "▪": 791,
      "▫": 792,
      "▲": 793,
      "△": 794,
      "▶": 795,
      "►": 796,
      "▾": 797,
      "◀": 798,
      "◁": 799,
      "◄": 800,
      "◅": 801,
      "○": 802,
      "●": 803,
      "◕": 804,
      "◥": 805,
      "◦": 806,
      "◯": 807,
      "☀": 808,
      "☃": 809,
      "☄": 810,
      "★": 811,
      "☆": 812,
      "☇": 813,
      "☎": 814,
      "☏": 815,
      "☑": 816,
      "☓": 817,
      "☘": 818,
      "☛": 819,
      "☜": 820,
      "☝": 821,
      "☞": 822,
      "☠": 823,
      "☣": 824,
      "☤": 825,
      "☥": 826,
      "☭": 827,
      "☮": 828,
      "☯": 829,
      "☸": 830,
      "☺": 831,
      "☻": 832,
      "☼": 833,
      "☽": 834,
      "☾": 835,
      "☿": 836,
      "♀": 837,
      "♂": 838,
      "♔": 839,
      "♚": 840,
      "♝": 841,
      "♠": 842,
      "♣": 843,
      "♥": 844,
      "♦": 845,
      "♨": 846,
      "♩": 847,
      "♪": 848,
      "♫": 849,
      "♬": 850,
      "⚇": 851,
      "⚔": 852,
      "✄": 853,
      "✆": 854,
      "✈": 855,
      "✉": 856,
      "✋": 857,
      "✌": 858,
      "✍": 859,
      "✎": 860,
      "✐": 861,
      "✒": 862,
      "✓": 863,
      "✔": 864,
      "✗": 865,
      "✘": 866,
      "✞": 867,
      "✤": 868,
      "✫": 869,
      "✭": 870,
      "✰": 871,
      "✽": 872,
      "❉": 873,
      "❝": 874,
      "❞": 875,
      "❤": 876,
      "➔": 877,
      "➜": 878,
      "➥": 879,
      "➨": 880,
      "➪": 881,
      "⟨": 882,
      "⟩": 883,
      "⟲": 884,
      "ⱷ": 885,
      "ⲟ": 886,
      "ⲧ": 887,
      "ⲩ": 888,
      "ⲱ": 889,
      "、": 890,
      "。": 891,
      "〈": 892,
      "《": 893,
      "》": 894,
      "「": 895,
      "」": 896,
      "『": 897,
      "』": 898,
      "【": 899,
      "】": 900,
      "あ": 901,
      "い": 902,
      "う": 903,
      "え": 904,
      "お": 905,
      "か": 906,
      "き": 907,
      "く": 908,
      "け": 909,
      "こ": 910,
      "さ": 911,
      "し": 912,
      "す": 913,
      "せ": 914,
      "そ": 915,
      "た": 916,
      "ち": 917,
      "っ": 918,
      "つ": 919,
      "て": 920,
      "と": 921,
      "な": 922,
      "に": 923,
      "ぬ": 924,
      "ね": 925,
      "の": 926,
      "は": 927,
      "ひ": 928,
      "ふ": 929,
      "へ": 930,
      "ほ": 931,
      "ま": 932,
      "み": 933,
      "め": 934,
      "も": 935,
      "ゃ": 936,
      "や": 937,
      "ゅ": 938,
      "ょ": 939,
      "よ": 940,
      "ら": 941,
      "り": 942,
      "る": 943,
      "れ": 944,
      "ろ": 945,
      "わ": 946,
      "を": 947,
      "ん": 948,
      "ァ": 949,
      "ア": 950,
      "ィ": 951,
      "イ": 952,
      "ウ": 953,
      "ェ": 954,
      "エ": 955,
      "オ": 956,
      "カ": 957,
      "キ": 958,
      "ク": 959,
      "ケ": 960,
      "コ": 961,
      "サ": 962,
      "シ": 963,
      "ス": 964,
      "セ": 965,
      "ソ": 966,
      "タ": 967,
      "チ": 968,
      "ッ": 969,
      "ツ": 970,
      "テ": 971,
      "ト": 972,
      "ナ": 973,
      "ニ": 974,
      "ヌ": 975,
      "ノ": 976,
      "ハ": 977,
      "ヒ": 978,
      "フ": 979,
      "ヘ": 980,
      "ホ": 981,
      "マ": 982,
      "ム": 983,
      "メ": 984,
      "モ": 985,
      "ャ": 986,
      "ュ": 987,
      "ョ": 988,
      "ラ": 989,
      "リ": 990,
      "ル": 991,
      "レ": 992,
      "ロ": 993,
      "ヮ": 994,
      "ワ": 995,
      "ン": 996,
      "・": 997,
      "ー": 998,
      "ヽ": 999,
      "ㄉ": 1000,
      "ㄏ": 1001,
      "ㄤ": 1002,
      "ㄧ": 1003,
      "ㄨ": 1004,
      "ㄷ": 1005,
      "ㅂ": 1006,
      "ㅅ": 1007,
      "㊟": 1008,
      "㎥": 1009,
      "一": 1010,
      "万": 1011,
      "丈": 1012,
      "三": 1013,
      "上": 1014,
      "下": 1015,
      "不": 1016,
      "世": 1017,
      "东": 1018,
      "並": 1019,
      "个": 1020,
      "中": 1021,
      "主": 1022,
      "么": 1023,
      "乐": 1024,
      "乙": 1025,
      "九": 1026,
      "也": 1027,
      "了": 1028,
      "事": 1029,
      "二": 1030,
      "井": 1031,
      "亞": 1032,
      "京": 1033,
      "人": 1034,
      "什": 1035,
      "今": 1036,
      "介": 1037,
      "他": 1038,
      "付": 1039,
      "仙": 1040,
      "代": 1041,
      "令": 1042,
      "以": 1043,
      "仮": 1044,
      "会": 1045,
      "伝": 1046,
      "但": 1047,
      "位": 1048,
      "佐": 1049,
      "体": 1050,
      "你": 1051,
      "佩": 1052,
      "使": 1053,
      "來": 1054,
      "例": 1055,
      "便": 1056,
      "係": 1057,
      "信": 1058,
      "們": 1059,
      "倒": 1060,
      "偏": 1061,
      "做": 1062,
      "健": 1063,
      "傳": 1064,
      "僑": 1065,
      "儀": 1066,
      "先": 1067,
      "內": 1068,
      "八": 1069,
      "公": 1070,
      "共": 1071,
      "兵": 1072,
      "典": 1073,
      "兼": 1074,
      "内": 1075,
      "冒": 1076,
      "写": 1077,
      "出": 1078,
      "列": 1079,
      "初": 1080,
      "別": 1081,
      "利": 1082,
      "到": 1083,
      "制": 1084,
      "前": 1085,
      "副": 1086,
      "劇": 1087,
      "劉": 1088,
      "加": 1089,
      "助": 1090,
      "務": 1091,
      "包": 1092,
      "北": 1093,
      "区": 1094,
      "十": 1095,
      "千": 1096,
      "卋": 1097,
      "卐": 1098,
      "南": 1099,
      "即": 1100,
      "卷": 1101,
      "卻": 1102,
      "历": 1103,
      "原": 1104,
      "參": 1105,
      "反": 1106,
      "古": 1107,
      "句": 1108,
      "只": 1109,
      "可": 1110,
      "台": 1111,
      "史": 1112,
      "号": 1113,
      "合": 1114,
      "吉": 1115,
      "同": 1116,
      "后": 1117,
      "吕": 1118,
      "吗": 1119,
      "君": 1120,
      "吳": 1121,
      "味": 1122,
      "命": 1123,
      "和": 1124,
      "咨": 1125,
      "啥": 1126,
      "啼": 1127,
      "喷": 1128,
      "嗎": 1129,
      "器": 1130,
      "四": 1131,
      "因": 1132,
      "国": 1133,
      "國": 1134,
      "圍": 1135,
      "土": 1136,
      "在": 1137,
      "地": 1138,
      "坊": 1139,
      "坡": 1140,
      "執": 1141,
      "基": 1142,
      "場": 1143,
      "堵": 1144,
      "塩": 1145,
      "声": 1146,
      "壹": 1147,
      "変": 1148,
      "外": 1149,
      "夜": 1150,
      "大": 1151,
      "天": 1152,
      "太": 1153,
      "女": 1154,
      "好": 1155,
      "妈": 1156,
      "姓": 1157,
      "姻": 1158,
      "威": 1159,
      "子": 1160,
      "字": 1161,
      "学": 1162,
      "孫": 1163,
      "學": 1164,
      "守": 1165,
      "安": 1166,
      "宕": 1167,
      "官": 1168,
      "定": 1169,
      "客": 1170,
      "家": 1171,
      "容": 1172,
      "實": 1173,
      "寧": 1174,
      "对": 1175,
      "対": 1176,
      "專": 1177,
      "少": 1178,
      "就": 1179,
      "尻": 1180,
      "屌": 1181,
      "山": 1182,
      "岡": 1183,
      "岩": 1184,
      "島": 1185,
      "川": 1186,
      "己": 1187,
      "已": 1188,
      "巾": 1189,
      "市": 1190,
      "布": 1191,
      "帝": 1192,
      "師": 1193,
      "干": 1194,
      "平": 1195,
      "年": 1196,
      "庄": 1197,
      "府": 1198,
      "度": 1199,
      "廣": 1200,
      "张": 1201,
      "影": 1202,
      "很": 1203,
      "後": 1204,
      "御": 1205,
      "心": 1206,
      "忍": 1207,
      "志": 1208,
      "快": 1209,
      "思": 1210,
      "总": 1211,
      "恵": 1212,
      "您": 1213,
      "情": 1214,
      "惑": 1215,
      "意": 1216,
      "愛": 1217,
      "感": 1218,
      "慕": 1219,
      "慧": 1220,
      "憲": 1221,
      "成": 1222,
      "我": 1223,
      "或": 1224,
      "戸": 1225,
      "所": 1226,
      "手": 1227,
      "承": 1228,
      "投": 1229,
      "抗": 1230,
      "折": 1231,
      "拉": 1232,
      "括": 1233,
      "指": 1234,
      "捏": 1235,
      "援": 1236,
      "搏": 1237,
      "撃": 1238,
      "撰": 1239,
      "擲": 1240,
      "改": 1241,
      "攻": 1242,
      "政": 1243,
      "故": 1244,
      "敏": 1245,
      "文": 1246,
      "断": 1247,
      "新": 1248,
      "方": 1249,
      "於": 1250,
      "既": 1251,
      "日": 1252,
      "早": 1253,
      "旭": 1254,
      "明": 1255,
      "是": 1256,
      "時": 1257,
      "普": 1258,
      "景": 1259,
      "智": 1260,
      "書": 1261,
      "最": 1262,
      "月": 1263,
      "有": 1264,
      "服": 1265,
      "朝": 1266,
      "期": 1267,
      "未": 1268,
      "本": 1269,
      "朱": 1270,
      "村": 1271,
      "東": 1272,
      "松": 1273,
      "林": 1274,
      "柜": 1275,
      "柱": 1276,
      "柳": 1277,
      "栗": 1278,
      "校": 1279,
      "格": 1280,
      "桔": 1281,
      "桜": 1282,
      "梨": 1283,
      "楊": 1284,
      "楩": 1285,
      "橘": 1286,
      "次": 1287,
      "歡": 1288,
      "止": 1289,
      "步": 1290,
      "武": 1291,
      "母": 1292,
      "氏": 1293,
      "民": 1294,
      "水": 1295,
      "永": 1296,
      "求": 1297,
      "汉": 1298,
      "江": 1299,
      "決": 1300,
      "沖": 1301,
      "沪": 1302,
      "河": 1303,
      "油": 1304,
      "治": 1305,
      "法": 1306,
      "泛": 1307,
      "波": 1308,
      "泥": 1309,
      "注": 1310,
      "洛": 1311,
      "洪": 1312,
      "洲": 1313,
      "活": 1314,
      "浦": 1315,
      "海": 1316,
      "清": 1317,
      "済": 1318,
      "渡": 1319,
      "湖": 1320,
      "準": 1321,
      "溪": 1322,
      "满": 1323,
      "滬": 1324,
      "演": 1325,
      "漢": 1326,
      "澄": 1327,
      "濟": 1328,
      "瀾": 1329,
      "灣": 1330,
      "火": 1331,
      "為": 1332,
      "烂": 1333,
      "焉": 1334,
      "然": 1335,
      "照": 1336,
      "熊": 1337,
      "爽": 1338,
      "版": 1339,
      "牛": 1340,
      "牝": 1341,
      "牡": 1342,
      "物": 1343,
      "特": 1344,
      "犬": 1345,
      "独": 1346,
      "猛": 1347,
      "猫": 1348,
      "獨": 1349,
      "王": 1350,
      "珊": 1351,
      "班": 1352,
      "現": 1353,
      "球": 1354,
      "琉": 1355,
      "瑚": 1356,
      "生": 1357,
      "用": 1358,
      "田": 1359,
      "甲": 1360,
      "町": 1361,
      "界": 1362,
      "番": 1363,
      "疆": 1364,
      "疋": 1365,
      "登": 1366,
      "白": 1367,
      "百": 1368,
      "的": 1369,
      "益": 1370,
      "盒": 1371,
      "目": 1372,
      "省": 1373,
      "真": 1374,
      "督": 1375,
      "知": 1376,
      "石": 1377,
      "砂": 1378,
      "祖": 1379,
      "祝": 1380,
      "神": 1381,
      "福": 1382,
      "科": 1383,
      "稱": 1384,
      "稿": 1385,
      "穣": 1386,
      "窣": 1387,
      "立": 1388,
      "站": 1389,
      "竜": 1390,
      "竹": 1391,
      "笑": 1392,
      "筆": 1393,
      "粵": 1394,
      "粿": 1395,
      "紅": 1396,
      "純": 1397,
      "紙": 1398,
      "素": 1399,
      "紫": 1400,
      "終": 1401,
      "組": 1402,
      "絡": 1403,
      "統": 1404,
      "継": 1405,
      "維": 1406,
      "緣": 1407,
      "編": 1408,
      "縄": 1409,
      "縣": 1410,
      "織": 1411,
      "绍": 1412,
      "缎": 1413,
      "网": 1414,
      "置": 1415,
      "羊": 1416,
      "美": 1417,
      "義": 1418,
      "翁": 1419,
      "翻": 1420,
      "翼": 1421,
      "老": 1422,
      "者": 1423,
      "而": 1424,
      "聖": 1425,
      "聯": 1426,
      "職": 1427,
      "胜": 1428,
      "臧": 1429,
      "自": 1430,
      "臭": 1431,
      "臺": 1432,
      "臼": 1433,
      "航": 1434,
      "船": 1435,
      "良": 1436,
      "芜": 1437,
      "若": 1438,
      "英": 1439,
      "范": 1440,
      "草": 1441,
      "莱": 1442,
      "華": 1443,
      "蒙": 1444,
      "薬": 1445,
      "藏": 1446,
      "藩": 1447,
      "蘭": 1448,
      "蝴": 1449,
      "蝶": 1450,
      "血": 1451,
      "行": 1452,
      "術": 1453,
      "衛": 1454,
      "表": 1455,
      "袁": 1456,
      "被": 1457,
      "製": 1458,
      "西": 1459,
      "要": 1460,
      "見": 1461,
      "視": 1462,
      "言": 1463,
      "討": 1464,
      "記": 1465,
      "訣": 1466,
      "訪": 1467,
      "訳": 1468,
      "詠": 1469,
      "話": 1470,
      "認": 1471,
      "語": 1472,
      "說": 1473,
      "調": 1474,
      "論": 1475,
      "謚": 1476,
      "講": 1477,
      "謝": 1478,
      "记": 1479,
      "论": 1480,
      "译": 1481,
      "话": 1482,
      "谢": 1483,
      "谷": 1484,
      "豆": 1485,
      "貢": 1486,
      "賜": 1487,
      "起": 1488,
      "越": 1489,
      "路": 1490,
      "軍": 1491,
      "輝": 1492,
      "輯": 1493,
      "輸": 1494,
      "辺": 1495,
      "过": 1496,
      "迎": 1497,
      "这": 1498,
      "迷": 1499,
      "退": 1500,
      "逆": 1501,
      "這": 1502,
      "通": 1503,
      "造": 1504,
      "連": 1505,
      "達": 1506,
      "遯": 1507,
      "選": 1508,
      "邈": 1509,
      "郎": 1510,
      "郡": 1511,
      "部": 1512,
      "郭": 1513,
      "都": 1514,
      "酸": 1515,
      "醫": 1516,
      "里": 1517,
      "野": 1518,
      "金": 1519,
      "銀": 1520,
      "録": 1521,
      "钾": 1522,
      "長": 1523,
      "长": 1524,
      "関": 1525,
      "閩": 1526,
      "闘": 1527,
      "防": 1528,
      "阿": 1529,
      "陈": 1530,
      "院": 1531,
      "陳": 1532,
      "陸": 1533,
      "険": 1534,
      "陽": 1535,
      "隨": 1536,
      "隻": 1537,
      "雖": 1538,
      "雪": 1539,
      "雲": 1540,
      "電": 1541,
      "需": 1542,
      "青": 1543,
      "静": 1544,
      "靜": 1545,
      "面": 1546,
      "韦": 1547,
      "頁": 1548,
      "頭": 1549,
      "題": 1550,
      "顧": 1551,
      "页": 1552,
      "项": 1553,
      "颈": 1554,
      "風": 1555,
      "飞": 1556,
      "馬": 1557,
      "驚": 1558,
      "體": 1559,
      "高": 1560,
      "鮮": 1561,
      "鳴": 1562,
      "鹿": 1563,
      "麗": 1564,
      "黃": 1565,
      "黄": 1566,
      "龍": 1567,
      "龙": 1568,
      "龜": 1569,
      "ﬂ": 1570,
      "︵": 1571,
      "！": 1572,
      "（": 1573,
      "）": 1574,
      "，": 1575,
      "－": 1576,
      "．": 1577,
      "０": 1578,
      "１": 1579,
      "６": 1580,
      "８": 1581,
      "：": 1582,
      "？": 1583,
      "ａ": 1584,
      "ｃ": 1585,
      "ｋ": 1586,
      "ｌ": 1587,
      "ｍ": 1588,
      "ｎ": 1589,
      "ｏ": 1590,
      "ｔ": 1591,
      "ｗ": 1592,
      "｡": 1593,
      "･": 1594,
      "ｨ": 1595,
      "ｱ": 1596,
      "ｳ": 1597,
      "ｷ": 1598,
      "ﾃ": 1599,
      "ﾉ": 1600,
      "ﾍ": 1601,
      "ﾞ": 1602,
      "ﾟ": 1603,
      "𒁳": 1604,
      "🍁": 1605,
      "🍌": 1606,
      "🎄": 1607,
      "🎤": 1608,
      "🏼": 1609,
      "💜": 1610,
      "💩": 1611,
      "💬": 1612,
      "📞": 1613,
      "📧": 1614,
      "🗽": 1615,
      "😀": 1616,
      "😂": 1617,
      "😃": 1618,
      "😄": 1619,
      "😅": 1620,
      "😉": 1621,
      "😊": 1622,
      "😏": 1623,
      "😔": 1624,
      "😜": 1625,
      "😢": 1626,
      "🙈": 1627,
      "🙉": 1628,
      "🙊": 1629,
      "##e": 1630,
      "##r": 1631,
      "##w": 1632,
      "##o": 1633,
      "##n": 1634,
      "##a": 1635,
      "##l": 1636,
      "##p": 1637,
      "##y": 1638,
      "##g": 1639,
      "##i": 1640,
      "##s": 1641,
      "##t": 1642,
      "##m": 1643,
      "##c": 1644,
      "##b": 1645,
      "##u": 1646,
      "##d": 1647,
      "##x": 1648,
      "##h": 1649,
      "##v": 1650,
      "##k": 1651,
      "##3": 1652,
      "##z": 1653,
      "##f": 1654,
      "##j": 1655,
      "##0": 1656,
      "##4": 1657,
      "##2": 1658,
      "##7": 1659,
      "##た": 1660,
      "##5": 1661,
      "##6": 1662,
      "##9": 1663,
      "##8": 1664,
      "##1": 1665,
      "##q": 1666,
      "##к": 1667,
      "##р": 1668,
      "##а": 1669,
      "##и": 1670,
      "##н": 1671,
      "##°": 1672,
      "##´": 1673,
      "##ε": 1674,
      "##º": 1675,
      "##ο": 1676,
      "##˜": 1677,
      "##ν": 1678,
      "##δ": 1679,
      "##☮": 1680,
      "##þ": 1681,
      "##ذ": 1682,
      "##ا": 1683,
      "##е": 1684,
      "##в": 1685,
      "##о": 1686,
      "##г": 1687,
      "##ł": 1688,
      "##™": 1689,
      "##∫": 1690,
      "##→": 1691,
      "##ش": 1692,
      "##ک": 1693,
      "##ر": 1694,
      "##ل": 1695,
      "##م": 1696,
      "##و": 1697,
      "##ˈ": 1698,
      "##ɪ": 1699,
      "##◦": 1700,
      "##▪": 1701,
      "##€": 1702,
      "##¨": 1703,
      "##ш": 1704,
      "##ı": 1705,
      "##ø": 1706,
      "##л": 1707,
      "##я": 1708,
      "##ι": 1709,
      "##μ": 1710,
      "##α": 1711,
      "##☘": 1712,
      "##ح": 1713,
      "##د": 1714,
      "##ョ": 1715,
      "##ー": 1716,
      "##シ": 1717,
      "##×": 1718,
      "##σ": 1719,
      "##ς": 1720,
      "##─": 1721,
      "##╢": 1722,
      "##ᅥ": 1723,
      "##ᆺ": 1724,
      "##★": 1725,
      "##す": 1726,
      "##か": 1727,
      "##д": 1728,
      "##с": 1729,
      "##т": 1730,
      "##і": 1731,
      "##м": 1732,
      "##س": 1733,
      "##ت": 1734,
      "##ن": 1735,
      "##ی": 1736,
      "##½": 1737,
      "##³": 1738,
      "##ρ": 1739,
      "##λ": 1740,
      "##з": 1741,
      "##щ": 1742,
      "##®": 1743,
      "##ъ": 1744,
      "##ん": 1745,
      "##き": 1746,
      "##の": 1747,
      "##ラ": 1748,
      "##ヒ": 1749,
      "##リ": 1750,
      "##ン": 1751,
      "##ス": 1752,
      "##こ": 1753,
      "##う": 1754,
      "##せ": 1755,
      "##は": 1756,
      "##ふ": 1757,
      "##п": 1758,
      "##ನ": 1759,
      "##ು": 1760,
      "##ವ": 1761,
      "##ಾ": 1762,
      "##ದ": 1763,
      "##ນ": 1764,
      "##ທ": 1765,
      "##ມ": 1766,
      "##າ": 1767,
      "##ຈ": 1768,
      "##ກ": 1769,
      "##ສ": 1770,
      "##ລ": 1771,
      "##ະ": 1772,
      "##ດ": 1773,
      "##ປ": 1774,
      "##ຊ": 1775,
      "##ໄ": 1776,
      "##ຕ": 1777,
      "##ວ": 1778,
      "##►": 1779,
      "##ك": 1780,
      "##¢": 1781,
      "##り": 1782,
      "##と": 1783,
      "##✰": 1784,
      "##य": 1785,
      "##क": 1786,
      "##त": 1787,
      "##ј": 1788,
      "##æ": 1789,
      "##ь": 1790,
      "##ف": 1791,
      "##ظ": 1792,
      "##υ": 1793,
      "##τ": 1794,
      "##у": 1795,
      "##ю": 1796,
      "##♦": 1797,
      "##♫": 1798,
      "##β": 1799,
      "##б": 1800,
      "##צ": 1801,
      "##ח": 1802,
      "##ל": 1803,
      "##ו": 1804,
      "##ק": 1805,
      "##ה": 1806,
      "##¯": 1807,
      "##ي": 1808,
      "##ʟ": 1809,
      "##ᴀ": 1810,
      "##ʀ": 1811,
      "##ʙ": 1812,
      "##÷": 1813,
      "##न": 1814,
      "##व": 1815,
      "##ा": 1816,
      "##द": 1817,
      "##☺": 1818,
      "##☯": 1819,
      "##♔": 1820,
      "##¹": 1821,
      "##ه": 1822,
      "##ħ": 1823,
      "##௹": 1824,
      "##ɛ": 1825,
      "##㎥": 1826,
      "##ب": 1827,
      "##ம": 1828,
      "##म": 1829,
      "##ʃ": 1830,
      "##ə": 1831,
      "##ட": 1832,
      "##ு": 1833,
      "##ர": 1834,
      "##ை": 1835,
      "##க": 1836,
      "##ள": 1837,
      "##♠": 1838,
      "##ð": 1839,
      "##☠": 1840,
      "##ℳ": 1841,
      "##よ": 1842,
      "##ᅭ": 1843,
      "##ᆼ": 1844,
      "##ᄀ": 1845,
      "##ᅡ": 1846,
      "##ᅮ": 1847,
      "##ᆫ": 1848,
      "##♚": 1849,
      "##♥": 1850,
      "##र": 1851,
      "##ो": 1852,
      "##ケ": 1853,
      "##モ": 1854,
      "##≈": 1855,
      "##れ": 1856,
      "##て": 1857,
      "##い": 1858,
      "##る": 1859,
      "##ா": 1860,
      "##π": 1861,
      "##נ": 1862,
      "##מ": 1863,
      "##י": 1864,
      "##ם": 1865,
      "##ょ": 1866,
      "##κ": 1867,
      "##γ": 1868,
      "##ж": 1869,
      "##θ": 1870,
      "##ω": 1871,
      "##☭": 1872,
      "##χ": 1873,
      "##♬": 1874,
      "##♩": 1875,
      "##ி": 1876,
      "##ற": 1877,
      "##х": 1878,
      "##ר": 1879,
      "##ز": 1880,
      "##η": 1881,
      "##ы": 1882,
      "##ि": 1883,
      "##घ": 1884,
      "##რ": 1885,
      "##ო": 1886,
      "##ფ": 1887,
      "##ე": 1888,
      "##ს": 1889,
      "##ი": 1890,
      "##ა": 1891,
      "##خ": 1892,
      "##レ": 1893,
      "##ュ": 1894,
      "##を": 1895,
      "##ч": 1896,
      "##ந": 1897,
      "##த": 1898,
      "##ث": 1899,
      "##ல": 1900,
      "##↑": 1901,
      "##←": 1902,
      "##↔": 1903,
      "##∂": 1904,
      "##©": 1905,
      "##✘": 1906,
      "##ト": 1907,
      "##ア": 1908,
      "##ヌ": 1909,
      "##ц": 1910,
      "##あ": 1911,
      "##¬": 1912,
      "##ء": 1913,
      "##ᵃ": 1914,
      "##ˡ": 1915,
      "##ᵏ": 1916,
      "##ຣ": 1917,
      "##ໂ": 1918,
      "##ˌ": 1919,
      "##ʘ": 1920,
      "##ŋ": 1921,
      "##ת": 1922,
      "##۸": 1923,
      "##ݗ": 1924,
      "##ۻ": 1925,
      "##ݓ": 1926,
      "##ڰ": 1927,
      "##ڜ": 1928,
      "##ڬ": 1929,
      "##ɐ": 1930,
      "##み": 1931,
      "##に": 1932,
      "##め": 1933,
      "##ة": 1934,
      "##ס": 1935,
      "##し": 1936,
      "##ほ": 1937,
      "##ב": 1938,
      "##א": 1939,
      "##ｨ": 1940,
      "##ｷ": 1941,
      "##ﾍ": 1942,
      "##ﾟ": 1943,
      "##ﾃ": 1944,
      "##ﾞ": 1945,
      "##ｱ": 1946,
      "##ロ": 1947,
      "##ホ": 1948,
      "##チ": 1949,
      "##ウ": 1950,
      "##£": 1951,
      "##ी": 1952,
      "##ξ": 1953,
      "##✉": 1954,
      "##ض": 1955,
      "##ɑ": 1956,
      "##ː": 1957,
      "##ɡ": 1958,
      "##ड": 1959,
      "##ल": 1960,
      "##も": 1961,
      "##ち": 1962,
      "##ර": 1963,
      "##ඳ": 1964,
      "##ɿ": 1965,
      "##ʇ": 1966,
      "##ª": 1967,
      "##ன": 1968,
      "##ß": 1969,
      "##ג": 1970,
      "##ʊ": 1971,
      "##ɔ": 1972,
      "##ក": 1973,
      "##ប": 1974,
      "##រ": 1975,
      "##ែ": 1976,
      "##▶": 1977,
      "##ζ": 1978,
      "##ع": 1979,
      "##け": 1980,
      "##つ": 1981,
      "##セ": 1982,
      "##タ": 1983,
      "##♪": 1984,
      "##え": 1985,
      "##љ": 1986,
      "##ע": 1987,
      "##ז": 1988,
      "##ט": 1989,
      "##ᄉ": 1990,
      "##ɹ": 1991,
      "##ह": 1992,
      "##ᅩ": 1993,
      "##ᄋ": 1994,
      "##ᅵ": 1995,
      "##ᄆ": 1996,
      "##ᅢ": 1997,
      "##φ": 1998,
      "##♣": 1999,
      "##ண": 2000,
      "##ப": 2001,
      "##²": 2002,
      "##غ": 2003,
      "##ण": 2004,
      "##ד": 2005,
      "##स": 2006,
      "##−": 2007,
      "##ʻ": 2008,
      "##⇝": 2009,
      "##ˁ": 2010,
      "##ル": 2011,
      "##ッ": 2012,
      "##◁": 2013,
      "##ج": 2014,
      "##ແ": 2015,
      "##ພ": 2016,
      "##µ": 2017,
      "##ո": 2018,
      "##ւ": 2019,
      "##շ": 2020,
      "##ի": 2021,
      "##な": 2022,
      "##く": 2023,
      "##פ": 2024,
      "##ত": 2025,
      "##ি": 2026,
      "##হ": 2027,
      "##া": 2028,
      "##স": 2029,
      "##ɘ": 2030,
      "##ƒ": 2031,
      "##±": 2032,
      "##ய": 2033,
      "##そ": 2034,
      "##ら": 2035,
      "##०": 2036,
      "##ђ": 2037,
      "##ˉ": 2038,
      "##╦": 2039,
      "##╩": 2040,
      "##ｗ": 2041,
      "##ⲟ": 2042,
      "##ⲩ": 2043,
      "##ⲱ": 2044,
      "##ⲧ": 2045,
      "##┃": 2046,
      "##ま": 2047,
      "##１": 2048,
      "##０": 2049,
      "##ɻ": 2050,
      "##ⁿ": 2051,
      "##☄": 2052,
      "##🙉": 2053,
      "##🙊": 2054,
      "##⇒": 2055,
      "##✐": 2056,
      "##ग": 2057,
      "##₭": 2058,
      "##ਖ": 2059,
      "##ष": 2060,
      "##ᴬ": 2061,
      "##ᴸ": 2062,
      "##ᴷ": 2063,
      "##ص": 2064,
      "##வ": 2065,
      "##ே": 2066,
      "##◄": 2067,
      "##↨": 2068,
      "##ெ": 2069,
      "##ম": 2070,
      "##ল": 2071,
      "##ね": 2072,
      "##ᄒ": 2073,
      "##ɥ": 2074,
      "##₮": 2075,
      "##₴": 2076,
      "##ठ": 2077,
      "##ᄅ": 2078,
      "##ᅧ": 2079,
      "##ਫ": 2080,
      "##ਰ": 2081,
      "##ਨ": 2082,
      "##ਾ": 2083,
      "##ਮ": 2084,
      "##ݟ": 2085,
      "##ݣ": 2086,
      "##ݜ": 2087,
      "##ݭ": 2088,
      "##۵": 2089,
      "##ݡ": 2090,
      "##ڵ": 2091,
      "##چ": 2092,
      "##э": 2093,
      "##∞": 2094,
      "##ひ": 2095,
      "##ゅ": 2096,
      "##ɾ": 2097,
      "##ᆯ": 2098,
      "##ᄌ": 2099,
      "##ᄇ": 2100,
      "##☓": 2101,
      "##ψ": 2102,
      "##є": 2103,
      "##さ": 2104,
      "##ǌ": 2105,
      "##ʰ": 2106,
      "##や": 2107,
      "##đ": 2108,
      "##ழ": 2109,
      "##ຫ": 2110,
      "##ງ": 2111,
      "##テ": 2112,
      "##ィ": 2113,
      "##カ": 2114,
      "##✌": 2115,
      "##⟲": 2116,
      "##ᄃ": 2117,
      "##₂": 2118,
      "##ן": 2119,
      "##█": 2120,
      "##😃": 2121,
      "##😊": 2122,
      "##😄": 2123,
      "##า": 2124,
      "##ร": 2125,
      "##แ": 2126,
      "##ป": 2127,
      "##ล": 2128,
      "##ى": 2129,
      "##ღ": 2130,
      "##╔": 2131,
      "##═": 2132,
      "##╗": 2133,
      "##ट": 2134,
      "##ヘ": 2135,
      "##≥": 2136,
      "##ク": 2137,
      "##フ": 2138,
      "##ノ": 2139,
      "##¸": 2140,
      "##❞": 2141,
      "##œ": 2142,
      "##☆": 2143,
      "##ャ": 2144,
      "##फ": 2145,
      "##ᄍ": 2146,
      "##ᆷ": 2147,
      "##ᅳ": 2148,
      "##ق": 2149,
      "##ط": 2150,
      "##ˑ": 2151,
      "##⁰": 2152,
      "##ɕ": 2153,
      "##ɟ": 2154,
      "##ץ": 2155,
      "##☻": 2156,
      "##コ": 2157,
      "##６": 2158,
      "##８": 2159,
      "##כ": 2160,
      "##━": 2161,
      "##┓": 2162,
      "##⁄": 2163,
      "##∆": 2164,
      "##∇": 2165,
      "##ſ": 2166,
      "##₪": 2167,
      "##₩": 2168,
      "##っ": 2169,
      "##ニ": 2170,
      "##ש": 2171,
      "##ᆨ": 2172,
      "##ﬂ": 2173,
      "##✎": 2174,
      "##ү": 2175,
      "##ज": 2176,
      "##┛": 2177,
      "##ᆸ": 2178,
      "##ᅣ": 2179,
      "##マ": 2180,
      "##ে": 2181,
      "##ৗ": 2182,
      "##イ": 2183,
      "##サ": 2184,
      "##キ": 2185,
      "##ங": 2186,
      "##🏼": 2187,
      "##थ": 2188,
      "##ʞ": 2189,
      "##ɯ": 2190,
      "##ハ": 2191,
      "##ˤ": 2192,
      "##ʷ": 2193,
      "##ʕ": 2194,
      "##😂": 2195,
      "##ᅴ": 2196,
      "##ॉ": 2197,
      "##ອ": 2198,
      "##ҝ": 2199,
      "##¤": 2200,
      "##ം": 2201,
      "##വ": 2202,
      "##ാ": 2203,
      "##ദ": 2204,
      "##ǝ": 2205,
      "##⇔": 2206,
      "##ન": 2207,
      "##વ": 2208,
      "##ા": 2209,
      "##દ": 2210,
      "##┌": 2211,
      "##┐": 2212,
      "##ᅲ": 2213,
      "##∈": 2214,
      "##র": 2215,
      "##ক": 2216,
      "##ත": 2217,
      "##⋅": 2218,
      "##✍": 2219,
      "##≤": 2220,
      "##₨": 2221,
      "##₳": 2222,
      "##ᴥ": 2223,
      "##ლ": 2224,
      "##േ": 2225,
      "##സ": 2226,
      "##ക": 2227,
      "##प": 2228,
      "##श": 2229,
      "##ㄨ": 2230,
      "##ㄤ": 2231,
      "##ㄉ": 2232,
      "##ㄧ": 2233,
      "##↓": 2234,
      "##∧": 2235,
      "##₣": 2236,
      "##⊝": 2237,
      "##⊙": 2238,
      "##भ": 2239,
      "##╚": 2240,
      "##╝": 2241,
      "##⊗": 2242,
      "##└": 2243,
      "##┘": 2244,
      "##▾": 2245,
      "##お": 2246,
      "##ˢ": 2247,
      "##ろ": 2248,
      "##ェ": 2249,
      "##ぬ": 2250,
      "##ং": 2251,
      "##ｎ": 2252,
      "##ｏ": 2253,
      "##ｔ": 2254,
      "##ａ": 2255,
      "##ｌ": 2256,
      "##ｋ": 2257,
      "##ɱ": 2258,
      "##🗽": 2259,
      "##№": 2260,
      "##ᆮ": 2261,
      "##ᄎ": 2262,
      "##ہ": 2263,
      "##ᄂ": 2264,
      "##ァ": 2265,
      "##⅞": 2266,
      "##ট": 2267,
      "##য": 2268,
      "##◯": 2269,
      "##☾": 2270,
      "##च": 2271,
      "##ɜ": 2272,
      "##ム": 2273,
      "##ゃ": 2274,
      "##ब": 2275,
      "##ѕ": 2276,
      "##📧": 2277,
      "##₵": 2278,
      "##ա": 2279,
      "##ր": 2280,
      "##գ": 2281,
      "##մ": 2282,
      "##ն": 2283,
      "##թ": 2284,
      "##յ": 2285,
      "##ф": 2286,
      "##ナ": 2287,
      "##ŧ": 2288,
      "##¦": 2289,
      "##∪": 2290,
      "##エ": 2291,
      "##ʌ": 2292,
      "##ⱷ": 2293,
      "##≼": 2294,
      "##ხ": 2295,
      "##თ": 2296,
      "##ຮ": 2297,
      "##০": 2298,
      "##১": 2299,
      "##২": 2300,
      "##ʨ": 2301,
      "##ɢ": 2302,
      "##ʿ": 2303,
      "##ন": 2304,
      "##ব": 2305,
      "##দ": 2306,
      "##ʾ": 2307,
      "##へ": 2308,
      "##న": 2309,
      "##ు": 2310,
      "##వ": 2311,
      "##ద": 2312,
      "##ʎ": 2313,
      "##ⅎ": 2314,
      "##☎": 2315,
      "##║": 2316,
      "##െ": 2317,
      "##ട": 2318,
      "##ര": 2319,
      "##❉": 2320,
      "##ຄ": 2321,
      "##₡": 2322,
      "##ʼ": 2323,
      "##☤": 2324,
      "##∙": 2325,
      "##ይ": 2326,
      "##ት": 2327,
      "##გ": 2328,
      "##მ": 2329,
      "##ნ": 2330,
      "##☛": 2331,
      "##♨": 2332,
      "##ɣ": 2333,
      "##ᆻ": 2334,
      "##জ": 2335,
      "##ध": 2336,
      "##ｍ": 2337,
      "##џ": 2338,
      "##ச": 2339,
      "##😢": 2340,
      "th": 2341,
      "##er": 2342,
      "##in": 2343,
      "the": 2344,
      "##ou": 2345,
      "##on": 2346,
      "##at": 2347,
      "##ed": 2348,
      "##es": 2349,
      "##or": 2350,
      "##an": 2351,
      "##en": 2352,
      "an": 2353,
      "##ing": 2354,
      "to": 2355,
      "##it": 2356,
      "##is": 2357,
      "##al": 2358,
      "you": 2359,
      "##le": 2360,
      "##ic": 2361,
      "in": 2362,
      "##ar": 2363,
      "of": 2364,
      "and": 2365,
      "##ion": 2366,
      "##re": 2367,
      "##as": 2368,
      "re": 2369,
      "##ot": 2370,
      "##om": 2371,
      "is": 2372,
      "be": 2373,
      "##ly": 2374,
      "it": 2375,
      "that": 2376,
      "##ve": 2377,
      "wh": 2378,
      "##ll": 2379,
      "on": 2380,
      "##ent": 2381,
      "##ut": 2382,
      "##us": 2383,
      "##ag": 2384,
      "##ct": 2385,
      "not": 2386,
      "for": 2387,
      "##ow": 2388,
      "as": 2389,
      "##id": 2390,
      "ha": 2391,
      "##ik": 2392,
      "ar": 2393,
      "##se": 2394,
      "##ld": 2395,
      "##ce": 2396,
      "this": 2397,
      "##ere": 2398,
      "##ck": 2399,
      "##ro": 2400,
      "##ay": 2401,
      "##et": 2402,
      "st": 2403,
      "con": 2404,
      "##ia": 2405,
      "##tic": 2406,
      "##ig": 2407,
      "##am": 2408,
      "##ad": 2409,
      "##st": 2410,
      "##ith": 2411,
      "##ch": 2412,
      "se": 2413,
      "##ver": 2414,
      "##age": 2415,
      "##ation": 2416,
      "##ip": 2417,
      "##im": 2418,
      "##th": 2419,
      "artic": 2420,
      "are": 2421,
      "de": 2422,
      "or": 2423,
      "have": 2424,
      "do": 2425,
      "your": 2426,
      "##ol": 2427,
      "with": 2428,
      "su": 2429,
      "##ould": 2430,
      "##ist": 2431,
      "##est": 2432,
      "##op": 2433,
      "wik": 2434,
      "he": 2435,
      "##ate": 2436,
      "sh": 2437,
      "##ur": 2438,
      "##ers": 2439,
      "##ir": 2440,
      "we": 2441,
      "me": 2442,
      "##dit": 2443,
      "if": 2444,
      "was": 2445,
      "##edia": 2446,
      "com": 2447,
      "article": 2448,
      "##il": 2449,
      "ne": 2450,
      "at": 2451,
      "un": 2452,
      "##ill": 2453,
      "ch": 2454,
      "edit": 2455,
      "fr": 2456,
      "wikip": 2457,
      "ab": 2458,
      "##and": 2459,
      "but": 2460,
      "al": 2461,
      "pro": 2462,
      "##ter": 2463,
      "##ak": 2464,
      "##oo": 2465,
      "##ess": 2466,
      "ad": 2467,
      "my": 2468,
      "so": 2469,
      "us": 2470,
      "##ain": 2471,
      "wikipedia": 2472,
      "ex": 2473,
      "##ul": 2474,
      "##pp": 2475,
      "##out": 2476,
      "page": 2477,
      "##ome": 2478,
      "can": 2479,
      "##ab": 2480,
      "##alk": 2481,
      "##ust": 2482,
      "##our": 2483,
      "##ht": 2484,
      "##if": 2485,
      "by": 2486,
      "##ment": 2487,
      "##ase": 2488,
      "cont": 2489,
      "##ore": 2490,
      "##ant": 2491,
      "en": 2492,
      "from": 2493,
      "any": 2494,
      "talk": 2495,
      "##ally": 2496,
      "##ri": 2497,
      "##pe": 2498,
      "##ink": 2499,
      "##ie": 2500,
      "po": 2501,
      "than": 2502,
      "there": 2503,
      "##em": 2504,
      "about": 2505,
      "what": 2506,
      "all": 2507,
      "##ive": 2508,
      "im": 2509,
      "##oun": 2510,
      "no": 2511,
      "dis": 2512,
      "##ight": 2513,
      "##let": 2514,
      "##lo": 2515,
      "some": 2516,
      "##un": 2517,
      "don": 2518,
      "wor": 2519,
      "##ra": 2520,
      "will": 2521,
      "##ike": 2522,
      "has": 2523,
      "##lease": 2524,
      "##ity": 2525,
      "would": 2526,
      "##ort": 2527,
      "am": 2528,
      "##ame": 2529,
      "##ions": 2530,
      "fa": 2531,
      "please": 2532,
      "##ther": 2533,
      "##ard": 2534,
      "just": 2535,
      "like": 2536,
      "le": 2537,
      "##el": 2538,
      "##um": 2539,
      "they": 2540,
      "one": 2541,
      "##ich": 2542,
      "tr": 2543,
      "ag": 2544,
      "go": 2545,
      "##la": 2546,
      "##der": 2547,
      "kn": 2548,
      "##ish": 2549,
      "qu": 2550,
      "delet": 2551,
      "##00": 2552,
      "who": 2553,
      "##ks": 2554,
      "##ect": 2555,
      "##ous": 2556,
      "##fer": 2557,
      "##ies": 2558,
      "##iv": 2559,
      "up": 2560,
      "pr": 2561,
      "##ite": 2562,
      "mo": 2563,
      "know": 2564,
      "how": 2565,
      "should": 2566,
      "which": 2567,
      "##her": 2568,
      "##ated": 2569,
      "ac": 2570,
      "##one": 2571,
      "been": 2572,
      "##ang": 2573,
      "##use": 2574,
      "##ian": 2575,
      "##oug": 2576,
      "##ake": 2577,
      "##ud": 2578,
      "##ble": 2579,
      "add": 2580,
      "other": 2581,
      "##so": 2582,
      "sour": 2583,
      "##ack": 2584,
      "##ue": 2585,
      "##ong": 2586,
      "##art": 2587,
      "##les": 2588,
      "more": 2589,
      "see": 2590,
      "##ence": 2591,
      "##ces": 2592,
      "ev": 2593,
      "##ind": 2594,
      "bec": 2595,
      "##pt": 2596,
      "here": 2597,
      "##ree": 2598,
      "##pl": 2599,
      "##og": 2600,
      "##uck": 2601,
      "pe": 2602,
      "rem": 2603,
      "think": 2604,
      "##all": 2605,
      "out": 2606,
      "##os": 2607,
      "##ial": 2608,
      "##cl": 2609,
      "##ast": 2610,
      "##rit": 2611,
      "did": 2612,
      "inf": 2613,
      "spe": 2614,
      "##ause": 2615,
      "his": 2616,
      "res": 2617,
      "also": 2618,
      "tim": 2619,
      "may": 2620,
      "app": 2621,
      "##orm": 2622,
      "use": 2623,
      "##end": 2624,
      "##ction": 2625,
      "##ear": 2626,
      "##cus": 2627,
      "because": 2628,
      "te": 2629,
      "##lock": 2630,
      "##ine": 2631,
      "peop": 2632,
      "##qu": 2633,
      "does": 2634,
      "##rib": 2635,
      "fe": 2636,
      "people": 2637,
      "man": 2638,
      "##iz": 2639,
      "##ages": 2640,
      "##ound": 2641,
      "##able": 2642,
      "get": 2643,
      "##ook": 2644,
      "##ood": 2645,
      "say": 2646,
      "ver": 2647,
      "##ary": 2648,
      "user": 2649,
      "int": 2650,
      "##ough": 2651,
      "##ap": 2652,
      "##ry": 2653,
      "why": 2654,
      "##ure": 2655,
      "only": 2656,
      "##ber": 2657,
      "pers": 2658,
      "##ory": 2659,
      "cons": 2660,
      "them": 2661,
      "when": 2662,
      "articles": 2663,
      "new": 2664,
      "##ism": 2665,
      "##ject": 2666,
      "need": 2667,
      "##int": 2668,
      "then": 2669,
      "##ire": 2670,
      "##lf": 2671,
      "##ors": 2672,
      "time": 2673,
      "co": 2674,
      "##ious": 2675,
      "##ide": 2676,
      "block": 2677,
      "remo": 2678,
      "##lp": 2679,
      "##ub": 2680,
      "##ff": 2681,
      "were": 2682,
      "again": 2683,
      "want": 2684,
      "##ved": 2685,
      "link": 2686,
      "fuck": 2687,
      "inter": 2688,
      "##ice": 2689,
      "now": 2690,
      "under": 2691,
      "act": 2692,
      "person": 2693,
      "per": 2694,
      "##ens": 2695,
      "##per": 2696,
      "##cuss": 2697,
      "200": 2698,
      "##ci": 2699,
      "##ose": 2700,
      "discuss": 2701,
      "comp": 2702,
      "##hing": 2703,
      "pol": 2704,
      "rep": 2705,
      "being": 2706,
      "help": 2707,
      "##ced": 2708,
      "gu": 2709,
      "ind": 2710,
      "their": 2711,
      "##iew": 2712,
      "att": 2713,
      "read": 2714,
      "thanks": 2715,
      "pre": 2716,
      "##ign": 2717,
      "acc": 2718,
      "rel": 2719,
      "sp": 2720,
      "refer": 2721,
      "19": 2722,
      "##ans": 2723,
      "ve": 2724,
      "ever": 2725,
      "list": 2726,
      "even": 2727,
      "inform": 2728,
      "af": 2729,
      "##ge": 2730,
      "##ical": 2731,
      "sa": 2732,
      "good": 2733,
      "##ations": 2734,
      "##ick": 2735,
      "sub": 2736,
      "##ount": 2737,
      "##self": 2738,
      "##ict": 2739,
      "comment": 2740,
      "imp": 2741,
      "make": 2742,
      "had": 2743,
      "##vert": 2744,
      "contrib": 2745,
      "fact": 2746,
      "wr": 2747,
      "work": 2748,
      "##ult": 2749,
      "##min": 2750,
      "well": 2751,
      "could": 2752,
      "bel": 2753,
      "##ph": 2754,
      "##are": 2755,
      "ass": 2756,
      "chang": 2757,
      "##reat": 2758,
      "off": 2759,
      "##ass": 2760,
      "par": 2761,
      "way": 2762,
      "war": 2763,
      "very": 2764,
      "fir": 2765,
      "##ings": 2766,
      "mat": 2767,
      "gr": 2768,
      "##ile": 2769,
      "point": 2770,
      "quest": 2771,
      "information": 2772,
      "pl": 2773,
      "rec": 2774,
      "##andal": 2775,
      "##ade": 2776,
      "cl": 2777,
      "comm": 2778,
      "look": 2779,
      "##ep": 2780,
      "##od": 2781,
      "##ason": 2782,
      "vandal": 2783,
      "deletion": 2784,
      "its": 2785,
      "##ance": 2786,
      "des": 2787,
      "back": 2788,
      "sources": 2789,
      "such": 2790,
      "reg": 2791,
      "##ac": 2792,
      "name": 2793,
      "20": 2794,
      "ph": 2795,
      "first": 2796,
      "image": 2797,
      "##tc": 2798,
      "wp": 2799,
      "fo": 2800,
      "##tt": 2801,
      "these": 2802,
      "tw": 2803,
      "##act": 2804,
      "over": 2805,
      "##fore": 2806,
      "##ving": 2807,
      "ob": 2808,
      "##ific": 2809,
      "pages": 2810,
      "##wn": 2811,
      "bet": 2812,
      "##ru": 2813,
      "mu": 2814,
      "hist": 2815,
      "where": 2816,
      "seem": 2817,
      "admin": 2818,
      "##ress": 2819,
      "source": 2820,
      "##way": 2821,
      "##ual": 2822,
      "##ention": 2823,
      "id": 2824,
      "incl": 2825,
      "part": 2826,
      "##xt": 2827,
      "revert": 2828,
      "right": 2829,
      "##other": 2830,
      "section": 2831,
      "thank": 2832,
      "editing": 2833,
      "##ah": 2834,
      "find": 2835,
      "most": 2836,
      "##ach": 2837,
      "##ful": 2838,
      "##ss": 2839,
      "pla": 2840,
      "##ond": 2841,
      "lo": 2842,
      "sin": 2843,
      "reason": 2844,
      "edits": 2845,
      "cop": 2846,
      "contribut": 2847,
      "every": 2848,
      "requ": 2849,
      "##ates": 2850,
      "cle": 2851,
      "che": 2852,
      "too": 2853,
      "##lish": 2854,
      "dif": 2855,
      "##ww": 2856,
      "sim": 2857,
      "gen": 2858,
      "##ail": 2859,
      "##itt": 2860,
      "made": 2861,
      "him": 2862,
      "ask": 2863,
      "##ord": 2864,
      "much": 2865,
      "try": 2866,
      "som": 2867,
      "##ert": 2868,
      "many": 2869,
      "ser": 2870,
      "ke": 2871,
      "supp": 2872,
      "##ually": 2873,
      "##erm": 2874,
      "##gg": 2875,
      "op": 2876,
      "deleted": 2877,
      "##ider": 2878,
      "used": 2879,
      "really": 2880,
      "discussion": 2881,
      "##du": 2882,
      "br": 2883,
      "post": 2884,
      "somet": 2885,
      "call": 2886,
      "own": 2887,
      "##ise": 2888,
      "wiki": 2889,
      "tag": 2890,
      "cre": 2891,
      "same": 2892,
      "##cept": 2893,
      "includ": 2894,
      "after": 2895,
      "##ple": 2896,
      "into": 2897,
      "hi": 2898,
      "##cy": 2899,
      "since": 2900,
      "word": 2901,
      "state": 2902,
      "those": 2903,
      "##own": 2904,
      "before": 2905,
      "##ied": 2906,
      "copy": 2907,
      "her": 2908,
      "cor": 2909,
      "##oth": 2910,
      "expl": 2911,
      "def": 2912,
      "##ently": 2913,
      "bo": 2914,
      "##ib": 2915,
      "##11": 2916,
      "spec": 2917,
      "rev": 2918,
      "ro": 2919,
      "polic": 2920,
      "mar": 2921,
      "sc": 2922,
      "##thing": 2923,
      "someone": 2924,
      "consider": 2925,
      "##bo": 2926,
      "##av": 2927,
      "top": 2928,
      "##ever": 2929,
      "iss": 2930,
      "mak": 2931,
      "let": 2932,
      "take": 2933,
      "content": 2934,
      "two": 2935,
      "ll": 2936,
      "year": 2937,
      "cla": 2938,
      "still": 2939,
      "crit": 2940,
      "belie": 2941,
      "eng": 2942,
      "prov": 2943,
      "stop": 2944,
      "conf": 2945,
      "free": 2946,
      "##arly": 2947,
      "put": 2948,
      "bas": 2949,
      "jo": 2950,
      "##olog": 2951,
      "##read": 2952,
      "##vers": 2953,
      "##ote": 2954,
      "el": 2955,
      "cit": 2956,
      "##ility": 2957,
      "cur": 2958,
      "##ning": 2959,
      "said": 2960,
      "something": 2961,
      "##ttp": 2962,
      "##ope": 2963,
      "http": 2964,
      "em": 2965,
      "##blem": 2966,
      "writ": 2967,
      "inv": 2968,
      "##irect": 2969,
      "going": 2970,
      "bi": 2971,
      "claim": 2972,
      "##ew": 2973,
      "##nn": 2974,
      "col": 2975,
      "blocked": 2976,
      "problem": 2977,
      "##raph": 2978,
      "##ons": 2979,
      "##ting": 2980,
      "##zz": 2981,
      "show": 2982,
      "aut": 2983,
      "##llow": 2984,
      "##ines": 2985,
      "bl": 2986,
      "web": 2987,
      "##ition": 2988,
      "pub": 2989,
      "our": 2990,
      "##pect": 2991,
      "feel": 2992,
      "history": 2993,
      "##ational": 2994,
      "without": 2995,
      "day": 2996,
      "##iss": 2997,
      "##rat": 2998,
      "##ten": 2999,
      "##cess": 3000,
      "##come": 3001,
      "she": 3002,
      "interest": 3003,
      "sure": 3004,
      "##stand": 3005,
      "wel": 3006,
      "inst": 3007,
      "differ": 3008,
      "real": 3009,
      "ent": 3010,
      "view": 3011,
      "request": 3012,
      "##ave": 3013,
      "contin": 3014,
      "subject": 3015,
      "inc": 3016,
      "##rect": 3017,
      "mean": 3018,
      "long": 3019,
      "##right": 3020,
      "happ": 3021,
      "##ences": 3022,
      "added": 3023,
      "red": 3024,
      "##iable": 3025,
      "utc": 3026,
      "editors": 3027,
      "##ense": 3028,
      "bit": 3029,
      "##ug": 3030,
      "sign": 3031,
      "mention": 3032,
      "doesn": 3033,
      "regard": 3034,
      "question": 3035,
      "removed": 3036,
      "start": 3037,
      "##inal": 3038,
      "##ating": 3039,
      "might": 3040,
      "never": 3041,
      "org": 3042,
      "another": 3043,
      "form": 3044,
      "keep": 3045,
      "note": 3046,
      "la": 3047,
      "place": 3048,
      "##ily": 3049,
      "##we": 3050,
      "##ys": 3051,
      "welcome": 3052,
      "##less": 3053,
      "personal": 3054,
      "##lic": 3055,
      "##ty": 3056,
      "##ath": 3057,
      "##ather": 3058,
      "##mm": 3059,
      "mess": 3060,
      "dec": 3061,
      "##ible": 3062,
      "vandalism": 3063,
      "however": 3064,
      "hope": 3065,
      "cr": 3066,
      "##ild": 3067,
      "yourself": 3068,
      "sugg": 3069,
      "understand": 3070,
      "##rop": 3071,
      "case": 3072,
      "suggest": 3073,
      "speed": 3074,
      "attack": 3075,
      "orig": 3076,
      "pres": 3077,
      "sec": 3078,
      "ref": 3079,
      "##ments": 3080,
      "sy": 3081,
      "##ft": 3082,
      "check": 3083,
      "gener": 3084,
      "done": 3085,
      "##ral": 3086,
      "##ought": 3087,
      "follow": 3088,
      "tem": 3089,
      "##vious": 3090,
      "##ative": 3091,
      "ins": 3092,
      "sch": 3093,
      "num": 3094,
      "count": 3095,
      "best": 3096,
      "using": 3097,
      "##ann": 3098,
      "copyright": 3099,
      "##ics": 3100,
      "better": 3101,
      "##ize": 3102,
      "seems": 3103,
      "##ead": 3104,
      "actually": 3105,
      "giv": 3106,
      "support": 3107,
      "##ably": 3108,
      "while": 3109,
      "anything": 3110,
      "links": 3111,
      "both": 3112,
      "##ank": 3113,
      "ma": 3114,
      "believe": 3115,
      "hell": 3116,
      "##oc": 3117,
      "##gr": 3118,
      "curr": 3119,
      "things": 3120,
      "thr": 3121,
      "##ents": 3122,
      "main": 3123,
      "review": 3124,
      "fair": 3125,
      "didn": 3126,
      "comments": 3127,
      "policy": 3128,
      "great": 3129,
      "##be": 3130,
      "world": 3131,
      "##up": 3132,
      "##igh": 3133,
      "##ute": 3134,
      "wrong": 3135,
      "desc": 3136,
      "found": 3137,
      "exam": 3138,
      "opin": 3139,
      "editor": 3140,
      "##led": 3141,
      "arg": 3142,
      "sm": 3143,
      "##clop": 3144,
      "against": 3145,
      "##ger": 3146,
      "##ove": 3147,
      "tak": 3148,
      "agree": 3149,
      "thing": 3150,
      "##ix": 3151,
      "resp": 3152,
      "##ether": 3153,
      "##ically": 3154,
      "str": 3155,
      "text": 3156,
      "##ern": 3157,
      "##ians": 3158,
      "##ready": 3159,
      "201": 3160,
      "won": 3161,
      "ra": 3162,
      "##cyclop": 3163,
      "term": 3164,
      "already": 3165,
      "##ward": 3166,
      "change": 3167,
      "questions": 3168,
      "prop": 3169,
      "##ull": 3170,
      "appear": 3171,
      "explain": 3172,
      "correct": 3173,
      "##ists": 3174,
      "ho": 3175,
      "##vel": 3176,
      "##ither": 3177,
      "ir": 3178,
      "though": 3179,
      "nothing": 3180,
      "##eric": 3181,
      "10": 3182,
      "##ittle": 3183,
      "last": 3184,
      "remove": 3185,
      "encyclop": 3186,
      "tit": 3187,
      "exp": 3188,
      "conc": 3189,
      "##land": 3190,
      "##ves": 3191,
      "ap": 3192,
      "mon": 3193,
      "little": 3194,
      "care": 3195,
      "non": 3196,
      "must": 3197,
      "vi": 3198,
      "##ames": 3199,
      "ip": 3200,
      "18": 3201,
      "##lect": 3202,
      "##yle": 3203,
      "##thers": 3204,
      "americ": 3205,
      "anyone": 3206,
      "exper": 3207,
      "sor": 3208,
      "account": 3209,
      "few": 3210,
      "ide": 3211,
      "others": 3212,
      "else": 3213,
      "trying": 3214,
      "above": 3215,
      "jew": 3216,
      "old": 3217,
      "tell": 3218,
      "##arn": 3219,
      "##lev": 3220,
      "poss": 3221,
      "got": 3222,
      "lif": 3223,
      "partic": 3224,
      "import": 3225,
      "##oup": 3226,
      "##ited": 3227,
      "##ged": 3228,
      "speedy": 3229,
      "##cks": 3230,
      "cour": 3231,
      "guid": 3232,
      "fl": 3233,
      "min": 3234,
      "far": 3235,
      "det": 3236,
      "nor": 3237,
      "issue": 3238,
      "##ues": 3239,
      "##ify": 3240,
      "different": 3241,
      "give": 3242,
      "char": 3243,
      "sorry": 3244,
      "templ": 3245,
      "english": 3246,
      "stand": 3247,
      "end": 3248,
      "years": 3249,
      "##ateg": 3250,
      "prob": 3251,
      "##az": 3252,
      "##ooks": 3253,
      "reliable": 3254,
      "rather": 3255,
      "commun": 3256,
      "style": 3257,
      "lang": 3258,
      "##ensus": 3259,
      "thought": 3260,
      "##ular": 3261,
      "sent": 3262,
      "##cc": 3263,
      "reference": 3264,
      "##ke": 3265,
      "lat": 3266,
      "making": 3267,
      "report": 3268,
      "isn": 3269,
      "references": 3270,
      "come": 3271,
      "fur": 3272,
      "through": 3273,
      "##box": 3274,
      "##aps": 3275,
      "shit": 3276,
      "##ution": 3277,
      "ty": 3278,
      "lot": 3279,
      "##omin": 3280,
      "cert": 3281,
      "administ": 3282,
      "continue": 3283,
      "langu": 3284,
      "play": 3285,
      "fil": 3286,
      "##sh": 3287,
      "group": 3288,
      "av": 3289,
      "second": 3290,
      "12": 3291,
      "down": 3292,
      "##erial": 3293,
      "doing": 3294,
      "vers": 3295,
      "##lete": 3296,
      "simp": 3297,
      "##wh": 3298,
      "chr": 3299,
      "news": 3300,
      "##ograph": 3301,
      "trans": 3302,
      "address": 3303,
      "guidel": 3304,
      "##rr": 3305,
      "leave": 3306,
      "##ody": 3307,
      "original": 3308,
      "viol": 3309,
      "accept": 3310,
      "webs": 3311,
      "har": 3312,
      "high": 3313,
      "material": 3314,
      "mus": 3315,
      "defin": 3316,
      "##osed": 3317,
      "##tern": 3318,
      "auth": 3319,
      "wat": 3320,
      "mor": 3321,
      "says": 3322,
      "life": 3323,
      "##ne": 3324,
      "further": 3325,
      "ok": 3326,
      "evid": 3327,
      "argu": 3328,
      "probably": 3329,
      "unt": 3330,
      "bad": 3331,
      "prot": 3332,
      "oh": 3333,
      "categ": 3334,
      "site": 3335,
      "14": 3336,
      "ext": 3337,
      "delete": 3338,
      "tur": 3339,
      "least": 3340,
      "hello": 3341,
      "adding": 3342,
      "simply": 3343,
      "created": 3344,
      "certain": 3345,
      "##ately": 3346,
      "yes": 3347,
      "consensus": 3348,
      "either": 3349,
      "17": 3350,
      "book": 3351,
      "##ways": 3352,
      "users": 3353,
      "##earch": 3354,
      "clear": 3355,
      "mis": 3356,
      "##ropri": 3357,
      "notable": 3358,
      "exist": 3359,
      "cent": 3360,
      "val": 3361,
      "##load": 3362,
      "etc": 3363,
      "called": 3364,
      "research": 3365,
      "enough": 3366,
      "##uy": 3367,
      "const": 3368,
      "rest": 3369,
      "sci": 3370,
      "criter": 3371,
      "log": 3372,
      "www": 3373,
      "##ace": 3374,
      "opinion": 3375,
      "beh": 3376,
      "info": 3377,
      "11": 3378,
      "summ": 3379,
      "mem": 3380,
      "kind": 3381,
      "##ell": 3382,
      "##unt": 3383,
      "##ified": 3384,
      "produ": 3385,
      "contributions": 3386,
      "example": 3387,
      "fun": 3388,
      "big": 3389,
      "around": 3390,
      "administrat": 3391,
      "##not": 3392,
      "##day": 3393,
      "specific": 3394,
      "car": 3395,
      "yet": 3396,
      "##als": 3397,
      "15": 3398,
      "reverted": 3399,
      "disp": 3400,
      "contro": 3401,
      "##ween": 3402,
      "ret": 3403,
      "write": 3404,
      "matter": 3405,
      "between": 3406,
      "images": 3407,
      "##red": 3408,
      "##ven": 3409,
      "##res": 3410,
      "leg": 3411,
      "pict": 3412,
      "notice": 3413,
      "##ided": 3414,
      "pos": 3415,
      "lead": 3416,
      "met": 3417,
      "es": 3418,
      "##sw": 3419,
      "given": 3420,
      "24": 3421,
      "direct": 3422,
      "eff": 3423,
      "encyclopedia": 3424,
      "adv": 3425,
      "title": 3426,
      "impro": 3427,
      "number": 3428,
      "sit": 3429,
      "sing": 3430,
      "16": 3431,
      "rul": 3432,
      "message": 3433,
      "##man": 3434,
      "##ool": 3435,
      "mer": 3436,
      "needs": 3437,
      "ca": 3438,
      "having": 3439,
      "fam": 3440,
      "##ional": 3441,
      "##its": 3442,
      "obvious": 3443,
      "##ropriate": 3444,
      "important": 3445,
      "evidence": 3446,
      "public": 3447,
      "dr": 3448,
      "##ized": 3449,
      "##ower": 3450,
      "maybe": 3451,
      "move": 3452,
      "ant": 3453,
      "media": 3454,
      "clearly": 3455,
      "language": 3456,
      "##ures": 3457,
      "##ark": 3458,
      "stud": 3459,
      "##ony": 3460,
      "##io": 3461,
      "instead": 3462,
      "13": 3463,
      "##ology": 3464,
      "##ased": 3465,
      "pov": 3466,
      "##ier": 3467,
      "law": 3468,
      "template": 3469,
      "true": 3470,
      "nig": 3471,
      "states": 3472,
      "##levant": 3473,
      "saying": 3474,
      "tri": 3475,
      "pop": 3476,
      "complete": 3477,
      "##ov": 3478,
      "written": 3479,
      "dem": 3480,
      "hard": 3481,
      "##ars": 3482,
      "##haps": 3483,
      "##ability": 3484,
      "perhaps": 3485,
      "upload": 3486,
      "always": 3487,
      "##ruct": 3488,
      "polit": 3489,
      "quite": 3490,
      "bor": 3491,
      "based": 3492,
      "opp": 3493,
      "prom": 3494,
      "addit": 3495,
      "hand": 3496,
      "redirect": 3497,
      "bus": 3498,
      "##ised": 3499,
      "times": 3500,
      "##gn": 3501,
      "disc": 3502,
      "until": 3503,
      "##amp": 3504,
      "answ": 3505,
      "##rip": 3506,
      "website": 3507,
      "allow": 3508,
      "invol": 3509,
      "version": 3510,
      "whether": 3511,
      "dist": 3512,
      "##ract": 3513,
      "guidelines": 3514,
      "##arch": 3515,
      "offic": 3516,
      "intern": 3517,
      "inde": 3518,
      "##bers": 3519,
      "##ring": 3520,
      "##me": 3521,
      "##ision": 3522,
      "21": 3523,
      "neut": 3524,
      "criteria": 3525,
      "ter": 3526,
      "clo": 3527,
      "fre": 3528,
      "author": 3529,
      "once": 3530,
      "fucking": 3531,
      "arch": 3532,
      "##ember": 3533,
      "national": 3534,
      "test": 3535,
      "sever": 3536,
      "project": 3537,
      "eas": 3538,
      "##ript": 3539,
      "22": 3540,
      "uni": 3541,
      "sl": 3542,
      "##ost": 3543,
      "school": 3544,
      "##ash": 3545,
      "sex": 3546,
      "##ahah": 3547,
      "med": 3548,
      "changes": 3549,
      "considered": 3550,
      "##empt": 3551,
      "getting": 3552,
      "lar": 3553,
      "mind": 3554,
      "left": 3555,
      "several": 3556,
      "publish": 3557,
      "three": 3558,
      "hum": 3559,
      "##oy": 3560,
      "makes": 3561,
      "sur": 3562,
      "idea": 3563,
      "class": 3564,
      "less": 3565,
      "christ": 3566,
      "neutral": 3567,
      "current": 3568,
      "##jor": 3569,
      "head": 3570,
      "##uff": 3571,
      "general": 3572,
      "stat": 3573,
      "##ities": 3574,
      "##ret": 3575,
      "uns": 3576,
      "words": 3577,
      "wee": 3578,
      "present": 3579,
      "##nnnn": 3580,
      "rules": 3581,
      "cannot": 3582,
      "##ets": 3583,
      "##pg": 3584,
      "##ature": 3585,
      "histor": 3586,
      "concern": 3587,
      "##body": 3588,
      "##any": 3589,
      "##upp": 3590,
      "ge": 3591,
      "wish": 3592,
      "##zzzz": 3593,
      "unb": 3594,
      "each": 3595,
      "##ric": 3596,
      "following": 3597,
      "ign": 3598,
      "##uyuy": 3599,
      "speak": 3600,
      "hate": 3601,
      "american": 3602,
      "means": 3603,
      "happen": 3604,
      "##tyty": 3605,
      "pur": 3606,
      "listed": 3607,
      "result": 3608,
      "sock": 3609,
      "date": 3610,
      "major": 3611,
      "##hip": 3612,
      "four": 3613,
      "god": 3614,
      "answer": 3615,
      "appre": 3616,
      "possible": 3617,
      "fin": 3618,
      "sol": 3619,
      "entire": 3620,
      "regarding": 3621,
      "##ude": 3622,
      "phot": 3623,
      "hey": 3624,
      "##iend": 3625,
      "##ident": 3626,
      "facts": 3627,
      "appreci": 3628,
      "whole": 3629,
      "proper": 3630,
      "aw": 3631,
      "protect": 3632,
      "gay": 3633,
      "past": 3634,
      "jpg": 3635,
      "open": 3636,
      "friend": 3637,
      "common": 3638,
      "attempt": 3639,
      "##cial": 3640,
      "brit": 3641,
      "##uss": 3642,
      "##ime": 3643,
      "die": 3644,
      "var": 3645,
      "topic": 3646,
      "##ont": 3647,
      "##uring": 3648,
      "##ho": 3649,
      "fat": 3650,
      "##stem": 3651,
      "statement": 3652,
      "pri": 3653,
      "##rap": 3654,
      "course": 3655,
      "known": 3656,
      "mentioned": 3657,
      "##bs": 3658,
      "serious": 3659,
      "issues": 3660,
      "object": 3661,
      "detail": 3662,
      "love": 3663,
      "sense": 3664,
      "dont": 3665,
      "##ale": 3666,
      "assum": 3667,
      "23": 3668,
      "##of": 3669,
      "prof": 3670,
      "accord": 3671,
      "organ": 3672,
      "create": 3673,
      "##usion": 3674,
      "gover": 3675,
      "##1111": 3676,
      "germ": 3677,
      "##ene": 3678,
      "include": 3679,
      "miss": 3680,
      "##uth": 3681,
      "dep": 3682,
      "set": 3683,
      "describ": 3684,
      "dou": 3685,
      "system": 3686,
      "category": 3687,
      "creat": 3688,
      "related": 3689,
      "fal": 3690,
      "##line": 3691,
      "seen": 3692,
      "##med": 3693,
      "loc": 3694,
      "watch": 3695,
      "kill": 3696,
      "happy": 3697,
      "ear": 3698,
      "fix": 3699,
      "short": 3700,
      "exact": 3701,
      "contribs": 3702,
      "##cing": 3703,
      "order": 3704,
      "bla": 3705,
      "del": 3706,
      "charact": 3707,
      "##ives": 3708,
      "sand": 3709,
      "nomin": 3710,
      "##fa": 3711,
      "standard": 3712,
      "##wwww": 3713,
      "including": 3714,
      "bitch": 3715,
      "pat": 3716,
      "##cially": 3717,
      "band": 3718,
      "sk": 3719,
      "suck": 3720,
      "diff": 3721,
      "##ins": 3722,
      "line": 3723,
      "govern": 3724,
      "provide": 3725,
      "##fuck": 3726,
      "myself": 3727,
      "##ts": 3728,
      "2005": 3729,
      "notability": 3730,
      "tra": 3731,
      "##istic": 3732,
      "days": 3733,
      "sentence": 3734,
      "learn": 3735,
      "##rupt": 3736,
      "##cu": 3737,
      "##ee": 3738,
      "##ton": 3739,
      "##par": 3740,
      "est": 3741,
      "full": 3742,
      "appropriate": 3743,
      "##ids": 3744,
      "anyway": 3745,
      "bre": 3746,
      "##ness": 3747,
      "100": 3748,
      "nigger": 3749,
      "##ground": 3750,
      "power": 3751,
      "indic": 3752,
      "##ides": 3753,
      "community": 3754,
      "eu": 3755,
      "ban": 3756,
      "bu": 3757,
      "next": 3758,
      "unc": 3759,
      "film": 3760,
      "##outh": 3761,
      "wikiped": 3762,
      "file": 3763,
      "pass": 3764,
      "included": 3765,
      "accus": 3766,
      "arm": 3767,
      "simil": 3768,
      "ru": 3769,
      "critic": 3770,
      "picture": 3771,
      "25": 3772,
      "##ired": 3773,
      "sw": 3774,
      "removing": 3775,
      "civ": 3776,
      "cunt": 3777,
      "alth": 3778,
      "cover": 3779,
      "started": 3780,
      "cult": 3781,
      "beg": 3782,
      "##amm": 3783,
      "199": 3784,
      "color": 3785,
      "changed": 3786,
      "respect": 3787,
      "nice": 3788,
      "##where": 3789,
      "although": 3790,
      "##uation": 3791,
      "stay": 3792,
      "process": 3793,
      "##aa": 3794,
      "dick": 3795,
      "later": 3796,
      "record": 3797,
      "warning": 3798,
      "occ": 3799,
      "faith": 3800,
      "recent": 3801,
      "summary": 3802,
      "run": 3803,
      "looking": 3804,
      "##ories": 3805,
      "search": 3806,
      "relevant": 3807,
      "mil": 3808,
      "according": 3809,
      "deb": 3810,
      "alb": 3811,
      "##ler": 3812,
      "month": 3813,
      "##atur": 3814,
      "compl": 3815,
      "##att": 3816,
      "##ledge": 3817,
      "unblock": 3818,
      "##ird": 3819,
      "qual": 3820,
      "parag": 3821,
      "mod": 3822,
      "intro": 3823,
      "relig": 3824,
      "##app": 3825,
      "deal": 3826,
      "disag": 3827,
      "espe": 3828,
      "bot": 3829,
      "##ries": 3830,
      "perf": 3831,
      "away": 3832,
      "##upid": 3833,
      "moron": 3834,
      "goo": 3835,
      "##name": 3836,
      "official": 3837,
      "anti": 3838,
      "##ior": 3839,
      "##oman": 3840,
      "names": 3841,
      "li": 3842,
      "##gle": 3843,
      "live": 3844,
      "sound": 3845,
      "especially": 3846,
      "previous": 3847,
      "paragraph": 3848,
      "writing": 3849,
      "policies": 3850,
      "truth": 3851,
      "false": 3852,
      "notic": 3853,
      "wrote": 3854,
      "stuff": 3855,
      "##ization": 3856,
      "self": 3857,
      "taken": 3858,
      "pen": 3859,
      "currently": 3860,
      "claims": 3861,
      "attacks": 3862,
      "##ived": 3863,
      "able": 3864,
      "position": 3865,
      "mist": 3866,
      "everyone": 3867,
      "interested": 3868,
      "country": 3869,
      "##ended": 3870,
      "fail": 3871,
      "bro": 3872,
      "##ner": 3873,
      "improve": 3874,
      "uk": 3875,
      "##ising": 3876,
      "fut": 3877,
      "fag": 3878,
      "child": 3879,
      "2006": 3880,
      "##ross": 3881,
      "abs": 3882,
      "repe": 3883,
      "und": 3884,
      "ep": 3885,
      "##te": 3886,
      "quot": 3887,
      "sort": 3888,
      "background": 3889,
      "##hn": 3890,
      "mark": 3891,
      "##ork": 3892,
      "within": 3893,
      "wasn": 3894,
      "##ield": 3895,
      "univers": 3896,
      "##lling": 3897,
      "equ": 3898,
      "wanted": 3899,
      "certainly": 3900,
      "gl": 3901,
      "today": 3902,
      "tot": 3903,
      "pa": 3904,
      "music": 3905,
      "single": 3906,
      "below": 3907,
      "##fully": 3908,
      "jun": 3909,
      "during": 3910,
      "##sel": 3911,
      "err": 3912,
      "art": 3913,
      "remember": 3914,
      "itself": 3915,
      "appears": 3916,
      "similar": 3917,
      "threat": 3918,
      "##tty": 3919,
      "##iot": 3920,
      "##miss": 3921,
      "##iment": 3922,
      "##uly": 3923,
      "##com": 3924,
      "wonder": 3925,
      "completely": 3926,
      "arb": 3927,
      "game": 3928,
      "due": 3929,
      "air": 3930,
      "np": 3931,
      "bann": 3932,
      "##onse": 3933,
      "000": 3934,
      "##enced": 3935,
      "came": 3936,
      "stupid": 3937,
      "##uppet": 3938,
      "tech": 3939,
      "unless": 3940,
      "books": 3941,
      "pretty": 3942,
      "published": 3943,
      "everything": 3944,
      "behav": 3945,
      "repla": 3946,
      "week": 3947,
      "sandbox": 3948,
      "ident": 3949,
      "involved": 3950,
      "ah": 3951,
      "ta": 3952,
      "##oid": 3953,
      "edited": 3954,
      "scient": 3955,
      "gree": 3956,
      "guess": 3957,
      "##leg": 3958,
      "jud": 3959,
      "##pr": 3960,
      "therefore": 3961,
      "den": 3962,
      "##mber": 3963,
      "lic": 3964,
      "explan": 3965,
      "##ases": 3966,
      "##ification": 3967,
      "pie": 3968,
      "looks": 3969,
      "guy": 3970,
      "administrator": 3971,
      "typ": 3972,
      "##iving": 3973,
      "mult": 3974,
      "descript": 3975,
      "##ned": 3976,
      "##ange": 3977,
      "##son": 3978,
      "contact": 3979,
      "controvers": 3980,
      "euro": 3981,
      "city": 3982,
      "party": 3983,
      "ye": 3984,
      "##lict": 3985,
      "mill": 3986,
      "bar": 3987,
      "hour": 3988,
      "##ains": 3989,
      "cap": 3990,
      "##ging": 3991,
      "docu": 3992,
      "accur": 3993,
      "phil": 3994,
      "##velop": 3995,
      "response": 3996,
      "port": 3997,
      "##idd": 3998,
      "google": 3999,
      "future": 4000,
      "dam": 4001,
      "##ane": 4002,
      "##amb": 4003,
      "disagree": 4004,
      "obviously": 4005,
      "##ctions": 4006,
      "##ored": 4007,
      "argument": 4008,
      "asked": 4009,
      "government": 4010,
      "unf": 4011,
      "reading": 4012,
      "fig": 4013,
      "##ina": 4014,
      "ago": 4015,
      "wa": 4016,
      "##acy": 4017,
      "##ration": 4018,
      "ste": 4019,
      "small": 4020,
      "black": 4021,
      "west": 4022,
      "admins": 4023,
      "develop": 4024,
      "gre": 4025,
      "##roject": 4026,
      "##ulation": 4027,
      "eth": 4028,
      "united": 4029,
      "##wise": 4030,
      "ur": 4031,
      "respond": 4032,
      "quote": 4033,
      "necess": 4034,
      "email": 4035,
      "placed": 4036,
      "entry": 4037,
      "tro": 4038,
      "side": 4039,
      "ed": 4040,
      "conflict": 4041,
      "cal": 4042,
      "##page": 4043,
      "##ury": 4044,
      "##iet": 4045,
      "talking": 4046,
      "john": 4047,
      "##ending": 4048,
      "reply": 4049,
      "knowledge": 4050,
      "rac": 4051,
      "wikiproject": 4052,
      "posted": 4053,
      "hy": 4054,
      "signific": 4055,
      "##wards": 4056,
      "home": 4057,
      "mag": 4058,
      "white": 4059,
      "pig": 4060,
      "##ese": 4061,
      "2008": 4062,
      "cred": 4063,
      "##na": 4064,
      "##used": 4065,
      "2007": 4066,
      "useful": 4067,
      "##ially": 4068,
      "hon": 4069,
      "##atever": 4070,
      "british": 4071,
      "alm": 4072,
      "##got": 4073,
      "political": 4074,
      "disrupt": 4075,
      "working": 4076,
      "exactly": 4077,
      "whatever": 4078,
      "nam": 4079,
      "##log": 4080,
      "biograph": 4081,
      "along": 4082,
      "regards": 4083,
      "took": 4084,
      "particular": 4085,
      "##ient": 4086,
      "##ants": 4087,
      "upd": 4088,
      "##iple": 4089,
      "worth": 4090,
      "king": 4091,
      "mr": 4092,
      "human": 4093,
      "##tm": 4094,
      "appreciate": 4095,
      "noticed": 4096,
      "techn": 4097,
      "meaning": 4098,
      "##ator": 4099,
      "##selves": 4100,
      "##con": 4101,
      "##ouse": 4102,
      "conv": 4103,
      "prim": 4104,
      "reasons": 4105,
      "hold": 4106,
      "dispute": 4107,
      "introdu": 4108,
      "except": 4109,
      "hit": 4110,
      "large": 4111,
      "purp": 4112,
      "five": 4113,
      "##resent": 4114,
      "da": 4115,
      "##ital": 4116,
      "enj": 4117,
      "##ogn": 4118,
      "autom": 4119,
      "##ata": 4120,
      "deleting": 4121,
      "##olution": 4122,
      "strong": 4123,
      "##val": 4124,
      "##ales": 4125,
      "##ively": 4126,
      "europe": 4127,
      "vis": 4128,
      "effect": 4129,
      "criticism": 4130,
      "lack": 4131,
      "los": 4132,
      "##ling": 4133,
      "##umb": 4134,
      "##onym": 4135,
      "civil": 4136,
      "banned": 4137,
      "soon": 4138,
      "##get": 4139,
      "addition": 4140,
      "##eng": 4141,
      "death": 4142,
      "needed": 4143,
      "username": 4144,
      "hom": 4145,
      "##utes": 4146,
      "reverting": 4147,
      "often": 4148,
      "valid": 4149,
      "##und": 4150,
      "foot": 4151,
      "provided": 4152,
      "members": 4153,
      "russ": 4154,
      "appro": 4155,
      "cou": 4156,
      "rule": 4157,
      "haven": 4158,
      "problems": 4159,
      "##iter": 4160,
      "company": 4161,
      "##bt": 4162,
      "##by": 4163,
      "story": 4164,
      "confir": 4165,
      "status": 4166,
      "##mit": 4167,
      "incor": 4168,
      "##tered": 4169,
      "jan": 4170,
      "##ained": 4171,
      "##iness": 4172,
      "##aged": 4173,
      "almost": 4174,
      "##ivid": 4175,
      "fine": 4176,
      "cheers": 4177,
      "stated": 4178,
      "##igned": 4179,
      "##ley": 4180,
      "become": 4181,
      "##ext": 4182,
      "mass": 4183,
      "##imes": 4184,
      "vandalize": 4185,
      "ill": 4186,
      "npov": 4187,
      "lim": 4188,
      "character": 4189,
      "tried": 4190,
      "ann": 4191,
      "explanation": 4192,
      "##ok": 4193,
      "obs": 4194,
      "context": 4195,
      "type": 4196,
      "##ortun": 4197,
      "guys": 4198,
      "enjoy": 4199,
      "##de": 4200,
      "moder": 4201,
      "##ush": 4202,
      "vide": 4203,
      "otherwise": 4204,
      "points": 4205,
      "taking": 4206,
      "##rael": 4207,
      "minor": 4208,
      "transl": 4209,
      "song": 4210,
      "access": 4211,
      "##urch": 4212,
      "198": 4213,
      "recently": 4214,
      "promot": 4215,
      "ps": 4216,
      "generally": 4217,
      "##atically": 4218,
      "israel": 4219,
      "separ": 4220,
      "definition": 4221,
      "##ared": 4222,
      "level": 4223,
      "description": 4224,
      "recogn": 4225,
      "team": 4226,
      "terms": 4227,
      "indeed": 4228,
      "individ": 4229,
      "##go": 4230,
      "uploaded": 4231,
      "##por": 4232,
      "cited": 4233,
      "aff": 4234,
      "saw": 4235,
      "likely": 4236,
      "alone": 4237,
      "piece": 4238,
      "citation": 4239,
      "experi": 4240,
      "close": 4241,
      "tab": 4242,
      "interesting": 4243,
      "##ternal": 4244,
      "ey": 4245,
      "super": 4246,
      "appar": 4247,
      "ren": 4248,
      "emp": 4249,
      "htm": 4250,
      "anal": 4251,
      "family": 4252,
      "##uted": 4253,
      "area": 4254,
      "experiment": 4255,
      "verif": 4256,
      "shows": 4257,
      "aware": 4258,
      "##que": 4259,
      "pract": 4260,
      "sucks": 4261,
      "##orn": 4262,
      "views": 4263,
      "avoid": 4264,
      "sus": 4265,
      "net": 4266,
      "box": 4267,
      "##ili": 4268,
      "##co": 4269,
      "idiot": 4270,
      "dog": 4271,
      "##ream": 4272,
      "christian": 4273,
      "contr": 4274,
      "2004": 4275,
      "special": 4276,
      "##imate": 4277,
      "tags": 4278,
      "fan": 4279,
      "actual": 4280,
      "apolog": 4281,
      "university": 4282,
      "works": 4283,
      "rational": 4284,
      "30": 4285,
      "##aper": 4286,
      "fish": 4287,
      "lab": 4288,
      "individual": 4289,
      "aug": 4290,
      "church": 4291,
      "event": 4292,
      "cite": 4293,
      "decide": 4294,
      "third": 4295,
      "sourced": 4296,
      "prefer": 4297,
      "theory": 4298,
      "##oph": 4299,
      "contributing": 4300,
      "internet": 4301,
      "nons": 4302,
      "##ipp": 4303,
      "##inc": 4304,
      "##more": 4305,
      "cat": 4306,
      "##iction": 4307,
      "##dd": 4308,
      "action": 4309,
      "external": 4310,
      "german": 4311,
      "conn": 4312,
      "##ha": 4313,
      "##erv": 4314,
      "##alf": 4315,
      "##gy": 4316,
      "press": 4317,
      "attention": 4318,
      "simple": 4319,
      "document": 4320,
      "proof": 4321,
      "##using": 4322,
      "##ama": 4323,
      "possib": 4324,
      "##ourn": 4325,
      "##ren": 4326,
      "fight": 4327,
      "oper": 4328,
      "pet": 4329,
      "expect": 4330,
      "south": 4331,
      "subst": 4332,
      "clar": 4333,
      "moved": 4334,
      "origin": 4335,
      "science": 4336,
      "told": 4337,
      "wouldn": 4338,
      "light": 4339,
      "##ister": 4340,
      "##ball": 4341,
      "themselves": 4342,
      "camp": 4343,
      "##ob": 4344,
      "serv": 4345,
      "##uc": 4346,
      "thus": 4347,
      "click": 4348,
      "various": 4349,
      "##ump": 4350,
      "##omen": 4351,
      "##aining": 4352,
      "dra": 4353,
      "meet": 4354,
      "quick": 4355,
      "##itive": 4356,
      "##lex": 4357,
      "aren": 4358,
      "mot": 4359,
      "##iod": 4360,
      "proposed": 4361,
      "went": 4362,
      "effort": 4363,
      "profess": 4364,
      "ga": 4365,
      "allowed": 4366,
      "##ng": 4367,
      "##gress": 4368,
      "citations": 4369,
      "jewish": 4370,
      "shouldn": 4371,
      "cir": 4372,
      "pun": 4373,
      "##adem": 4374,
      "elect": 4375,
      "##reme": 4376,
      "particip": 4377,
      "job": 4378,
      "rece": 4379,
      "##erely": 4380,
      "fav": 4381,
      "actions": 4382,
      "##zer": 4383,
      "clean": 4384,
      "edu": 4385,
      "afd": 4386,
      "##nnnnnnnn": 4387,
      "##ined": 4388,
      "cy": 4389,
      "wait": 4390,
      "##ror": 4391,
      "prev": 4392,
      "##ablish": 4393,
      "coll": 4394,
      "ones": 4395,
      "bias": 4396,
      "##ots": 4397,
      "##izing": 4398,
      "represent": 4399,
      "face": 4400,
      "aust": 4401,
      "tog": 4402,
      "album": 4403,
      "sites": 4404,
      "sockp": 4405,
      "##edic": 4406,
      "indep": 4407,
      "boy": 4408,
      "bur": 4409,
      "ang": 4410,
      "assert": 4411,
      "##over": 4412,
      "insert": 4413,
      "social": 4414,
      "##fuckfuck": 4415,
      "win": 4416,
      "belong": 4417,
      "colle": 4418,
      "establish": 4419,
      "mother": 4420,
      "period": 4421,
      "plan": 4422,
      "hours": 4423,
      "2009": 4424,
      "sil": 4425,
      "together": 4426,
      "series": 4427,
      "freed": 4428,
      "##uyuyuyuy": 4429,
      "##bert": 4430,
      "nonsense": 4431,
      "milit": 4432,
      "##lam": 4433,
      "creating": 4434,
      "naz": 4435,
      "avail": 4436,
      "##zzzzzzzz": 4437,
      "independ": 4438,
      "##tytytyty": 4439,
      "ele": 4440,
      "longer": 4441,
      "ignor": 4442,
      "eat": 4443,
      "clos": 4444,
      "##itted": 4445,
      "absol": 4446,
      "himself": 4447,
      "mal": 4448,
      "##rain": 4449,
      "##ully": 4450,
      "bull": 4451,
      "wid": 4452,
      "##33": 4453,
      "##ites": 4454,
      "dy": 4455,
      "rid": 4456,
      "##side": 4457,
      "epis": 4458,
      "##soci": 4459,
      "space": 4460,
      "##uu": 4461,
      "contest": 4462,
      "2010": 4463,
      "living": 4464,
      "##lu": 4465,
      "##ensive": 4466,
      "worked": 4467,
      "happened": 4468,
      "##crap": 4469,
      "opinions": 4470,
      "seriously": 4471,
      "repub": 4472,
      "er": 4473,
      "freedom": 4474,
      "automatically": 4475,
      "##ison": 4476,
      "mom": 4477,
      "field": 4478,
      "meant": 4479,
      "50": 4480,
      "supposed": 4481,
      "##ny": 4482,
      "##ency": 4483,
      "apr": 4484,
      "build": 4485,
      "coun": 4486,
      "vol": 4487,
      "bring": 4488,
      "doubt": 4489,
      "bal": 4490,
      "##onymous": 4491,
      "episod": 4492,
      "comput": 4493,
      "progr": 4494,
      "helpful": 4495,
      "hu": 4496,
      "tild": 4497,
      "manual": 4498,
      "break": 4499,
      "##apan": 4500,
      "lol": 4501,
      "##onst": 4502,
      "goes": 4503,
      "historical": 4504,
      "ethn": 4505,
      "##crapcrap": 4506,
      "pal": 4507,
      "##atic": 4508,
      "##ularly": 4509,
      "enc": 4510,
      "calling": 4511,
      "republic": 4512,
      "27": 4513,
      "norm": 4514,
      "significant": 4515,
      "sat": 4516,
      "neg": 4517,
      "cens": 4518,
      "##ma": 4519,
      "biased": 4520,
      "##lim": 4521,
      "accepted": 4522,
      "personally": 4523,
      "decl": 4524,
      "associ": 4525,
      "##rie": 4526,
      "among": 4527,
      "legal": 4528,
      "comes": 4529,
      "north": 4530,
      "lib": 4531,
      "dev": 4532,
      "##add": 4533,
      "sections": 4534,
      "feb": 4535,
      "incorrect": 4536,
      "rights": 4537,
      "video": 4538,
      "connect": 4539,
      "academ": 4540,
      "cause": 4541,
      "sal": 4542,
      "absolute": 4543,
      "japan": 4544,
      "august": 4545,
      "tildes": 4546,
      "poor": 4547,
      "product": 4548,
      "yeah": 4549,
      "necessary": 4550,
      "##etic": 4551,
      "july": 4552,
      "creation": 4553,
      "indicate": 4554,
      "unre": 4555,
      "phys": 4556,
      "administrators": 4557,
      "##orial": 4558,
      "court": 4559,
      "begin": 4560,
      "di": 4561,
      "196": 4562,
      "violation": 4563,
      "##sp": 4564,
      "months": 4565,
      "statements": 4566,
      "earl": 4567,
      "##pret": 4568,
      "##itely": 4569,
      "schol": 4570,
      "accurate": 4571,
      "available": 4572,
      "##back": 4573,
      "##mission": 4574,
      "roman": 4575,
      "sn": 4576,
      "dest": 4577,
      "debate": 4578,
      "ment": 4579,
      "##arily": 4580,
      "express": 4581,
      "upon": 4582,
      "islam": 4583,
      "business": 4584,
      "assume": 4585,
      "##11111111": 4586,
      "greek": 4587,
      "multiple": 4588,
      "india": 4589,
      "perfect": 4590,
      "preced": 4591,
      "constit": 4592,
      "ce": 4593,
      "insult": 4594,
      "dav": 4595,
      "oct": 4596,
      "rad": 4597,
      "##gar": 4598,
      "width": 4599,
      "canad": 4600,
      "march": 4601,
      "##unch": 4602,
      "journ": 4603,
      "men": 4604,
      "##ai": 4605,
      "##iab": 4606,
      "altern": 4607,
      "usually": 4608,
      "geor": 4609,
      "rew": 4610,
      "##row": 4611,
      "format": 4612,
      "batt": 4613,
      "san": 4614,
      "blocking": 4615,
      "repeated": 4616,
      "data": 4617,
      "messages": 4618,
      "harass": 4619,
      "details": 4620,
      "syn": 4621,
      "##han": 4622,
      "reach": 4623,
      "##ructive": 4624,
      "##anda": 4625,
      "anonymous": 4626,
      "purpose": 4627,
      "suc": 4628,
      "priv": 4629,
      "##ns": 4630,
      "concl": 4631,
      "##ney": 4632,
      "tv": 4633,
      "##sex": 4634,
      "tagged": 4635,
      "pill": 4636,
      "##iation": 4637,
      "modern": 4638,
      "propos": 4639,
      "##oice": 4640,
      "##ones": 4641,
      "du": 4642,
      "invest": 4643,
      "mov": 4644,
      "arab": 4645,
      "continu": 4646,
      "none": 4647,
      "aids": 4648,
      "##wwwwwwww": 4649,
      "blog": 4650,
      "separate": 4651,
      "mur": 4652,
      "wank": 4653,
      "197": 4654,
      "explaining": 4655,
      "##view": 4656,
      "asking": 4657,
      "situation": 4658,
      "pot": 4659,
      "bark": 4660,
      "irre": 4661,
      "warring": 4662,
      "behavior": 4663,
      "barn": 4664,
      "##for": 4665,
      "culture": 4666,
      "jim": 4667,
      "border": 4668,
      "archive": 4669,
      "honest": 4670,
      "hol": 4671,
      "##ances": 4672,
      "##px": 4673,
      "heard": 4674,
      "##eal": 4675,
      "prove": 4676,
      "changing": 4677,
      "##fc": 4678,
      "##omm": 4679,
      "house": 4680,
      "quality": 4681,
      "circ": 4682,
      "##oss": 4683,
      "##ron": 4684,
      "arbit": 4685,
      "##ters": 4686,
      "##star": 4687,
      "dece": 4688,
      "advert": 4689,
      "online": 4690,
      "primary": 4691,
      "infobox": 4692,
      "##mb": 4693,
      "rationale": 4694,
      "##oint": 4695,
      "##oney": 4696,
      "retur": 4697,
      "extreme": 4698,
      "apparently": 4699,
      "penis": 4700,
      "million": 4701,
      "military": 4702,
      "muslim": 4703,
      "bill": 4704,
      "##uary": 4705,
      "born": 4706,
      "concept": 4707,
      "directly": 4708,
      "terror": 4709,
      "wikipedian": 4710,
      "##aint": 4711,
      "##iam": 4712,
      "control": 4713,
      "early": 4714,
      "existing": 4715,
      "##rew": 4716,
      "educ": 4717,
      "vot": 4718,
      "couple": 4719,
      "##ench": 4720,
      "##itch": 4721,
      "26": 4722,
      "offer": 4723,
      "countries": 4724,
      "replace": 4725,
      "##ka": 4726,
      "club": 4727,
      "contribute": 4728,
      "liter": 4729,
      "land": 4730,
      "##he": 4731,
      "unfortun": 4732,
      "html": 4733,
      "wanker": 4734,
      "##tical": 4735,
      "june": 4736,
      "gets": 4737,
      "scientific": 4738,
      "treat": 4739,
      "dead": 4740,
      "interpret": 4741,
      "confirm": 4742,
      "sockpuppet": 4743,
      "##ential": 4744,
      "uses": 4745,
      "difference": 4746,
      "force": 4747,
      "shall": 4748,
      "tut": 4749,
      "##ying": 4750,
      "hear": 4751,
      "final": 4752,
      "##ta": 4753,
      "sla": 4754,
      "vict": 4755,
      "rock": 4756,
      "##icult": 4757,
      "##ught": 4758,
      "expand": 4759,
      "##ster": 4760,
      "warn": 4761,
      "photo": 4762,
      "2012": 4763,
      "##hole": 4764,
      "star": 4765,
      "activ": 4766,
      "inclusion": 4767,
      "jews": 4768,
      "cast": 4769,
      "##ices": 4770,
      "bother": 4771,
      "outside": 4772,
      "numbers": 4773,
      "austral": 4774,
      "pillars": 4775,
      "half": 4776,
      "difficult": 4777,
      "specifically": 4778,
      "disruptive": 4779,
      "described": 4780,
      "28": 4781,
      "##alth": 4782,
      "linked": 4783,
      "error": 4784,
      "vir": 4785,
      "require": 4786,
      "dri": 4787,
      "stub": 4788,
      "##ading": 4789,
      "afric": 4790,
      "pictures": 4791,
      "table": 4792,
      "release": 4793,
      "##ague": 4794,
      "respons": 4795,
      "##ahahahah": 4796,
      "ethnic": 4797,
      "rand": 4798,
      "rele": 4799,
      "cool": 4800,
      "bene": 4801,
      "cath": 4802,
      "phr": 4803,
      "earlier": 4804,
      "vote": 4805,
      "program": 4806,
      "##aries": 4807,
      "##board": 4808,
      "ess": 4809,
      "##ugh": 4810,
      "align": 4811,
      "produce": 4812,
      "possibly": 4813,
      "##ption": 4814,
      "##che": 4815,
      "sometimes": 4816,
      "div": 4817,
      "cocks": 4818,
      "member": 4819,
      "liber": 4820,
      "##put": 4821,
      "##ham": 4822,
      "sept": 4823,
      "flag": 4824,
      "##aster": 4825,
      "##iding": 4826,
      "##aw": 4827,
      "##ural": 4828,
      "deser": 4829,
      "particularly": 4830,
      "readers": 4831,
      "cases": 4832,
      "##erous": 4833,
      "##ires": 4834,
      "blank": 4835,
      "international": 4836,
      "takes": 4837,
      "january": 4838,
      "consist": 4839,
      "propag": 4840,
      "arguments": 4841,
      "popular": 4842,
      "tutorial": 4843,
      "stra": 4844,
      "inapp": 4845,
      "dear": 4846,
      "decided": 4847,
      "okay": 4848,
      "lost": 4849,
      "groups": 4850,
      "abuse": 4851,
      "cra": 4852,
      "concerns": 4853,
      "soci": 4854,
      "oppos": 4855,
      "coming": 4856,
      "desp": 4857,
      "former": 4858,
      "##ambig": 4859,
      "shut": 4860,
      "mich": 4861,
      "##ze": 4862,
      "##ety": 4863,
      "cut": 4864,
      "##tw": 4865,
      "decision": 4866,
      "iran": 4867,
      "##atured": 4868,
      "giving": 4869,
      "women": 4870,
      "gave": 4871,
      "##air": 4872,
      "##the": 4873,
      "##shit": 4874,
      "computer": 4875,
      "##olic": 4876,
      "dan": 4877,
      "board": 4878,
      "##ii": 4879,
      "ital": 4880,
      "discussed": 4881,
      "cro": 4882,
      "2011": 4883,
      "focus": 4884,
      "##like": 4885,
      "##ured": 4886,
      "featured": 4887,
      "hor": 4888,
      "step": 4889,
      "finally": 4890,
      "absolutely": 4891,
      "##ffic": 4892,
      "majority": 4893,
      "##ps": 4894,
      "je": 4895,
      "jack": 4896,
      "##ples": 4897,
      "son": 4898,
      "reported": 4899,
      "##ock": 4900,
      "chance": 4901,
      "##ows": 4902,
      "gra": 4903,
      "##itions": 4904,
      "thinking": 4905,
      "asshole": 4906,
      "population": 4907,
      "##itate": 4908,
      "##asc": 4909,
      "##els": 4910,
      "spam": 4911,
      "map": 4912,
      "##ince": 4913,
      "religion": 4914,
      "194": 4915,
      "match": 4916,
      "president": 4917,
      "totally": 4918,
      "journal": 4919,
      "april": 4920,
      "##hod": 4921,
      "tool": 4922,
      "##reed": 4923,
      "standards": 4924,
      "pay": 4925,
      "merely": 4926,
      "america": 4927,
      "putting": 4928,
      "organization": 4929,
      "##medi": 4930,
      "tre": 4931,
      "posts": 4932,
      "neither": 4933,
      "wants": 4934,
      "cand": 4935,
      "##mitted": 4936,
      "##rom": 4937,
      "bir": 4938,
      "##cil": 4939,
      "towards": 4940,
      "##dom": 4941,
      "29": 4942,
      "bab": 4943,
      "mine": 4944,
      "reflect": 4945,
      "century": 4946,
      "##ery": 4947,
      "french": 4948,
      "amount": 4949,
      "events": 4950,
      "friends": 4951,
      "figure": 4952,
      "named": 4953,
      "fall": 4954,
      "benef": 4955,
      "removal": 4956,
      "irrelevant": 4957,
      "advice": 4958,
      "unsigned": 4959,
      "night": 4960,
      "independent": 4961,
      "reader": 4962,
      "trou": 4963,
      "##ished": 4964,
      "indian": 4965,
      "entirely": 4966,
      "mail": 4967,
      "wide": 4968,
      "##ium": 4969,
      "blood": 4970,
      "requesting": 4971,
      "license": 4972,
      "influ": 4973,
      "examples": 4974,
      "##dy": 4975,
      "exc": 4976,
      "##thern": 4977,
      "resol": 4978,
      "children": 4979,
      "##ength": 4980,
      "gir": 4981,
      "##iver": 4982,
      "understanding": 4983,
      "##ological": 4984,
      "bush": 4985,
      "##head": 4986,
      "season": 4987,
      "##istan": 4988,
      "der": 4989,
      "##ges": 4990,
      "total": 4991,
      "40": 4992,
      "econ": 4993,
      "luck": 4994,
      "mistake": 4995,
      "december": 4996,
      "ten": 4997,
      "legit": 4998,
      "sad": 4999,
      "central": 5000,
      "bud": 5001,
      "glo": 5002,
      "##fd": 5003,
      "barnstar": 5004,
      "hes": 5005,
      "unfortunately": 5006,
      "award": 5007,
      "##lt": 5008,
      "inappropriate": 5009,
      "##ox": 5010,
      "##ipple": 5011,
      "highly": 5012,
      "##ober": 5013,
      "posting": 5014,
      "behind": 5015,
      "surpr": 5016,
      "preceding": 5017,
      "forum": 5018,
      "local": 5019,
      "init": 5020,
      "span": 5021,
      "econom": 5022,
      "money": 5023,
      "acceptable": 5024,
      "hitler": 5025,
      "##oobs": 5026,
      "lists": 5027,
      "##work": 5028,
      "##ted": 5029,
      "##antly": 5030,
      "looked": 5031,
      "##uk": 5032,
      "##10": 5033,
      "earth": 5034,
      "service": 5035,
      "october": 5036,
      "gives": 5037,
      "damn": 5038,
      "tom": 5039,
      "age": 5040,
      "##loy": 5041,
      "##iddle": 5042,
      "religious": 5043,
      "##iliar": 5044,
      "moment": 5045,
      "nove": 5046,
      "##lled": 5047,
      "##hh": 5048,
      "appl": 5049,
      "##key": 5050,
      "prevent": 5051,
      "success": 5052,
      "cell": 5053,
      "sem": 5054,
      "nipple": 5055,
      "##oose": 5056,
      "templates": 5057,
      "suspect": 5058,
      "investig": 5059,
      "september": 5060,
      "##abor": 5061,
      "willing": 5062,
      "across": 5063,
      "fund": 5064,
      "games": 5065,
      "immedi": 5066,
      "solid": 5067,
      "david": 5068,
      "jes": 5069,
      "##form": 5070,
      "nobody": 5071,
      "join": 5072,
      "battle": 5073,
      "##ulous": 5074,
      "turk": 5075,
      "verifiable": 5076,
      "##eral": 5077,
      "sounds": 5078,
      "##ips": 5079,
      "##ography": 5080,
      "ba": 5081,
      "relations": 5082,
      "capital": 5083,
      "troll": 5084,
      "november": 5085,
      "easy": 5086,
      "wind": 5087,
      "vertical": 5088,
      "bott": 5089,
      "fill": 5090,
      "##play": 5091,
      "importance": 5092,
      "sam": 5093,
      "bra": 5094,
      "base": 5095,
      "##ica": 5096,
      "##ste": 5097,
      "design": 5098,
      "despite": 5099,
      "00": 5100,
      "results": 5101,
      "##cedon": 5102,
      "method": 5103,
      "##verse": 5104,
      "sov": 5105,
      "controversial": 5106,
      "fire": 5107,
      "##ban": 5108,
      "trust": 5109,
      "study": 5110,
      "disambig": 5111,
      "##unk": 5112,
      "##bal": 5113,
      "town": 5114,
      "##itting": 5115,
      "il": 5116,
      "##ych": 5117,
      "nature": 5118,
      "##fe": 5119,
      "teach": 5120,
      "body": 5121,
      "##to": 5122,
      "nomination": 5123,
      "low": 5124,
      "##ination": 5125,
      "hind": 5126,
      "macedon": 5127,
      "properly": 5128,
      "febru": 5129,
      "yours": 5130,
      "trad": 5131,
      "gone": 5132,
      "mistak": 5133,
      "middle": 5134,
      "##20": 5135,
      "february": 5136,
      "anim": 5137,
      "shown": 5138,
      "knows": 5139,
      "rape": 5140,
      "perform": 5141,
      "apply": 5142,
      "forward": 5143,
      "discussions": 5144,
      "bul": 5145,
      "east": 5146,
      "hur": 5147,
      "listen": 5148,
      "tar": 5149,
      "near": 5150,
      "rfc": 5151,
      "##ats": 5152,
      "missing": 5153,
      "wikipedians": 5154,
      "##ester": 5155,
      "definitely": 5156,
      "expert": 5157,
      "experience": 5158,
      "ground": 5159,
      "accounts": 5160,
      "##zy": 5161,
      "belief": 5162,
      "newsp": 5163,
      "nazi": 5164,
      "recomm": 5165,
      "hyp": 5166,
      "bullshit": 5167,
      "##ana": 5168,
      "##omp": 5169,
      "select": 5170,
      "butt": 5171,
      "racist": 5172,
      "russian": 5173,
      "##iability": 5174,
      "##rict": 5175,
      "bey": 5176,
      "index": 5177,
      "substant": 5178,
      "college": 5179,
      "negative": 5180,
      "sexual": 5181,
      "hop": 5182,
      "##oud": 5183,
      "spl": 5184,
      "blp": 5185,
      "drop": 5186,
      "##sc": 5187,
      "heav": 5188,
      "pick": 5189,
      "##duct": 5190,
      "31": 5191,
      "hun": 5192,
      "noted": 5193,
      "easily": 5194,
      "paper": 5195,
      "frank": 5196,
      "grand": 5197,
      "movement": 5198,
      "basis": 5199,
      "democ": 5200,
      "led": 5201,
      "vill": 5202,
      "york": 5203,
      "##ls": 5204,
      "stick": 5205,
      "195": 5206,
      "protected": 5207,
      "math": 5208,
      "glad": 5209,
      "introduction": 5210,
      "movie": 5211,
      "dom": 5212,
      "##ators": 5213,
      "impl": 5214,
      "explained": 5215,
      "ahead": 5216,
      "episode": 5217,
      "##ends": 5218,
      "btw": 5219,
      "##0s": 5220,
      "water": 5221,
      "propaganda": 5222,
      "##aving": 5223,
      "##tain": 5224,
      "usage": 5225,
      "categories": 5226,
      "western": 5227,
      "prior": 5228,
      "ridic": 5229,
      "dumb": 5230,
      "##ament": 5231,
      "rs": 5232,
      "##ibility": 5233,
      "merge": 5234,
      "protection": 5235,
      "excl": 5236,
      "serb": 5237,
      "jer": 5238,
      "ideas": 5239,
      "##eth": 5240,
      "couldn": 5241,
      "##asing": 5242,
      "faggot": 5243,
      "##itude": 5244,
      "favor": 5245,
      "##cient": 5246,
      "european": 5247,
      "##gest": 5248,
      "comb": 5249,
      "bold": 5250,
      "speedily": 5251,
      "campa": 5252,
      "intention": 5253,
      "guide": 5254,
      "##cur": 5255,
      "sun": 5256,
      "##ec": 5257,
      "required": 5258,
      "basic": 5259,
      "##iting": 5260,
      "##ellig": 5261,
      "football": 5262,
      "dig": 5263,
      "##ware": 5264,
      "##pir": 5265,
      "##port": 5266,
      "##ald": 5267,
      "referenced": 5268,
      "fixed": 5269,
      "bottom": 5270,
      "candid": 5271,
      "##aring": 5272,
      "enter": 5273,
      "argue": 5274,
      "established": 5275,
      "somebody": 5276,
      "guideline": 5277,
      "##ourced": 5278,
      "fool": 5279,
      "familiar": 5280,
      "magaz": 5281,
      "random": 5282,
      "##ming": 5283,
      "roy": 5284,
      "fel": 5285,
      "campaign": 5286,
      "fully": 5287,
      "##oooo": 5288,
      "characters": 5289,
      "alternative": 5290,
      "birth": 5291,
      "##hr": 5292,
      "discussing": 5293,
      "lies": 5294,
      "##ara": 5295,
      "island": 5296,
      "imag": 5297,
      "seeing": 5298,
      "jesus": 5299,
      "bes": 5300,
      "basically": 5301,
      "wondering": 5302,
      "suggested": 5303,
      "suggestion": 5304,
      "speaking": 5305,
      "describe": 5306,
      "warnings": 5307,
      "factual": 5308,
      "wording": 5309,
      "places": 5310,
      "2013": 5311,
      "alleg": 5312,
      "referring": 5313,
      "occur": 5314,
      "encour": 5315,
      "murder": 5316,
      "##0000": 5317,
      "contribution": 5318,
      "demonst": 5319,
      "##kk": 5320,
      "unsourced": 5321,
      "fed": 5322,
      "##ival": 5323,
      "requests": 5324,
      "bast": 5325,
      "fem": 5326,
      "##ship": 5327,
      "ignore": 5328,
      "controversy": 5329,
      "scot": 5330,
      "james": 5331,
      "##ube": 5332,
      "path": 5333,
      "joke": 5334,
      "reasonable": 5335,
      "##king": 5336,
      "front": 5337,
      "psych": 5338,
      "biographies": 5339,
      "##rief": 5340,
      "rich": 5341,
      "##br": 5342,
      "code": 5343,
      "concerned": 5344,
      "approach": 5345,
      "finding": 5346,
      "##now": 5347,
      "broad": 5348,
      "3rr": 5349,
      "##xy": 5350,
      "##how": 5351,
      "remain": 5352,
      "intellig": 5353,
      "ut": 5354,
      "##inese": 5355,
      "incre": 5356,
      "meets": 5357,
      "george": 5358,
      "agreed": 5359,
      "ways": 5360,
      "threaten": 5361,
      "spanish": 5362,
      "beyond": 5363,
      "lie": 5364,
      "##ops": 5365,
      "##ands": 5366,
      "supported": 5367,
      "released": 5368,
      "##ga": 5369,
      "cock": 5370,
      "value": 5371,
      "appreciated": 5372,
      "01": 5373,
      "ach": 5374,
      "frequ": 5375,
      "satis": 5376,
      "academic": 5377,
      "##icit": 5378,
      "prec": 5379,
      "nominated": 5380,
      "fit": 5381,
      "weeks": 5382,
      "compan": 5383,
      "##sequ": 5384,
      "weight": 5385,
      "telling": 5386,
      "deg": 5387,
      "chinese": 5388,
      "active": 5389,
      "communic": 5390,
      "##ceed": 5391,
      "princ": 5392,
      "becom": 5393,
      "##ero": 5394,
      "##anc": 5395,
      "##iel": 5396,
      "showing": 5397,
      "catholic": 5398,
      "##ifying": 5399,
      "became": 5400,
      "grow": 5401,
      "commons": 5402,
      "presented": 5403,
      "##ms": 5404,
      "army": 5405,
      "cocksuck": 5406,
      "##arian": 5407,
      "anymore": 5408,
      "php": 5409,
      "mostly": 5410,
      "tests": 5411,
      "late": 5412,
      "##set": 5413,
      "incident": 5414,
      "##ih": 5415,
      "##ering": 5416,
      "leaving": 5417,
      "photos": 5418,
      "previously": 5419,
      "parts": 5420,
      "cross": 5421,
      "##ouch": 5422,
      "##rian": 5423,
      "considering": 5424,
      "que": 5425,
      "engine": 5426,
      "repeatedly": 5427,
      "##ression": 5428,
      "blat": 5429,
      "destro": 5430,
      "ridiculous": 5431,
      "##lin": 5432,
      "chall": 5433,
      "mad": 5434,
      "interview": 5435,
      "race": 5436,
      "loser": 5437,
      "puppet": 5438,
      "share": 5439,
      "topics": 5440,
      "green": 5441,
      "received": 5442,
      "wales": 5443,
      "##ech": 5444,
      "##ifies": 5445,
      "assist": 5446,
      "brought": 5447,
      "bb": 5448,
      "kore": 5449,
      "lik": 5450,
      "thous": 5451,
      "##atory": 5452,
      "contributors": 5453,
      "ben": 5454,
      "##anks": 5455,
      "imm": 5456,
      "requested": 5457,
      "types": 5458,
      "exists": 5459,
      "agend": 5460,
      "reality": 5461,
      "funny": 5462,
      "metal": 5463,
      "behavi": 5464,
      "##ingu": 5465,
      "##cell": 5466,
      "china": 5467,
      "manner": 5468,
      "thats": 5469,
      "spelling": 5470,
      "claimed": 5471,
      "bastard": 5472,
      "struct": 5473,
      "trouble": 5474,
      "##af": 5475,
      "turn": 5476,
      "authority": 5477,
      "ener": 5478,
      "checking": 5479,
      "reviewed": 5480,
      "unlike": 5481,
      "host": 5482,
      "society": 5483,
      "55": 5484,
      "##rary": 5485,
      "quotes": 5486,
      "06": 5487,
      "judge": 5488,
      "gramm": 5489,
      "ani": 5490,
      "somewhere": 5491,
      "kept": 5492,
      "eyes": 5493,
      "squ": 5494,
      "police": 5495,
      "arbitration": 5496,
      "immediately": 5497,
      "vs": 5498,
      "additional": 5499,
      "paul": 5500,
      "##12": 5501,
      "2014": 5502,
      "accusations": 5503,
      "mart": 5504,
      "conduct": 5505,
      "key": 5506,
      "extremely": 5507,
      "ball": 5508,
      "##au": 5509,
      "attrib": 5510,
      "natur": 5511,
      "##esh": 5512,
      "hopefully": 5513,
      "08": 5514,
      "wikim": 5515,
      "japanese": 5516,
      "brief": 5517,
      "##what": 5518,
      "irish": 5519,
      "##ko": 5520,
      "canada": 5521,
      "advertising": 5522,
      "##uses": 5523,
      "realize": 5524,
      "phrase": 5525,
      "huge": 5526,
      "length": 5527,
      "rfa": 5528,
      "size": 5529,
      "##omb": 5530,
      "item": 5531,
      "health": 5532,
      "william": 5533,
      "biography": 5534,
      "via": 5535,
      "stalk": 5536,
      "permission": 5537,
      "uploading": 5538,
      "websites": 5539,
      "center": 5540,
      "##urity": 5541,
      "knew": 5542,
      "mos": 5543,
      "persons": 5544,
      "philos": 5545,
      "##my": 5546,
      "aspect": 5547,
      "intended": 5548,
      "instit": 5549,
      "update": 5550,
      "notes": 5551,
      "##ulations": 5552,
      "##anted": 5553,
      "region": 5554,
      "rob": 5555,
      "role": 5556,
      "practice": 5557,
      "father": 5558,
      "noes": 5559,
      "fucker": 5560,
      "##ael": 5561,
      "compet": 5562,
      "behaviour": 5563,
      "##ja": 5564,
      "thread": 5565,
      "##ris": 5566,
      "inn": 5567,
      "##abag": 5568,
      "triv": 5569,
      "proposal": 5570,
      "99": 5571,
      "ack": 5572,
      "peer": 5573,
      "sport": 5574,
      "misle": 5575,
      "nation": 5576,
      "claiming": 5577,
      "secondary": 5578,
      "hesitate": 5579,
      "##ias": 5580,
      "revers": 5581,
      "reverts": 5582,
      "encyclopedic": 5583,
      "##book": 5584,
      "##oring": 5585,
      "files": 5586,
      "constructive": 5587,
      "beginning": 5588,
      "soft": 5589,
      "teabag": 5590,
      "regardless": 5591,
      "db": 5592,
      "gon": 5593,
      "feed": 5594,
      "blue": 5595,
      "mid": 5596,
      "companies": 5597,
      "crap": 5598,
      "ancient": 5599,
      "whose": 5600,
      "starting": 5601,
      "kingdom": 5602,
      "sou": 5603,
      "stating": 5604,
      "##ried": 5605,
      "fucksex": 5606,
      "england": 5607,
      "instance": 5608,
      "send": 5609,
      "##isions": 5610,
      "wars": 5611,
      "##nnnnnnnnnnnnnnnn": 5612,
      "nar": 5613,
      "anc": 5614,
      "moving": 5615,
      "freezer": 5616,
      "killed": 5617,
      "limited": 5618,
      "ms": 5619,
      "##action": 5620,
      "stre": 5621,
      "visit": 5622,
      "legitimate": 5623,
      "achie": 5624,
      "wow": 5625,
      "##rated": 5626,
      "##itable": 5627,
      "fore": 5628,
      "suffic": 5629,
      "gold": 5630,
      "193": 5631,
      "disambiguation": 5632,
      "gun": 5633,
      "meas": 5634,
      "licens": 5635,
      "##fuckfuckfuckfuck": 5636,
      "alex": 5637,
      "six": 5638,
      "label": 5639,
      "et": 5640,
      "kar": 5641,
      "##ds": 5642,
      "resour": 5643,
      "conserv": 5644,
      "##uyuyuyuyuyuyuyuy": 5645,
      "counter": 5646,
      "satisf": 5647,
      "sar": 5648,
      "tend": 5649,
      "register": 5650,
      "twat": 5651,
      "##ino": 5652,
      "doct": 5653,
      "happens": 5654,
      "redu": 5655,
      "failed": 5656,
      "eye": 5657,
      "##ya": 5658,
      "input": 5659,
      "convers": 5660,
      "amaz": 5661,
      "deter": 5662,
      "park": 5663,
      "agenda": 5664,
      "##esis": 5665,
      "laws": 5666,
      "involve": 5667,
      "##ped": 5668,
      "##aging": 5669,
      "##eless": 5670,
      "peace": 5671,
      "played": 5672,
      "germany": 5673,
      "sett": 5674,
      "##tytytytytytytyty": 5675,
      "gar": 5676,
      "retard": 5677,
      "f5": 5678,
      "##ius": 5679,
      "sho": 5680,
      "straight": 5681,
      "shared": 5682,
      "helpme": 5683,
      "armen": 5684,
      "students": 5685,
      "depart": 5686,
      "collabor": 5687,
      "03": 5688,
      "71": 5689,
      "##erson": 5690,
      "##apers": 5691,
      "challen": 5692,
      "##eness": 5693,
      "suggestions": 5694,
      "numerous": 5695,
      "positive": 5696,
      "hig": 5697,
      "ii": 5698,
      "discover": 5699,
      "return": 5700,
      "##list": 5701,
      "##ously": 5702,
      "reput": 5703,
      "anth": 5704,
      "includes": 5705,
      "refers": 5706,
      "occup": 5707,
      "contrad": 5708,
      "acknow": 5709,
      "ancest": 5710,
      "hot": 5711,
      "pus": 5712,
      "##rate": 5713,
      "##gin": 5714,
      "energy": 5715,
      "68": 5716,
      "86": 5717,
      "##ford": 5718,
      "spir": 5719,
      "refrain": 5720,
      "sold": 5721,
      "office": 5722,
      "citing": 5723,
      "michael": 5724,
      "choice": 5725,
      "languages": 5726,
      "##lear": 5727,
      "useless": 5728,
      "commer": 5729,
      "magazine": 5730,
      "van": 5731,
      "##ken": 5732,
      "##ays": 5733,
      "cant": 5734,
      "amb": 5735,
      "security": 5736,
      "02": 5737,
      "mc": 5738,
      "pure": 5739,
      "admit": 5740,
      "print": 5741,
      "roll": 5742,
      "harm": 5743,
      "connection": 5744,
      "##anced": 5745,
      "##amas": 5746,
      "choose": 5747,
      "resolution": 5748,
      "##imin": 5749,
      "additions": 5750,
      "professional": 5751,
      "##ae": 5752,
      "##ky": 5753,
      "thoughts": 5754,
      "##reg": 5755,
      "intent": 5756,
      "36": 5757,
      "touch": 5758,
      "##mp": 5759,
      "##rog": 5760,
      "display": 5761,
      "philipp": 5762,
      "##crapcrapcrapcrap": 5763,
      "push": 5764,
      "sup": 5765,
      "progress": 5766,
      "confused": 5767,
      "medical": 5768,
      "##iber": 5769,
      "applic": 5770,
      "robert": 5771,
      "trib": 5772,
      "speech": 5773,
      "compar": 5774,
      "tone": 5775,
      "young": 5776,
      "keeping": 5777,
      "ple": 5778,
      "ult": 5779,
      "##bar": 5780,
      "##ask": 5781,
      "threats": 5782,
      "##stream": 5783,
      "chat": 5784,
      "global": 5785,
      "##nd": 5786,
      "track": 5787,
      "updated": 5788,
      "ire": 5789,
      "##cer": 5790,
      "##atives": 5791,
      "distin": 5792,
      "##orship": 5793,
      "##hib": 5794,
      "##lement": 5795,
      "champ": 5796,
      "undo": 5797,
      "empire": 5798,
      "fairly": 5799,
      "45": 5800,
      "##ilt": 5801,
      "spread": 5802,
      "plus": 5803,
      "checked": 5804,
      "alban": 5805,
      "##zzzzzzzzzzzzzzzz": 5806,
      "sens": 5807,
      "##isation": 5808,
      "inte": 5809,
      "citiz": 5810,
      "titles": 5811,
      "palest": 5812,
      "sir": 5813,
      "anywhere": 5814,
      "referred": 5815,
      "minutes": 5816,
      "48": 5817,
      "##fffa": 5818,
      "strongly": 5819,
      "f5fffa": 5820,
      "09": 5821,
      "pain": 5822,
      "county": 5823,
      "copyrighted": 5824,
      "tradition": 5825,
      "wikimedia": 5826,
      "05": 5827,
      "americans": 5828,
      "##rite": 5829,
      "beat": 5830,
      "##usive": 5831,
      "insist": 5832,
      "watching": 5833,
      "pointed": 5834,
      "odd": 5835,
      "pred": 5836,
      "offensive": 5837,
      "african": 5838,
      "75": 5839,
      "##erning": 5840,
      "##entially": 5841,
      "forgot": 5842,
      "forget": 5843,
      "homo": 5844,
      "philosoph": 5845,
      "ireland": 5846,
      "hund": 5847,
      "nav": 5848,
      "range": 5849,
      "conspir": 5850,
      "accused": 5851,
      "besides": 5852,
      "##orth": 5853,
      "noticeboard": 5854,
      "oppose": 5855,
      "double": 5856,
      "bands": 5857,
      "bunch": 5858,
      "complain": 5859,
      "yout": 5860,
      "areas": 5861,
      "indust": 5862,
      "croat": 5863,
      "naming": 5864,
      "recommend": 5865,
      "felt": 5866,
      "fol": 5867,
      "kur": 5868,
      "mix": 5869,
      "pak": 5870,
      "##xual": 5871,
      "##22": 5872,
      "chart": 5873,
      "##istics": 5874,
      "misleading": 5875,
      "cry": 5876,
      "##enty": 5877,
      "development": 5878,
      "hundred": 5879,
      "##point": 5880,
      "union": 5881,
      "brown": 5882,
      "closed": 5883,
      "##1111111111111111": 5884,
      "##light": 5885,
      "reject": 5886,
      "adop": 5887,
      "truly": 5888,
      "clicking": 5889,
      "education": 5890,
      "pd": 5891,
      "logic": 5892,
      "hat": 5893,
      "hence": 5894,
      "##idents": 5895,
      "scre": 5896,
      "concerning": 5897,
      "elsewhere": 5898,
      "playing": 5899,
      "higher": 5900,
      "##ience": 5901,
      "##18": 5902,
      "repl": 5903,
      "##lying": 5904,
      "##ife": 5905,
      "usa": 5906,
      "acting": 5907,
      "protest": 5908,
      "normal": 5909,
      "rude": 5910,
      "territ": 5911,
      "arbcom": 5912,
      "building": 5913,
      "90": 5914,
      "dark": 5915,
      "fasc": 5916,
      "whom": 5917,
      "ens": 5918,
      "followed": 5919,
      "tax": 5920,
      "employ": 5921,
      "circum": 5922,
      "native": 5923,
      "alle": 5924,
      "cost": 5925,
      "studies": 5926,
      "##ki": 5927,
      "myth": 5928,
      "perfectly": 5929,
      "70": 5930,
      "##bn": 5931,
      "##77": 5932,
      "poop": 5933,
      "mainstream": 5934,
      "replaced": 5935,
      "##xic": 5936,
      "evolution": 5937,
      "apologize": 5938,
      "semi": 5939,
      "lond": 5940,
      "worse": 5941,
      "##000": 5942,
      "fellow": 5943,
      "running": 5944,
      "destroy": 5945,
      "youtube": 5946,
      "died": 5947,
      "##19": 5948,
      "subjects": 5949,
      "heart": 5950,
      "slight": 5951,
      "efforts": 5952,
      "unrel": 5953,
      "rap": 5954,
      "waste": 5955,
      "##under": 5956,
      "helping": 5957,
      "secret": 5958,
      "##adding": 5959,
      "ny": 5960,
      "##zen": 5961,
      "comprom": 5962,
      "royal": 5963,
      "##iant": 5964,
      "##cent": 5965,
      "shot": 5966,
      "somewhat": 5967,
      "save": 5968,
      "reports": 5969,
      "existence": 5970,
      "relationship": 5971,
      "76": 5972,
      "##ram": 5973,
      "polish": 5974,
      "seemed": 5975,
      "tagging": 5976,
      "determin": 5977,
      "lay": 5978,
      "deep": 5979,
      "london": 5980,
      "##vey": 5981,
      "arr": 5982,
      "lots": 5983,
      "07": 5984,
      "mac": 5985,
      "##ey": 5986,
      "##ape": 5987,
      "##ises": 5988,
      "cong": 5989,
      "unne": 5990,
      "improving": 5991,
      "easier": 5992,
      "35": 5993,
      "##eter": 5994,
      "held": 5995,
      "disputed": 5996,
      "soviet": 5997,
      "swe": 5998,
      "##ume": 5999,
      "capt": 6000,
      "experimenting": 6001,
      "reached": 6002,
      "lines": 6003,
      "##enn": 6004,
      "conform": 6005,
      "promote": 6006,
      "harassment": 6007,
      "##wwwwwwwwwwwwwwww": 6008,
      "gonna": 6009,
      "pushing": 6010,
      "##iki": 6011,
      "appeal": 6012,
      "coverage": 6013,
      "##za": 6014,
      "chick": 6015,
      "somehow": 6016,
      "verify": 6017,
      "matters": 6018,
      "logged": 6019,
      "rank": 6020,
      "enfor": 6021,
      "thinks": 6022,
      "road": 6023,
      "letter": 6024,
      "famous": 6025,
      "latin": 6026,
      "##idge": 6027,
      "anybody": 6028,
      "fac": 6029,
      "##ards": 6030,
      "furthermore": 6031,
      "errors": 6032,
      "ira": 6033,
      "##nam": 6034,
      "assess": 6035,
      "collect": 6036,
      "career": 6037,
      "commercial": 6038,
      "inac": 6039,
      "blocks": 6040,
      "contents": 6041,
      "private": 6042,
      "league": 6043,
      "raised": 6044,
      "repeat": 6045,
      "participate": 6046,
      "excuse": 6047,
      "dub": 6048,
      "ko": 6049,
      "contributor": 6050,
      "foreign": 6051,
      "northern": 6052,
      "silly": 6053,
      "victim": 6054,
      "bob": 6055,
      "surely": 6056,
      "illust": 6057,
      "draw": 6058,
      "ly": 6059,
      "##asion": 6060,
      "interpretation": 6061,
      "04": 6062,
      "##rees": 6063,
      "##ustic": 6064,
      "ability": 6065,
      "##ruction": 6066,
      "shortly": 6067,
      "russia": 6068,
      "illeg": 6069,
      "philippines": 6070,
      "rom": 6071,
      "ther": 6072,
      "committ": 6073,
      "explicit": 6074,
      "##ax": 6075,
      "chann": 6076,
      "analys": 6077,
      "1px": 6078,
      "sen": 6079,
      "##hi": 6080,
      "contain": 6081,
      "requires": 6082,
      "2015": 6083,
      "contains": 6084,
      "defend": 6085,
      "careful": 6086,
      "mong": 6087,
      "dates": 6088,
      "perspect": 6089,
      "model": 6090,
      "translation": 6091,
      "democrat": 6092,
      "80": 6093,
      "ber": 6094,
      "ped": 6095,
      "60": 6096,
      "##vin": 6097,
      "##fin": 6098,
      "appeared": 6099,
      "newspaper": 6100,
      "mach": 6101,
      "##ality": 6102,
      "associated": 6103,
      "kh": 6104,
      "##pped": 6105,
      "##osexual": 6106,
      "network": 6107,
      "moth": 6108,
      "##23": 6109,
      "suppose": 6110,
      "providing": 6111,
      "##yan": 6112,
      "bio": 6113,
      "weak": 6114,
      "pron": 6115,
      "vandalizing": 6116,
      "##secks": 6117,
      "condit": 6118,
      "buttsecks": 6119,
      "nik": 6120,
      "##iny": 6121,
      "##stood": 6122,
      "verifiability": 6123,
      "ya": 6124,
      "##bag": 6125,
      "pow": 6126,
      "supporting": 6127,
      "smell": 6128,
      "hardly": 6129,
      "covered": 6130,
      "originally": 6131,
      "lord": 6132,
      "##vir": 6133,
      "##onic": 6134,
      "nearly": 6135,
      "revision": 6136,
      "keeps": 6137,
      "australia": 6138,
      "turkish": 6139,
      "athe": 6140,
      "bat": 6141,
      "sick": 6142,
      "##long": 6143,
      "##yy": 6144,
      "##ander": 6145,
      "inaccur": 6146,
      "walk": 6147,
      "theories": 6148,
      "##icks": 6149,
      "##chan": 6150,
      "os": 6151,
      "##ception": 6152,
      "critical": 6153,
      "proven": 6154,
      "conspiracy": 6155,
      "restored": 6156,
      "disg": 6157,
      "located": 6158,
      "domain": 6159,
      "software": 6160,
      "69": 6161,
      "dial": 6162,
      "##llo": 6163,
      "##olf": 6164,
      "throughout": 6165,
      "street": 6166,
      "domin": 6167,
      "wing": 6168,
      "##ek": 6169,
      "nov": 6170,
      "caused": 6171,
      "quickly": 6172,
      "continued": 6173,
      "widely": 6174,
      "mic": 6175,
      "##ria": 6176,
      "ast": 6177,
      "market": 6178,
      "paid": 6179,
      "figures": 6180,
      "surprised": 6181,
      "cas": 6182,
      "jump": 6183,
      "nick": 6184,
      "##mas": 6185,
      "worry": 6186,
      "2003": 6187,
      "throw": 6188,
      "sentences": 6189,
      "criterion": 6190,
      "##ustice": 6191,
      "##ios": 6192,
      "##ett": 6193,
      "warned": 6194,
      "addressed": 6195,
      "##astic": 6196,
      "solution": 6197,
      "committee": 6198,
      "##here": 6199,
      "listing": 6200,
      "script": 6201,
      "correctly": 6202,
      "aud": 6203,
      "##urb": 6204,
      "hasn": 6205,
      "extra": 6206,
      "dar": 6207,
      "diction": 6208,
      "##ole": 6209,
      "##raid": 6210,
      "plain": 6211,
      "lock": 6212,
      "brother": 6213,
      "crim": 6214,
      "conclusion": 6215,
      "dude": 6216,
      "poll": 6217,
      "attitude": 6218,
      "72": 6219,
      "round": 6220,
      "##cra": 6221,
      "entries": 6222,
      "confirmed": 6223,
      "contradict": 6224,
      "lad": 6225,
      "symb": 6226,
      "opposed": 6227,
      "mentions": 6228,
      "##no": 6229,
      "diss": 6230,
      "##ivil": 6231,
      "plot": 6232,
      "target": 6233,
      "natural": 6234,
      "fans": 6235,
      "politics": 6236,
      "attempts": 6237,
      "began": 6238,
      "liberal": 6239,
      "lower": 6240,
      "##yl": 6241,
      "bitches": 6242,
      "##anch": 6243,
      "relative": 6244,
      "function": 6245,
      "woman": 6246,
      "##aut": 6247,
      "##aff": 6248,
      "ord": 6249,
      "provides": 6250,
      "split": 6251,
      "sufficient": 6252,
      "spirit": 6253,
      "##gas": 6254,
      "##ades": 6255,
      "afraid": 6256,
      "library": 6257,
      "unnecess": 6258,
      "lu": 6259,
      "reb": 6260,
      "##rug": 6261,
      "location": 6262,
      "credit": 6263,
      "##ining": 6264,
      "station": 6265,
      "complex": 6266,
      "pointing": 6267,
      "reviews": 6268,
      "##ev": 6269,
      "##war": 6270,
      "adm": 6271,
      "belongs": 6272,
      "radio": 6273,
      "ali": 6274,
      "twice": 6275,
      "frequently": 6276,
      "33": 6277,
      "##ills": 6278,
      "userpage": 6279,
      "annoy": 6280,
      "hindu": 6281,
      "98": 6282,
      "##bur": 6283,
      "##iance": 6284,
      "records": 6285,
      "quoted": 6286,
      "noobs": 6287,
      "prose": 6288,
      "defined": 6289,
      "merged": 6290,
      "tour": 6291,
      "dealing": 6292,
      "##wood": 6293,
      "##you": 6294,
      "advoc": 6295,
      "potential": 6296,
      "opt": 6297,
      "voice": 6298,
      "##down": 6299,
      "mel": 6300,
      "instruct": 6301,
      "assuming": 6302,
      "##aaaa": 6303,
      "contrary": 6304,
      "cocksucker": 6305,
      "blatant": 6306,
      "analysis": 6307,
      "42": 6308,
      "cru": 6309,
      "dir": 6310,
      "##har": 6311,
      "##ership": 6312,
      "disapp": 6313,
      "thousands": 6314,
      "##ief": 6315,
      "evil": 6316,
      "pret": 6317,
      "copied": 6318,
      "busy": 6319,
      "mediation": 6320,
      "detailed": 6321,
      "cultural": 6322,
      "minority": 6323,
      "alleged": 6324,
      "##gen": 6325,
      "32": 6326,
      "##atures": 6327,
      "latest": 6328,
      "##uppets": 6329,
      "delay": 6330,
      "fundament": 6331,
      "dut": 6332,
      "##reh": 6333,
      "##aming": 6334,
      "promin": 6335,
      "regular": 6336,
      "reasoning": 6337,
      "mentioning": 6338,
      "foundation": 6339,
      "pan": 6340,
      "calls": 6341,
      "mistakes": 6342,
      "strange": 6343,
      "##icious": 6344,
      "reve": 6345,
      "imposs": 6346,
      "crime": 6347,
      "latter": 6348,
      "degree": 6349,
      "laugh": 6350,
      "election": 6351,
      "censorship": 6352,
      "fla": 6353,
      "wil": 6354,
      "##oke": 6355,
      "##asty": 6356,
      "films": 6357,
      "civility": 6358,
      "homosexual": 6359,
      "applied": 6360,
      "bastered": 6361,
      "cities": 6362,
      "ignorant": 6363,
      "##inge": 6364,
      "##agon": 6365,
      "dickhead": 6366,
      "significance": 6367,
      "fighting": 6368,
      "tor": 6369,
      "wal": 6370,
      "hair": 6371,
      "sinc": 6372,
      "suggesting": 6373,
      "34": 6374,
      "67": 6375,
      "##ses": 6376,
      "##ued": 6377,
      "##oper": 6378,
      "excell": 6379,
      "greater": 6380,
      "missed": 6381,
      "ukrain": 6382,
      "draft": 6383,
      "grammar": 6384,
      "chicken": 6385,
      "male": 6386,
      "##ray": 6387,
      "##arks": 6388,
      "wikil": 6389,
      "justify": 6390,
      "objective": 6391,
      "affect": 6392,
      "village": 6393,
      "cow": 6394,
      "cam": 6395,
      "opening": 6396,
      "identity": 6397,
      "volunt": 6398,
      "benefit": 6399,
      "department": 6400,
      "##jer": 6401,
      "individuals": 6402,
      "influence": 6403,
      "feedback": 6404,
      "##los": 6405,
      "confusing": 6406,
      "neutrality": 6407,
      "constitution": 6408,
      "structure": 6409,
      "pakistan": 6410,
      "congrat": 6411,
      "##ida": 6412,
      "parents": 6413,
      "deliber": 6414,
      "##uel": 6415,
      "##ffer": 6416,
      "helps": 6417,
      "ready": 6418,
      "https": 6419,
      "logo": 6420,
      "summaries": 6421,
      "unblocked": 6422,
      "clarify": 6423,
      "##ws": 6424,
      "##kn": 6425,
      "cond": 6426,
      "##izations": 6427,
      "obama": 6428,
      "versions": 6429,
      "association": 6430,
      "##ault": 6431,
      "bell": 6432,
      "parties": 6433,
      "emph": 6434,
      "propose": 6435,
      "ignored": 6436,
      "experienced": 6437,
      "honestly": 6438,
      "muslims": 6439,
      "blo": 6440,
      "wer": 6441,
      "##umn": 6442,
      "goal": 6443,
      "writer": 6444,
      "invent": 6445,
      "signature": 6446,
      "eventually": 6447,
      "rewrit": 6448,
      "involvement": 6449,
      "han": 6450,
      "lives": 6451,
      "alph": 6452,
      "##oses": 6453,
      "room": 6454,
      "israeli": 6455,
      "federal": 6456,
      "na": 6457,
      "##bot": 6458,
      "##13": 6459,
      "talkpage": 6460,
      "bible": 6461,
      "player": 6462,
      "restore": 6463,
      "complaint": 6464,
      "technical": 6465,
      "deserve": 6466,
      "wall": 6467,
      "##ba": 6468,
      "desk": 6469,
      "drink": 6470,
      "archives": 6471,
      "budd": 6472,
      "piss": 6473,
      "spend": 6474,
      "motiv": 6475,
      "literature": 6476,
      "zero": 6477,
      "dyk": 6478,
      "announ": 6479,
      "curious": 6480,
      "peter": 6481,
      "oil": 6482,
      "##bor": 6483,
      "##itation": 6484,
      "shame": 6485,
      "perspective": 6486,
      "criminal": 6487,
      "##uous": 6488,
      "student": 6489,
      "##uuuu": 6490,
      "##craft": 6491,
      "##uit": 6492,
      "##well": 6493,
      "raj": 6494,
      "violate": 6495,
      "virt": 6496,
      "girl": 6497,
      "impossible": 6498,
      "rate": 6499,
      "##ping": 6500,
      "telev": 6501,
      "consistent": 6502,
      "stands": 6503,
      "mathem": 6504,
      "rout": 6505,
      "rum": 6506,
      "sides": 6507,
      "##15": 6508,
      "reads": 6509,
      "authors": 6510,
      "##stein": 6511,
      "39": 6512,
      "kid": 6513,
      "cheese": 6514,
      "district": 6515,
      "calif": 6516,
      "angel": 6517,
      "australian": 6518,
      "italian": 6519,
      "symbol": 6520,
      "38": 6521,
      "food": 6522,
      "forces": 6523,
      "viewpoint": 6524,
      "agreement": 6525,
      "schools": 6526,
      "wishes": 6527,
      "photograph": 6528,
      "58": 6529,
      "aim": 6530,
      "##utions": 6531,
      "##ille": 6532,
      "##rible": 6533,
      "dro": 6534,
      "##ette": 6535,
      "heil": 6536,
      "##iff": 6537,
      "artist": 6538,
      "philippineslong": 6539,
      "wit": 6540,
      "plenty": 6541,
      "brain": 6542,
      "carefully": 6543,
      "river": 6544,
      "##rep": 6545,
      "verified": 6546,
      "persian": 6547,
      "compromise": 6548,
      "mount": 6549,
      "seven": 6550,
      "knowing": 6551,
      "##uded": 6552,
      "minim": 6553,
      "equal": 6554,
      "council": 6555,
      "##link": 6556,
      "spent": 6557,
      "susp": 6558,
      "jose": 6559,
      "##mer": 6560,
      "hands": 6561,
      "surv": 6562,
      "imagine": 6563,
      "bank": 6564,
      "##iate": 6565,
      "##vo": 6566,
      "##ani": 6567,
      "##ift": 6568,
      "prem": 6569,
      "fear": 6570,
      "songs": 6571,
      "cs": 6572,
      "rare": 6573,
      "##cr": 6574,
      "##just": 6575,
      "##oles": 6576,
      "sole": 6577,
      "grad": 6578,
      "turned": 6579,
      "disputes": 6580,
      "hall": 6581,
      "nations": 6582,
      "##ressed": 6583,
      "confusion": 6584,
      "mothjer": 6585,
      "mut": 6586,
      "worst": 6587,
      "192": 6588,
      "players": 6589,
      "64": 6590,
      "france": 6591,
      "##racy": 6592,
      "##plic": 6593,
      "persist": 6594,
      "190": 6595,
      "responsible": 6596,
      "female": 6597,
      "excellent": 6598,
      "californ": 6599,
      "##ago": 6600,
      "altered": 6601,
      "2000": 6602,
      "continues": 6603,
      "episodes": 6604,
      "scholar": 6605,
      "achieve": 6606,
      "channel": 6607,
      "##bi": 6608,
      "proced": 6609,
      "##ung": 6610,
      "specified": 6611,
      "opportun": 6612,
      "obser": 6613,
      "cele": 6614,
      "##rd": 6615,
      "##ula": 6616,
      "##berg": 6617,
      "fy": 6618,
      "fast": 6619,
      "justice": 6620,
      "thom": 6621,
      "##ston": 6622,
      "##ulated": 6623,
      "manage": 6624,
      "trolling": 6625,
      "physics": 6626,
      "drive": 6627,
      "bully": 6628,
      "rail": 6629,
      "wild": 6630,
      "##ivity": 6631,
      "brand": 6632,
      "advance": 6633,
      "demand": 6634,
      "##garian": 6635,
      "retarded": 6636,
      "remains": 6637,
      "signed": 6638,
      "editorial": 6639,
      "broken": 6640,
      "princip": 6641,
      "##rass": 6642,
      "thor": 6643,
      "chris": 6644,
      "turkey": 6645,
      "attempting": 6646,
      "precise": 6647,
      "##cal": 6648,
      "##hood": 6649,
      "washing": 6650,
      "largest": 6651,
      "aver": 6652,
      "misunder": 6653,
      "eastern": 6654,
      "emphas": 6655,
      "gall": 6656,
      "##rem": 6657,
      "apart": 6658,
      "violations": 6659,
      "necessarily": 6660,
      "##rant": 6661,
      "smith": 6662,
      "corrected": 6663,
      "termin": 6664,
      "systems": 6665,
      "iraq": 6666,
      "##mor": 6667,
      "##ada": 6668,
      "shar": 6669,
      "mexic": 6670,
      "frust": 6671,
      "intel": 6672,
      "max": 6673,
      "daily": 6674,
      "canadian": 6675,
      "conversation": 6676,
      "dictionary": 6677,
      "##iers": 6678,
      "##40": 6679,
      "lear": 6680,
      "perman": 6681,
      "dire": 6682,
      "fringe": 6683,
      "wrest": 6684,
      "engage": 6685,
      "rice": 6686,
      "ton": 6687,
      "bye": 6688,
      "remind": 6689,
      "##ension": 6690,
      "##ordin": 6691,
      "incomp": 6692,
      "identify": 6693,
      "46": 6694,
      "ram": 6695,
      "ug": 6696,
      "afg": 6697,
      "attacking": 6698,
      "pathetic": 6699,
      "unnecessary": 6700,
      "dang": 6701,
      "mir": 6702,
      "master": 6703,
      "unable": 6704,
      "genre": 6705,
      "projects": 6706,
      "portal": 6707,
      "ju": 6708,
      "##amed": 6709,
      "##ortion": 6710,
      "slow": 6711,
      "##idden": 6712,
      "scholars": 6713,
      "scott": 6714,
      "pdf": 6715,
      "66": 6716,
      "hide": 6717,
      "##fl": 6718,
      "exec": 6719,
      "holder": 6720,
      "jimbo": 6721,
      "california": 6722,
      "cu": 6723,
      "pic": 6724,
      "ris": 6725,
      "chap": 6726,
      "alt": 6727,
      "determ": 6728,
      "chem": 6729,
      "arguing": 6730,
      "##porary": 6731,
      "favour": 6732,
      "allegations": 6733,
      "##face": 6734,
      "understood": 6735,
      "learning": 6736,
      "gh": 6737,
      "##pro": 6738,
      "##mann": 6739,
      "##van": 6740,
      "blind": 6741,
      "formal": 6742,
      "friendly": 6743,
      "baby": 6744,
      "television": 6745,
      "lying": 6746,
      "communist": 6747,
      "##amming": 6748,
      "2nd": 6749,
      "forth": 6750,
      "impression": 6751,
      "##boy": 6752,
      "ak": 6753,
      "fant": 6754,
      "##bit": 6755,
      "##orter": 6756,
      "aside": 6757,
      "hack": 6758,
      "2001": 6759,
      "compreh": 6760,
      "everybody": 6761,
      "physical": 6762,
      "intelligence": 6763,
      "smells": 6764,
      "determine": 6765,
      "boobs": 6766,
      "##iated": 6767,
      "universe": 6768,
      "innoc": 6769,
      "ancestry": 6770,
      "integr": 6771,
      "37": 6772,
      "dream": 6773,
      "om": 6774,
      "##hs": 6775,
      "shoot": 6776,
      "illegal": 6777,
      "lived": 6778,
      "mah": 6779,
      "##iqu": 6780,
      "feeling": 6781,
      "paste": 6782,
      "apologies": 6783,
      "powers": 6784,
      "cust": 6785,
      "option": 6786,
      "pu": 6787,
      "##idence": 6788,
      "mechan": 6789,
      "envir": 6790,
      "christians": 6791,
      "buy": 6792,
      "##ique": 6793,
      "simpl": 6794,
      "uncivil": 6795,
      "votes": 6796,
      "##gan": 6797,
      "vandals": 6798,
      "##anna": 6799,
      "citizens": 6800,
      "##aud": 6801,
      "##do": 6802,
      "quit": 6803,
      "##ference": 6804,
      "medic": 6805,
      "54": 6806,
      "52": 6807,
      "bos": 6808,
      "##win": 6809,
      "##wat": 6810,
      "##cast": 6811,
      "##80": 6812,
      "impact": 6813,
      "overall": 6814,
      "strict": 6815,
      "publication": 6816,
      "render": 6817,
      "rewrite": 6818,
      "ie": 6819,
      "##iar": 6820,
      "##enc": 6821,
      "accident": 6822,
      "corpor": 6823,
      "responded": 6824,
      "observ": 6825,
      "applies": 6826,
      "oxy": 6827,
      "##99": 6828,
      "seek": 6829,
      "peoples": 6830,
      "##standing": 6831,
      "credible": 6832,
      "boo": 6833,
      "nut": 6834,
      "puss": 6835,
      "sle": 6836,
      "proceed": 6837,
      "novel": 6838,
      "beliefs": 6839,
      "56": 6840,
      "rub": 6841,
      "##old": 6842,
      "##cript": 6843,
      "##encing": 6844,
      "sourcing": 6845,
      "improved": 6846,
      "##3333": 6847,
      "islamic": 6848,
      "resources": 6849,
      "washington": 6850,
      "41": 6851,
      "task": 6852,
      "##ered": 6853,
      "mainly": 6854,
      "indefin": 6855,
      "##fair": 6856,
      "##cle": 6857,
      "gov": 6858,
      "##pled": 6859,
      "colon": 6860,
      "apology": 6861,
      "reporting": 6862,
      "carry": 6863,
      "historians": 6864,
      "finan": 6865,
      "investigation": 6866,
      "hypoc": 6867,
      "conservative": 6868,
      "rh": 6869,
      "##zel": 6870,
      "logical": 6871,
      "accusing": 6872,
      "jeff": 6873,
      "65": 6874,
      "au": 6875,
      "##orrow": 6876,
      "compared": 6877,
      "creator": 6878,
      "christianity": 6879,
      "aspects": 6880,
      "environ": 6881,
      "dict": 6882,
      "wife": 6883,
      "attacked": 6884,
      "resolve": 6885,
      "44": 6886,
      "drug": 6887,
      "fgg": 6888,
      "##elete": 6889,
      "##tab": 6890,
      "##vent": 6891,
      "larger": 6892,
      "documents": 6893,
      "expanded": 6894,
      "encourage": 6895,
      "bbc": 6896,
      "palestin": 6897,
      "philosophy": 6898,
      "micro": 6899,
      "fggt": 6900,
      "rat": 6901,
      "wt": 6902,
      "fort": 6903,
      "specify": 6904,
      "maintain": 6905,
      "charge": 6906,
      "unclear": 6907,
      "explicitly": 6908,
      "inaccurate": 6909,
      "awards": 6910,
      "card": 6911,
      "pull": 6912,
      "##urs": 6913,
      "unac": 6914,
      "fault": 6915,
      "##osh": 6916,
      "redirects": 6917,
      "unique": 6918,
      "balance": 6919,
      "treatment": 6920,
      "tools": 6921,
      "egy": 6922,
      "abusing": 6923,
      "objection": 6924,
      "hundreds": 6925,
      "57": 6926,
      "lou": 6927,
      "pse": 6928,
      "haw": 6929,
      "unfair": 6930,
      "prime": 6931,
      "cooper": 6932,
      "species": 6933,
      "iranian": 6934,
      "sports": 6935,
      "reveal": 6936,
      "dip": 6937,
      "mouth": 6938,
      "sake": 6939,
      "##oms": 6940,
      "semit": 6941,
      "remarks": 6942,
      "accuse": 6943,
      "bollo": 6944,
      "accusation": 6945,
      "damage": 6946,
      "terrorist": 6947,
      "korean": 6948,
      "bollocks": 6949,
      "lingu": 6950,
      "tal": 6951,
      "##field": 6952,
      "##soever": 6953,
      "presum": 6954,
      "violating": 6955,
      "##going": 6956,
      "candidates": 6957,
      "egypt": 6958,
      "hang": 6959,
      "##ex": 6960,
      "convert": 6961,
      "enem": 6962,
      "owner": 6963,
      "inside": 6964,
      "passed": 6965,
      "screen": 6966,
      "bomb": 6967,
      "jones": 6968,
      "ven": 6969,
      "orth": 6970,
      "edition": 6971,
      "contributed": 6972,
      "lets": 6973,
      "greece": 6974,
      "activity": 6975,
      "82": 6976,
      "##tained": 6977,
      "newslet": 6978,
      "heading": 6979,
      "georg": 6980,
      "industry": 6981,
      "nikko": 6982,
      "average": 6983,
      "png": 6984,
      "##96": 6985,
      "##itled": 6986,
      "suitable": 6987,
      "dise": 6988,
      "complet": 6989,
      "production": 6990,
      "built": 6991,
      "improvement": 6992,
      "likes": 6993,
      "pseud": 6994,
      "gfd": 6995,
      "##pace": 6996,
      "##hamm": 6997,
      "##while": 6998,
      "construct": 6999,
      "promotional": 7000,
      "terrorism": 7001,
      "measure": 7002,
      "weren": 7003,
      "bc": 7004,
      "cab": 7005,
      "cup": 7006,
      "ken": 7007,
      "rot": 7008,
      "##wiki": 7009,
      "##gment": 7010,
      "rein": 7011,
      "##usions": 7012,
      "unit": 7013,
      "materials": 7014,
      "waiting": 7015,
      "tomorrow": 7016,
      "assistance": 7017,
      "afghan": 7018,
      "##rs": 7019,
      "##istry": 7020,
      "meat": 7021,
      "whatsoever": 7022,
      "spell": 7023,
      "swed": 7024,
      "champions": 7025,
      "gfdl": 7026,
      "egg": 7027,
      "politic": 7028,
      "59": 7029,
      "bang": 7030,
      "##16": 7031,
      "stories": 7032,
      "consequ": 7033,
      "feature": 7034,
      "documented": 7035,
      "richard": 7036,
      "ensure": 7037,
      "##li": 7038,
      "spot": 7039,
      "undue": 7040,
      "worthy": 7041,
      "convention": 7042,
      "becoming": 7043,
      "pussy": 7044,
      "85": 7045,
      "97": 7046,
      "adam": 7047,
      "catch": 7048,
      "bound": 7049,
      "##iw": 7050,
      "newcom": 7051,
      "safe": 7052,
      "vandalized": 7053,
      "learned": 7054,
      "duplic": 7055,
      "deserves": 7056,
      "hill": 7057,
      "yester": 7058,
      "##izes": 7059,
      "interests": 7060,
      "assertion": 7061,
      "africa": 7062,
      "thorough": 7063,
      "yesterday": 7064,
      "ble": 7065,
      "##gu": 7066,
      "forced": 7067,
      "##ola": 7068,
      "suffer": 7069,
      "2002": 7070,
      "hoax": 7071,
      "charles": 7072,
      "niggas": 7073,
      "synth": 7074,
      "##aust": 7075,
      "##ato": 7076,
      "##ager": 7077,
      "usual": 7078,
      "cold": 7079,
      "##resp": 7080,
      "becomes": 7081,
      "registered": 7082,
      "dat": 7083,
      "dene": 7084,
      "hmm": 7085,
      "##rh": 7086,
      "##yn": 7087,
      "##vd": 7088,
      "##14": 7089,
      "anon": 7090,
      "##lav": 7091,
      "linking": 7092,
      "subsequ": 7093,
      "developed": 7094,
      "racism": 7095,
      "limit": 7096,
      "recognized": 7097,
      "normally": 7098,
      "treated": 7099,
      "instructions": 7100,
      "mary": 7101,
      "##lan": 7102,
      "franc": 7103,
      "recall": 7104,
      "genoc": 7105,
      "suggests": 7106,
      "misin": 7107,
      "objections": 7108,
      "vast": 7109,
      "##lig": 7110,
      "##uine": 7111,
      "##imately": 7112,
      "##ulate": 7113,
      "implement": 7114,
      "ips": 7115,
      "dirty": 7116,
      "newsletter": 7117,
      "lin": 7118,
      "##ners": 7119,
      "##den": 7120,
      "##17": 7121,
      "##itor": 7122,
      "##ala": 7123,
      "bear": 7124,
      "brad": 7125,
      "ended": 7126,
      "organizations": 7127,
      "resolved": 7128,
      "biz": 7129,
      "jay": 7130,
      "nic": 7131,
      "##era": 7132,
      "fred": 7133,
      "manip": 7134,
      "mission": 7135,
      "##iety": 7136,
      "fake": 7137,
      "gang": 7138,
      "##bre": 7139,
      "##jo": 7140,
      "##oted": 7141,
      "ash": 7142,
      "chic": 7143,
      "button": 7144,
      "remark": 7145,
      "leader": 7146,
      "technology": 7147,
      "promotion": 7148,
      "hypoth": 7149,
      "##ores": 7150,
      "##ffff": 7151,
      "supports": 7152,
      "older": 7153,
      "planet": 7154,
      "slightly": 7155,
      "74": 7156,
      "azer": 7157,
      "bh": 7158,
      "ought": 7159,
      "ww": 7160,
      "##ancy": 7161,
      "aggress": 7162,
      "guard": 7163,
      "##aha": 7164,
      "differences": 7165,
      "morning": 7166,
      "discour": 7167,
      "frankly": 7168,
      "southern": 7169,
      "thomas": 7170,
      "environment": 7171,
      "1st": 7172,
      "graph": 7173,
      "restrict": 7174,
      "paragraphs": 7175,
      "professor": 7176,
      "initial": 7177,
      "mud": 7178,
      "##can": 7179,
      "arrog": 7180,
      "##iles": 7181,
      "acts": 7182,
      "genuine": 7183,
      "##aves": 7184,
      "letting": 7185,
      "follows": 7186,
      "criticisms": 7187,
      "territory": 7188,
      "bare": 7189,
      "##dr": 7190,
      "##orted": 7191,
      "load": 7192,
      "summar": 7193,
      "sexsex": 7194,
      "scientists": 7195,
      "expected": 7196,
      "mistaken": 7197,
      "enforce": 7198,
      "intellect": 7199,
      "##nes": 7200,
      "asia": 7201,
      "whoever": 7202,
      "officially": 7203,
      "convin": 7204,
      "1967": 7205,
      "comparison": 7206,
      "deneid": 7207,
      "bag": 7208,
      "gas": 7209,
      "arri": 7210,
      "##ilities": 7211,
      "oldid": 7212,
      "bloody": 7213,
      "53": 7214,
      "dun": 7215,
      "gw": 7216,
      "ner": 7217,
      "##xx": 7218,
      "##ened": 7219,
      "toler": 7220,
      "asian": 7221,
      "constantly": 7222,
      "doctor": 7223,
      "democratic": 7224,
      "eg": 7225,
      "nu": 7226,
      "ron": 7227,
      "##fo": 7228,
      "onto": 7229,
      "##user": 7230,
      "categor": 7231,
      "existed": 7232,
      "closely": 7233,
      "clarification": 7234,
      "##known": 7235,
      "fraud": 7236,
      "##osen": 7237,
      "##phan": 7238,
      "stopped": 7239,
      "kindly": 7240,
      "coupled": 7241,
      "opposite": 7242,
      "macedonia": 7243,
      "volunte": 7244,
      "kids": 7245,
      "pm": 7246,
      "designed": 7247,
      "corrupt": 7248,
      "showed": 7249,
      "answers": 7250,
      "purposes": 7251,
      "heavy": 7252,
      "direction": 7253,
      "##lines": 7254,
      "##hic": 7255,
      "trip": 7256,
      "##ifications": 7257,
      "forms": 7258,
      "britain": 7259,
      "core": 7260,
      "dismiss": 7261,
      "spok": 7262,
      "loves": 7263,
      "joe": 7264,
      "reform": 7265,
      "collection": 7266,
      "queen": 7267,
      "unaccept": 7268,
      "yo": 7269,
      "beaut": 7270,
      "facil": 7271,
      "fox": 7272,
      "accuracy": 7273,
      "formatting": 7274,
      "activities": 7275,
      "census": 7276,
      "hits": 7277,
      "ott": 7278,
      "##ville": 7279,
      "prod": 7280,
      "constant": 7281,
      "mcc": 7282,
      "pas": 7283,
      "stage": 7284,
      "sea": 7285,
      "prepar": 7286,
      "economic": 7287,
      "financial": 7288,
      "rang": 7289,
      "tact": 7290,
      "hah": 7291,
      "cod": 7292,
      "serve": 7293,
      "explains": 7294,
      "directed": 7295,
      "commonly": 7296,
      "ax": 7297,
      "bum": 7298,
      "ice": 7299,
      "rod": 7300,
      "##lia": 7301,
      "##pping": 7302,
      "##ounding": 7303,
      "186": 7304,
      "nationality": 7305,
      "ignoring": 7306,
      "republican": 7307,
      "##space": 7308,
      "utter": 7309,
      "92": 7310,
      "tam": 7311,
      "##olved": 7312,
      "##ested": 7313,
      "tex": 7314,
      "features": 7315,
      "whereas": 7316,
      "corre": 7317,
      "define": 7318,
      "flow": 7319,
      "distrib": 7320,
      "largely": 7321,
      "armenian": 7322,
      "folks": 7323,
      "prominent": 7324,
      "papers": 7325,
      "##ij": 7326,
      "##uate": 7327,
      "congress": 7328,
      "prohib": 7329,
      "userbox": 7330,
      "commentary": 7331,
      "letters": 7332,
      "historic": 7333,
      "profile": 7334,
      "opposition": 7335,
      "era": 7336,
      "hal": 7337,
      "reaction": 7338,
      "moreover": 7339,
      "##icted": 7340,
      "assad": 7341,
      "##ibal": 7342,
      "leading": 7343,
      "arms": 7344,
      "massac": 7345,
      "operation": 7346,
      "##ahahahahahahahah": 7347,
      "stalking": 7348,
      "paged": 7349,
      "sik": 7350,
      "unknown": 7351,
      "freely": 7352,
      "holy": 7353,
      "expans": 7354,
      "skin": 7355,
      "incorpor": 7356,
      "obsc": 7357,
      "sockpuppetry": 7358,
      "hurt": 7359,
      "substantial": 7360,
      "43": 7361,
      "bunk": 7362,
      "cook": 7363,
      "##bed": 7364,
      "##va": 7365,
      "relev": 7366,
      "admitted": 7367,
      "attempted": 7368,
      "pattern": 7369,
      "chapter": 7370,
      "fict": 7371,
      "tony": 7372,
      "##men": 7373,
      "##bl": 7374,
      "imper": 7375,
      "justification": 7376,
      "reviewing": 7377,
      "typical": 7378,
      "##atical": 7379,
      "##pper": 7380,
      "vehic": 7381,
      "fired": 7382,
      "yourselfgo": 7383,
      "didnt": 7384,
      "standing": 7385,
      "lawdy": 7386,
      "trivia": 7387,
      "traditional": 7388,
      "pagedelete": 7389,
      "47": 7390,
      "lose": 7391,
      "vo": 7392,
      "##yer": 7393,
      "forever": 7394,
      "cha": 7395,
      "##aking": 7396,
      "##phen": 7397,
      "encyclopa": 7398,
      "heads": 7399,
      "equally": 7400,
      "constitutes": 7401,
      "division": 7402,
      "licensed": 7403,
      "##orthy": 7404,
      "opportunity": 7405,
      "chicago": 7406,
      "cel": 7407,
      "hen": 7408,
      "mike": 7409,
      "maps": 7410,
      "##88": 7411,
      "##rating": 7412,
      "temper": 7413,
      "appearance": 7414,
      "unconst": 7415,
      "insulting": 7416,
      "sincerely": 7417,
      "oxymor": 7418,
      "##hammad": 7419,
      "jul": 7420,
      "wood": 7421,
      "##ees": 7422,
      "##note": 7423,
      "##gh": 7424,
      "##cs": 7425,
      "##iday": 7426,
      "hero": 7427,
      "services": 7428,
      "virgin": 7429,
      "serbian": 7430,
      "atheist": 7431,
      "dedic": 7432,
      "unw": 7433,
      "coi": 7434,
      "compare": 7435,
      "iron": 7436,
      "187": 7437,
      "apparent": 7438,
      "albums": 7439,
      "essentially": 7440,
      "##fuckfuckfuckfuckfuckfuckfuckfuck": 7441,
      "replied": 7442,
      "genocide": 7443,
      "bow": 7444,
      "fffff": 7445,
      "nom": 7446,
      "vac": 7447,
      "##rey": 7448,
      "##sec": 7449,
      "relation": 7450,
      "speculation": 7451,
      "advise": 7452,
      "element": 7453,
      "holoc": 7454,
      "##nnnnnnnnnnnnnnnnnnnnnnnnnnnnnnnn": 7455,
      "84": 7456,
      "flo": 7457,
      "gib": 7458,
      "ox": 7459,
      "##names": 7460,
      "ongoing": 7461,
      "cham": 7462,
      "quant": 7463,
      "revolution": 7464,
      "scale": 7465,
      "publications": 7466,
      "watchlist": 7467,
      "deny": 7468,
      "responding": 7469,
      "##uyuyuyuyuyuyuyuyuyuyuyuyuyuyuyuy": 7470,
      "reputation": 7471,
      "acknowled": 7472,
      "##ua": 7473,
      "##iling": 7474,
      "alter": 7475,
      "##ogue": 7476,
      "parent": 7477,
      "command": 7478,
      "##acity": 7479,
      "purs": 7480,
      "##hold": 7481,
      "implies": 7482,
      "candidate": 7483,
      "mere": 7484,
      "till": 7485,
      "vague": 7486,
      "##bury": 7487,
      "weap": 7488,
      "chose": 7489,
      "attract": 7490,
      "submission": 7491,
      "emot": 7492,
      "redund": 7493,
      "equival": 7494,
      "recognize": 7495,
      "decline": 7496,
      "benefits": 7497,
      "grounds": 7498,
      "oxymoron": 7499,
      "fiction": 7500,
      "##post": 7501,
      "##inary": 7502,
      "forg": 7503,
      "##izard": 7504,
      "trial": 7505,
      "punk": 7506,
      "facebook": 7507,
      "##tytytytytytytytytytytytytytytyty": 7508,
      "challenge": 7509,
      "fundamental": 7510,
      "bish": 7511,
      "##hon": 7512,
      "##aker": 7513,
      "##laim": 7514,
      "plag": 7515,
      "finished": 7516,
      "obsess": 7517,
      "unacceptable": 7518,
      "##db": 7519,
      "##jan": 7520,
      "prince": 7521,
      "pert": 7522,
      "engaged": 7523,
      "failure": 7524,
      "disruption": 7525,
      "massive": 7526,
      "animals": 7527,
      "500": 7528,
      "##padding": 7529,
      "toward": 7530,
      "regional": 7531,
      "exception": 7532,
      "horse": 7533,
      "fash": 7534,
      "pack": 7535,
      "##pet": 7536,
      "##fr": 7537,
      "##ros": 7538,
      "weird": 7539,
      "biggest": 7540,
      "promise": 7541,
      "statistics": 7542,
      "greet": 7543,
      "nazis": 7544,
      "ignorance": 7545,
      "cellpadding": 7546,
      "holocaust": 7547,
      "gain": 7548,
      "muse": 7549,
      "##word": 7550,
      "##iest": 7551,
      "##inger": 7552,
      "feelings": 7553,
      "lacking": 7554,
      "matches": 7555,
      "78": 7556,
      "gn": 7557,
      "gam": 7558,
      "porn": 7559,
      "##mo": 7560,
      "staff": 7561,
      "adult": 7562,
      "fuckin": 7563,
      "entitled": 7564,
      "fails": 7565,
      "homeland": 7566,
      "products": 7567,
      "##steve": 7568,
      "96": 7569,
      "##ender": 7570,
      "poland": 7571,
      "informed": 7572,
      "##ission": 7573,
      "addresses": 7574,
      "director": 7575,
      "threatening": 7576,
      "machine": 7577,
      "pronoun": 7578,
      "cos": 7579,
      "lit": 7580,
      "##pages": 7581,
      "proud": 7582,
      "intend": 7583,
      "accom": 7584,
      "finish": 7585,
      "magn": 7586,
      "technically": 7587,
      "bug": 7588,
      "cart": 7589,
      "ol": 7590,
      "react": 7591,
      "##ilty": 7592,
      "effects": 7593,
      "angry": 7594,
      "martin": 7595,
      "tired": 7596,
      "##equ": 7597,
      "##ca": 7598,
      "##uf": 7599,
      "##fort": 7600,
      "##jud": 7601,
      "hel": 7602,
      "critics": 7603,
      "colour": 7604,
      "incidents": 7605,
      "##mmmm": 7606,
      "experts": 7607,
      "violates": 7608,
      "sky": 7609,
      "49": 7610,
      "##cious": 7611,
      "##sey": 7612,
      "contem": 7613,
      "##riage": 7614,
      "nowhere": 7615,
      "##odox": 7616,
      "violated": 7617,
      "esp": 7618,
      "christmas": 7619,
      "historian": 7620,
      "happening": 7621,
      "skills": 7622,
      "travel": 7623,
      "absur": 7624,
      "introduced": 7625,
      "censor": 7626,
      "macedonian": 7627,
      "##crapcrapcrapcrapcrapcrapcrapcrap": 7628,
      "95": 7629,
      "ray": 7630,
      "##ux": 7631,
      "surr": 7632,
      "##ibly": 7633,
      "elimin": 7634,
      "produced": 7635,
      "scholarly": 7636,
      "unreliable": 7637,
      "81": 7638,
      "94": 7639,
      "dare": 7640,
      "gross": 7641,
      "province": 7642,
      "administration": 7643,
      "describing": 7644,
      "portug": 7645,
      "offered": 7646,
      "determined": 7647,
      "ugly": 7648,
      "kick": 7649,
      "##erg": 7650,
      "inj": 7651,
      "##ipe": 7652,
      "refs": 7653,
      "breed": 7654,
      "recorded": 7655,
      "aircraft": 7656,
      "loss": 7657,
      "snow": 7658,
      "crazy": 7659,
      "successful": 7660,
      "unlikely": 7661,
      "trivial": 7662,
      "lick": 7663,
      "ts": 7664,
      "##tp": 7665,
      "##iful": 7666,
      "##une": 7667,
      "covers": 7668,
      "defe": 7669,
      "believed": 7670,
      "artists": 7671,
      "url": 7672,
      "libel": 7673,
      "movies": 7674,
      "amazing": 7675,
      "bosn": 7676,
      "bib": 7677,
      "##oon": 7678,
      "##vio": 7679,
      "perce": 7680,
      "annoying": 7681,
      "87": 7682,
      "ath": 7683,
      "cd": 7684,
      "gather": 7685,
      "##85": 7686,
      "##ater": 7687,
      "##ari": 7688,
      "clue": 7689,
      "gotten": 7690,
      "extent": 7691,
      "handle": 7692,
      "killing": 7693,
      "marked": 7694,
      "additionally": 7695,
      "literally": 7696,
      "principle": 7697,
      "congratulations": 7698,
      "desire": 7699,
      "realized": 7700,
      "strateg": 7701,
      "flight": 7702,
      "administrative": 7703,
      "allows": 7704,
      "identified": 7705,
      "affili": 7706,
      "possibility": 7707,
      "punish": 7708,
      "acknowledge": 7709,
      "bed": 7710,
      "mun": 7711,
      "wis": 7712,
      "##ients": 7713,
      "##itz": 7714,
      "##tics": 7715,
      "##illa": 7716,
      "incons": 7717,
      "liar": 7718,
      "millions": 7719,
      "credibility": 7720,
      "cleanup": 7721,
      "medicine": 7722,
      "eb": 7723,
      "fif": 7724,
      "kr": 7725,
      "##ker": 7726,
      "##erc": 7727,
      "##asy": 7728,
      "##ulf": 7729,
      "imply": 7730,
      "firm": 7731,
      "granted": 7732,
      "##ached": 7733,
      "misrep": 7734,
      "merit": 7735,
      "denial": 7736,
      "items": 7737,
      "anthony": 7738,
      "distinction": 7739,
      "croatian": 7740,
      "deliberately": 7741,
      "sag": 7742,
      "##iler": 7743,
      "chosen": 7744,
      "##ounder": 7745,
      "corresp": 7746,
      "inserted": 7747,
      "continuing": 7748,
      "unconstructive": 7749,
      "bog": 7750,
      "tree": 7751,
      "##uable": 7752,
      "##kes": 7753,
      "##30": 7754,
      "##icated": 7755,
      "arse": 7756,
      "heb": 7757,
      "contract": 7758,
      "raise": 7759,
      "dogs": 7760,
      "##ointed": 7761,
      "fashion": 7762,
      "correspond": 7763,
      "51": 7764,
      "les": 7765,
      "##usal": 7766,
      "prison": 7767,
      "plat": 7768,
      "defense": 7769,
      "crimes": 7770,
      "promoting": 7771,
      "diag": 7772,
      "arabic": 7773,
      "rollback": 7774,
      "mixed": 7775,
      "disease": 7776,
      "fictional": 7777,
      "ec": 7778,
      "pir": 7779,
      "sant": 7780,
      "justified": 7781,
      "secondly": 7782,
      "organisation": 7783,
      "receive": 7784,
      "hoping": 7785,
      "ambig": 7786,
      "3rd": 7787,
      "ss": 7788,
      "yah": 7789,
      "memory": 7790,
      "cares": 7791,
      "elements": 7792,
      "lede": 7793,
      "reputable": 7794,
      "joseph": 7795,
      "bunksteve": 7796,
      "300": 7797,
      "dc": 7798,
      "pra": 7799,
      "##entions": 7800,
      "forb": 7801,
      "consult": 7802,
      "greatest": 7803,
      "fixing": 7804,
      "documentation": 7805,
      "balanced": 7806,
      "daniel": 7807,
      "newcomers": 7808,
      "rab": 7809,
      "wolf": 7810,
      "wizard": 7811,
      "##wa": 7812,
      "##dra": 7813,
      "neigh": 7814,
      "##akes": 7815,
      "training": 7816,
      "douche": 7817,
      "deliver": 7818,
      "poorly": 7819,
      "##00000000": 7820,
      "circumst": 7821,
      "koso": 7822,
      "expansion": 7823,
      "bon": 7824,
      "mate": 7825,
      "mamas": 7826,
      "##sa": 7827,
      "##vi": 7828,
      "stone": 7829,
      "height": 7830,
      "anyways": 7831,
      "whenever": 7832,
      "scene": 7833,
      "launch": 7834,
      "flat": 7835,
      "causes": 7836,
      "##ughter": 7837,
      "newspapers": 7838,
      "bay": 7839,
      "mast": 7840,
      "##kins": 7841,
      "##onents": 7842,
      "##etical": 7843,
      "orphan": 7844,
      "ship": 7845,
      "##eme": 7846,
      "##perate": 7847,
      "invited": 7848,
      "mainpage": 7849,
      "property": 7850,
      "assumed": 7851,
      "notices": 7852,
      "preferred": 7853,
      "custom": 7854,
      "museum": 7855,
      "62": 7856,
      "khan": 7857,
      "pil": 7858,
      "##bg": 7859,
      "##zil": 7860,
      "##lla": 7861,
      "prick": 7862,
      "phen": 7863,
      "muhammad": 7864,
      "tells": 7865,
      "switch": 7866,
      "slav": 7867,
      "korea": 7868,
      "disgust": 7869,
      "innocent": 7870,
      "##lation": 7871,
      "##itect": 7872,
      "andrew": 7873,
      "chief": 7874,
      "helped": 7875,
      "offended": 7876,
      "consideration": 7877,
      "minute": 7878,
      "download": 7879,
      "publisher": 7880,
      "survey": 7881,
      "answered": 7882,
      "respected": 7883,
      "ethnicity": 7884,
      "animal": 7885,
      "occupation": 7886,
      "79": 7887,
      "disney": 7888,
      "upset": 7889,
      "violence": 7890,
      "indicates": 7891,
      "racial": 7892,
      "serbia": 7893,
      "satisfy": 7894,
      "sect": 7895,
      "saf": 7896,
      "phone": 7897,
      "writers": 7898,
      "smart": 7899,
      "internal": 7900,
      "steve": 7901,
      "conventions": 7902,
      "orthodox": 7903,
      "texas": 7904,
      "sales": 7905,
      "##rates": 7906,
      "##da": 7907,
      "##ini": 7908,
      "guit": 7909,
      "pointless": 7910,
      "generation": 7911,
      "highest": 7912,
      "positions": 7913,
      "girls": 7914,
      "##11111111111111111111111111111111": 7915,
      "rewritten": 7916,
      "sv": 7917,
      "##ening": 7918,
      "percent": 7919,
      "directory": 7920,
      "architect": 7921,
      "represented": 7922,
      "socialist": 7923,
      "accompl": 7924,
      "zion": 7925,
      "##mark": 7926,
      "ham": 7927,
      "##cher": 7928,
      "abusive": 7929,
      "coordin": 7930,
      "screw": 7931,
      "methods": 7932,
      "assessment": 7933,
      "##rim": 7934,
      "##wor": 7935,
      "##lad": 7936,
      "##hist": 7937,
      "stuck": 7938,
      "doc": 7939,
      "compos": 7940,
      "submitted": 7941,
      "crow": 7942,
      "string": 7943,
      "merging": 7944,
      "geograph": 7945,
      "honor": 7946,
      "bothered": 7947,
      "##hhhh": 7948,
      "intelligent": 7949,
      "pleas": 7950,
      "##zzzzzzzzzzzzzzzzzzzzzzzzzzzzzzzz": 7951,
      "relatively": 7952,
      "fly": 7953,
      "ran": 7954,
      "##pa": 7955,
      "##ario": 7956,
      "parlia": 7957,
      "##acing": 7958,
      "believes": 7959,
      "##ews": 7960,
      "origins": 7961,
      "refuse": 7962,
      "viet": 7963,
      "185": 7964,
      "harassing": 7965,
      "##oooooooo": 7966,
      "discovered": 7967,
      "hidden": 7968,
      "pump": 7969,
      "caught": 7970,
      "describes": 7971,
      "jackson": 7972,
      "bol": 7973,
      "fab": 7974,
      "##ties": 7975,
      "##ena": 7976,
      "neo": 7977,
      "referencing": 7978,
      "specifies": 7979,
      "qualify": 7980,
      "recognise": 7981,
      "judgement": 7982,
      "square": 7983,
      "plagiar": 7984,
      "##osp": 7985,
      "spin": 7986,
      "mont": 7987,
      "powerful": 7988,
      "occasion": 7989,
      "calc": 7990,
      "##dden": 7991,
      "voting": 7992,
      "witness": 7993,
      "management": 7994,
      "risk": 7995,
      "cia": 7996,
      "dab": 7997,
      "fle": 7998,
      "jon": 7999,
      "sell": 8000,
      "resist": 8001,
      "boys": 8002,
      "definitions": 8003,
      "quoting": 8004,
      "dubious": 8005,
      "##encies": 8006,
      "louis": 8007,
      "83": 8008,
      "##lection": 8009,
      "imo": 8010,
      "##ounded": 8011,
      "commented": 8012,
      "gender": 8013,
      "branch": 8014,
      "valuable": 8015,
      "bigger": 8016,
      "primarily": 8017,
      "absurd": 8018,
      "tips": 8019,
      "##uries": 8020,
      "param": 8021,
      "greatly": 8022,
      "distingu": 8023,
      "affair": 8024,
      "blogs": 8025,
      "adopt": 8026,
      "##wwwwwwwwwwwwwwwwwwwwwwwwwwwwwwww": 8027,
      "hebrew": 8028,
      "aka": 8029,
      "py": 8030,
      "##mamas": 8031,
      "whe": 8032,
      "exch": 8033,
      "flor": 8034,
      "minister": 8035,
      "boymamas": 8036,
      "dutch": 8037,
      "inconsist": 8038,
      "ryan": 8039,
      "##iy": 8040,
      "##time": 8041,
      "##bc": 8042,
      "##iled": 8043,
      "reser": 8044,
      "doesnt": 8045,
      "189": 8046,
      "authorit": 8047,
      "estim": 8048,
      "hyper": 8049,
      "casual": 8050,
      "csd": 8051,
      "equivalent": 8052,
      "mas": 8053,
      "##25": 8054,
      "theor": 8055,
      "guilty": 8056,
      "submit": 8057,
      "plant": 8058,
      "broth": 8059,
      "presence": 8060,
      "##hob": 8061,
      "##coming": 8062,
      "closer": 8063,
      "windows": 8064,
      "afghanistan": 8065,
      "francis": 8066,
      "misrepresent": 8067,
      "mainpagebg": 8068,
      "font": 8069,
      "bee": 8070,
      "trade": 8071,
      "moon": 8072,
      "informative": 8073,
      "bridge": 8074,
      "archived": 8075,
      "smaller": 8076,
      "idiots": 8077,
      "electron": 8078,
      "jerk": 8079,
      "bure": 8080,
      "vom": 8081,
      "climate": 8082,
      "owned": 8083,
      "##anned": 8084,
      "supporters": 8085,
      "opened": 8086,
      "teams": 8087,
      "bringing": 8088,
      "parliament": 8089,
      "gur": 8090,
      "ot": 8091,
      "##bys": 8092,
      "##24": 8093,
      "##911": 8094,
      "##igan": 8095,
      "orient": 8096,
      "sudden": 8097,
      "poly": 8098,
      "redundant": 8099,
      "eh": 8100,
      "##esc": 8101,
      "asse": 8102,
      "deletions": 8103,
      "scope": 8104,
      "decent": 8105,
      "distinct": 8106,
      "fyi": 8107,
      "phenomen": 8108,
      "dvd": 8109,
      "ze": 8110,
      "shock": 8111,
      "matt": 8112,
      "regarded": 8113,
      "reviewer": 8114,
      "founded": 8115,
      "extensive": 8116,
      "publishing": 8117,
      "pressure": 8118,
      "##formation": 8119,
      "communication": 8120,
      "dialect": 8121,
      "lady": 8122,
      "dave": 8123,
      "mang": 8124,
      "##omy": 8125,
      "deem": 8126,
      "unh": 8127,
      "genetic": 8128,
      "invite": 8129,
      "behalf": 8130,
      "conclusions": 8131,
      "application": 8132,
      "championship": 8133,
      "89": 8134,
      "fu": 8135,
      "sev": 8136,
      "formed": 8137,
      "transfer": 8138,
      "turks": 8139,
      "controlled": 8140,
      "testing": 8141,
      "juda": 8142,
      "voted": 8143,
      "intellectual": 8144,
      "##off": 8145,
      "##nis": 8146,
      "moves": 8147,
      "texts": 8148,
      "meeting": 8149,
      "spoken": 8150,
      "nl": 8151,
      "anarch": 8152,
      "##ingly": 8153,
      "highlight": 8154,
      "greeks": 8155,
      "insults": 8156,
      "victor": 8157,
      "rejected": 8158,
      "founder": 8159,
      "pc": 8160,
      "##34": 8161,
      "##60": 8162,
      "##aly": 8163,
      "##icial": 8164,
      "doll": 8165,
      "defending": 8166,
      "feels": 8167,
      "untr": 8168,
      "singh": 8169,
      "216": 8170,
      "speakers": 8171,
      "blah": 8172,
      "replaceable": 8173,
      "suspected": 8174,
      "row": 8175,
      "##core": 8176,
      "##bles": 8177,
      "##kj": 8178,
      "inher": 8179,
      "sequ": 8180,
      "unin": 8181,
      "partis": 8182,
      "titled": 8183,
      "quotation": 8184,
      "productive": 8185,
      "responses": 8186,
      "complaints": 8187,
      "conditions": 8188,
      "celebr": 8189,
      "relevance": 8190,
      "##las": 8191,
      "##mar": 8192,
      "scr": 8193,
      "cites": 8194,
      "nationalist": 8195,
      "victims": 8196,
      "wanna": 8197,
      "committed": 8198,
      "##athy": 8199,
      "harry": 8200,
      "classic": 8201,
      "privile": 8202,
      "resource": 8203,
      "cc": 8204,
      "##uct": 8205,
      "##erry": 8206,
      "##ado": 8207,
      "wasting": 8208,
      "alright": 8209,
      "proves": 8210,
      "incred": 8211,
      "diffs": 8212,
      "albanian": 8213,
      "88": 8214,
      "voc": 8215,
      "##py": 8216,
      "##hol": 8217,
      "##iders": 8218,
      "herself": 8219,
      "marriage": 8220,
      "dyn": 8221,
      "breaking": 8222,
      "brazil": 8223,
      "sleep": 8224,
      "93": 8225,
      "##wide": 8226,
      "##pan": 8227,
      "##iently": 8228,
      "##ivers": 8229,
      "##bai": 8230,
      "notification": 8231,
      "units": 8232,
      "##aked": 8233,
      "infin": 8234,
      "##icket": 8235,
      "joined": 8236,
      "writes": 8237,
      "questionable": 8238,
      "germans": 8239,
      "creative": 8240,
      "nominate": 8241,
      "1999": 8242,
      "tables": 8243,
      "selected": 8244,
      "democracy": 8245,
      "mongo": 8246,
      "gm": 8247,
      "wwe": 8248,
      "##mon": 8249,
      "##ji": 8250,
      "##oul": 8251,
      "##orse": 8252,
      "##llll": 8253,
      "##uting": 8254,
      "##iments": 8255,
      "##ils": 8256,
      "talks": 8257,
      "mob": 8258,
      "subjective": 8259,
      "copyrights": 8260,
      "184": 8261,
      "144": 8262,
      "requirements": 8263,
      "institute": 8264,
      "73": 8265,
      "gal": 8266,
      "pg": 8267,
      "satur": 8268,
      "wise": 8269,
      "##aur": 8270,
      "##bby": 8271,
      "##otect": 8272,
      "proph": 8273,
      "drag": 8274,
      "##ipped": 8275,
      "elections": 8276,
      "burn": 8277,
      "dedicated": 8278,
      "guitar": 8279,
      "nuc": 8280,
      "pac": 8281,
      "##don": 8282,
      "##ita": 8283,
      "##oty": 8284,
      "##ott": 8285,
      "##lets": 8286,
      "##ologists": 8287,
      "wont": 8288,
      "##resents": 8289,
      "footnote": 8290,
      "islands": 8291,
      "greetings": 8292,
      "circumstances": 8293,
      "sister": 8294,
      "##bra": 8295,
      "##oos": 8296,
      "exerc": 8297,
      "interv": 8298,
      "##ologist": 8299,
      "sched": 8300,
      "harrass": 8301,
      "summer": 8302,
      "leaders": 8303,
      "approved": 8304,
      "expressed": 8305,
      "occurred": 8306,
      "puppetry": 8307,
      "balls": 8308,
      "vomit": 8309,
      "##eper": 8310,
      "arts": 8311,
      "##aks": 8312,
      "adds": 8313,
      "interact": 8314,
      "subt": 8315,
      "sometime": 8316,
      "embar": 8317,
      "blame": 8318,
      "150": 8319,
      "allowing": 8320,
      "##eeee": 8321,
      "planning": 8322,
      "advertise": 8323,
      "increasing": 8324,
      "hanibal": 8325,
      "dance": 8326,
      "earn": 8327,
      "pending": 8328,
      "tiny": 8329,
      "zeal": 8330,
      "##atics": 8331,
      "##ali": 8332,
      "##rozen": 8333,
      "shop": 8334,
      "excess": 8335,
      "fack": 8336,
      "train": 8337,
      "coast": 8338,
      "married": 8339,
      "column": 8340,
      "preser": 8341,
      "esc": 8342,
      "fourth": 8343,
      "variety": 8344,
      "hearing": 8345,
      "steps": 8346,
      "principles": 8347,
      "brothers": 8348,
      "hanibal911": 8349,
      "bod": 8350,
      "dur": 8351,
      "hip": 8352,
      "yug": 8353,
      "##oe": 8354,
      "##agan": 8355,
      "withdra": 8356,
      "lee": 8357,
      "verb": 8358,
      "ownership": 8359,
      "herit": 8360,
      "syria": 8361,
      "177": 8362,
      "250": 8363,
      "stephen": 8364,
      "mental": 8365,
      "substantially": 8366,
      "63": 8367,
      "gif": 8368,
      "##wer": 8369,
      "##fan": 8370,
      "##icide": 8371,
      "##lace": 8372,
      "eval": 8373,
      "spa": 8374,
      "hadn": 8375,
      "filed": 8376,
      "leads": 8377,
      "passage": 8378,
      "towns": 8379,
      "selecting": 8380,
      "entertain": 8381,
      "increase": 8382,
      "purely": 8383,
      "##bysouth": 8384,
      "fest": 8385,
      "ja": 8386,
      "whil": 8387,
      "suit": 8388,
      "price": 8389,
      "overview": 8390,
      "problematic": 8391,
      "autob": 8392,
      "concent": 8393,
      "communism": 8394,
      "italy": 8395,
      "heavily": 8396,
      "destroyed": 8397,
      "hanibal911you": 8398,
      "hint": 8399,
      "morm": 8400,
      "padding": 8401,
      "sland": 8402,
      "um": 8403,
      "##inder": 8404,
      "stal": 8405,
      "##illy": 8406,
      "chuck": 8407,
      "alot": 8408,
      "managed": 8409,
      "cris": 8410,
      "##rrrr": 8411,
      "grav": 8412,
      "intentions": 8413,
      "invented": 8414,
      "whilst": 8415,
      "a7": 8416,
      "coug": 8417,
      "##gary": 8418,
      "##onent": 8419,
      "##onian": 8420,
      "##iced": 8421,
      "notrh": 8422,
      "haha": 8423,
      "##roll": 8424,
      "contained": 8425,
      "amend": 8426,
      "##elly": 8427,
      "relating": 8428,
      "reasonably": 8429,
      "180": 8430,
      "calm": 8431,
      "alphab": 8432,
      "oxford": 8433,
      "hus": 8434,
      "##uts": 8435,
      "prejud": 8436,
      "spain": 8437,
      "129": 8438,
      "independence": 8439,
      "volume": 8440,
      "##banof": 8441,
      "licensing": 8442,
      "supreme": 8443,
      "palestinian": 8444,
      "##bysouthbanof": 8445,
      "notrhbysouthbanof": 8446,
      "ring": 8447,
      "tast": 8448,
      "##lor": 8449,
      "frame": 8450,
      "dishon": 8451,
      "intr": 8452,
      "commenting": 8453,
      "commission": 8454,
      "columb": 8455,
      "173": 8456,
      "childish": 8457,
      "renamed": 8458,
      "huh": 8459,
      "essay": 8460,
      "demonstrate": 8461,
      "securityfuck": 8462,
      "condition": 8463,
      "emphasis": 8464,
      "cougar": 8465,
      "din": 8466,
      "sr": 8467,
      "##guy": 8468,
      "##29": 8469,
      "spamming": 8470,
      "marx": 8471,
      "starts": 8472,
      "decisions": 8473,
      "smile": 8474,
      "depth": 8475,
      "cuntbag": 8476,
      "##missions": 8477,
      "connected": 8478,
      "crack": 8479,
      "bulgarian": 8480,
      "garb": 8481,
      "ein": 8482,
      "polite": 8483,
      "chron": 8484,
      "turns": 8485,
      "minded": 8486,
      "effective": 8487,
      "videos": 8488,
      "blanking": 8489,
      "procedure": 8490,
      "correction": 8491,
      "lake": 8492,
      "pp": 8493,
      "infer": 8494,
      "storm": 8495,
      "##aded": 8496,
      "##http": 8497,
      "whats": 8498,
      "parap": 8499,
      "argued": 8500,
      "accordance": 8501,
      "similarly": 8502,
      "translated": 8503,
      "dynam": 8504,
      "expression": 8505,
      "filled": 8506,
      "amazon": 8507,
      "soldiers": 8508,
      "therap": 8509,
      "91": 8510,
      "ic": 8511,
      "ry": 8512,
      "##bel": 8513,
      "##inn": 8514,
      "alert": 8515,
      "factor": 8516,
      "oblig": 8517,
      "musical": 8518,
      "awes": 8519,
      "explanations": 8520,
      "daughter": 8521,
      "sockpuppets": 8522,
      "trolls": 8523,
      "sweet": 8524,
      "azerbai": 8525,
      "encyclopaedia": 8526,
      "heritage": 8527,
      "bs": 8528,
      "##gor": 8529,
      "andy": 8530,
      "whore": 8531,
      "##ereign": 8532,
      "conference": 8533,
      "##iger": 8534,
      "proved": 8535,
      "##udes": 8536,
      "grant": 8537,
      "copyvio": 8538,
      "symp": 8539,
      "##ighter": 8540,
      "##whel": 8541,
      "translate": 8542,
      "sanction": 8543,
      "unrelated": 8544,
      "disappear": 8545,
      "judaism": 8546,
      "fc": 8547,
      "mand": 8548,
      "tip": 8549,
      "actor": 8550,
      "warming": 8551,
      "defam": 8552,
      "merger": 8553,
      "classical": 8554,
      "concepts": 8555,
      "forums": 8556,
      "sovereign": 8557,
      "conformance": 8558,
      "audio": 8559,
      "coward": 8560,
      "az": 8561,
      "breat": 8562,
      "kat": 8563,
      "##tes": 8564,
      "soap": 8565,
      "##uls": 8566,
      "remaining": 8567,
      "overwhel": 8568,
      "checkuser": 8569,
      "188": 8570,
      "charges": 8571,
      "142": 8572,
      "caption": 8573,
      "famil": 8574,
      "improvements": 8575,
      "recognition": 8576,
      "##burg": 8577,
      "presumably": 8578,
      "nc": 8579,
      "rud": 8580,
      "##rol": 8581,
      "suff": 8582,
      "imdb": 8583,
      "##ogy": 8584,
      "viewed": 8585,
      "gotta": 8586,
      "ends": 8587,
      "drama": 8588,
      "212": 8589,
      "terrible": 8590,
      "typing": 8591,
      "scotland": 8592,
      "attribution": 8593,
      "precisely": 8594,
      "mol": 8595,
      "inline": 8596,
      "isbn": 8597,
      "offense": 8598,
      "adminship": 8599,
      "##ocol": 8600,
      "isnt": 8601,
      "authorities": 8602,
      "potentially": 8603,
      "programs": 8604,
      "cocksucking": 8605,
      "reinst": 8606,
      "arrogant": 8607,
      "obscure": 8608,
      "forgive": 8609,
      "kosovo": 8610,
      "bird": 8611,
      "rf": 8612,
      "##bour": 8613,
      "##ches": 8614,
      "talked": 8615,
      "##oslav": 8616,
      "infring": 8617,
      "vegg": 8618,
      "blow": 8619,
      "strike": 8620,
      "kinds": 8621,
      "introduce": 8622,
      "duke": 8623,
      "straw": 8624,
      "performance": 8625,
      "reversion": 8626,
      "completed": 8627,
      "facilitate": 8628,
      "massacre": 8629,
      "awesome": 8630,
      "dim": 8631,
      "hosp": 8632,
      "iii": 8633,
      "nas": 8634,
      "rant": 8635,
      "rose": 8636,
      "slo": 8637,
      "##hab": 8638,
      "##itter": 8639,
      "##usively": 8640,
      "wikis": 8641,
      "acqu": 8642,
      "##annon": 8643,
      "arabs": 8644,
      "responsibility": 8645,
      "mexico": 8646,
      "subsequent": 8647,
      "contemporary": 8648,
      "od": 8649,
      "##ym": 8650,
      "##bish": 8651,
      "##ati": 8652,
      "lect": 8653,
      "goals": 8654,
      "vandalising": 8655,
      "corn": 8656,
      "issued": 8657,
      "inval": 8658,
      "entity": 8659,
      "accurately": 8660,
      "institution": 8661,
      "minimum": 8662,
      "wrestling": 8663,
      "gro": 8664,
      "oly": 8665,
      "rough": 8666,
      "##nos": 8667,
      "##uated": 8668,
      "##200": 8669,
      "stock": 8670,
      "##thanks": 8671,
      "trick": 8672,
      "coinc": 8673,
      "brows": 8674,
      "174": 8675,
      "indicated": 8676,
      "practices": 8677,
      "closing": 8678,
      "thousand": 8679,
      "challenged": 8680,
      "locked": 8681,
      "pretend": 8682,
      "integrity": 8683,
      "vehicle": 8684,
      "77": 8685,
      "ain": 8686,
      "bin": 8687,
      "wave": 8688,
      "##64": 8689,
      "##otic": 8690,
      "##ophob": 8691,
      "##eline": 8692,
      "represents": 8693,
      "placing": 8694,
      "refused": 8695,
      "assumption": 8696,
      "multip": 8697,
      "##ietales": 8698,
      "requirement": 8699,
      "threatened": 8700,
      "attributed": 8701,
      "adopted": 8702,
      "dangerous": 8703,
      "datab": 8704,
      "garbage": 8705,
      "veggietales": 8706,
      "cub": 8707,
      "eight": 8708,
      "##ule": 8709,
      "toe": 8710,
      "##aman": 8711,
      "##ests": 8712,
      "##iano": 8713,
      "tele": 8714,
      "wanting": 8715,
      "subse": 8716,
      "irc": 8717,
      "disturb": 8718,
      "concernthanks": 8719,
      "accordingly": 8720,
      "modified": 8721,
      "airport": 8722,
      "pieces": 8723,
      "constitute": 8724,
      "window": 8725,
      "broadcast": 8726,
      "immig": 8727,
      "convinced": 8728,
      "cf": 8729,
      "wed": 8730,
      "stars": 8731,
      "##ribe": 8732,
      "##ciation": 8733,
      "warrant": 8734,
      "backed": 8735,
      "poster": 8736,
      "realise": 8737,
      "##bell": 8738,
      "involving": 8739,
      "humans": 8740,
      "##aaa": 8741,
      "declared": 8742,
      "returned": 8743,
      "engineering": 8744,
      "reduce": 8745,
      "romney": 8746,
      "henry": 8747,
      "cze": 8748,
      "lion": 8749,
      "##gers": 8750,
      "##kin": 8751,
      "youth": 8752,
      "##arm": 8753,
      "##ensns": 8754,
      "209": 8755,
      "everywhere": 8756,
      "168": 8757,
      "judgment": 8758,
      "denied": 8759,
      "declined": 8760,
      "buck": 8761,
      "ka": 8762,
      "mig": 8763,
      "sig": 8764,
      "##oh": 8765,
      "##edy": 8766,
      "sum": 8767,
      "adequ": 8768,
      "consum": 8769,
      "hole": 8770,
      "causing": 8771,
      "politically": 8772,
      "humor": 8773,
      "libert": 8774,
      "universal": 8775,
      "contrast": 8776,
      "petty": 8777,
      "profession": 8778,
      "caste": 8779,
      "focused": 8780,
      "economy": 8781,
      "route": 8782,
      "gallery": 8783,
      "dad": 8784,
      "nat": 8785,
      "alive": 8786,
      "agf": 8787,
      "##ode": 8788,
      "regions": 8789,
      "20th": 8790,
      "server": 8791,
      "default": 8792,
      "specul": 8793,
      "strength": 8794,
      "##lands": 8795,
      "avo": 8796,
      "extrem": 8797,
      "130": 8798,
      "discip": 8799,
      "speaks": 8800,
      "##protect": 8801,
      "conflicts": 8802,
      "fascist": 8803,
      "ukrainian": 8804,
      "ancestryfuck": 8805,
      "cum": 8806,
      "##vis": 8807,
      "##etics": 8808,
      "neil": 8809,
      "manuf": 8810,
      "served": 8811,
      "lazy": 8812,
      "worldwide": 8813,
      "retired": 8814,
      "npa": 8815,
      "yellow": 8816,
      "approx": 8817,
      "beautiful": 8818,
      "cnn": 8819,
      "sty": 8820,
      "empt": 8821,
      "moral": 8822,
      "##notes": 8823,
      "singer": 8824,
      "officer": 8825,
      "occas": 8826,
      "dealt": 8827,
      "holding": 8828,
      "salt": 8829,
      "virtually": 8830,
      "terminology": 8831,
      "enemy": 8832,
      "czech": 8833,
      "nasty": 8834,
      "tang": 8835,
      "##talk": 8836,
      "##iah": 8837,
      "dozen": 8838,
      "##ila": 8839,
      "factually": 8840,
      "paris": 8841,
      "recre": 8842,
      "141": 8843,
      "retrie": 8844,
      "legend": 8845,
      "runs": 8846,
      "teacher": 8847,
      "digital": 8848,
      "femin": 8849,
      "reversions": 8850,
      "misunderstanding": 8851,
      "tonight": 8852,
      "imperial": 8853,
      "dishonest": 8854,
      "manufact": 8855,
      "gard": 8856,
      "overt": 8857,
      "rush": 8858,
      "##ras": 8859,
      "##rics": 8860,
      "##esy": 8861,
      "stress": 8862,
      "door": 8863,
      "##ista": 8864,
      "centuries": 8865,
      "values": 8866,
      "construction": 8867,
      "legis": 8868,
      "redirected": 8869,
      "1998": 8870,
      "biographical": 8871,
      "promoted": 8872,
      "##ucas": 8873,
      "winning": 8874,
      "##iably": 8875,
      "indefinitely": 8876,
      "georgia": 8877,
      "acknowledged": 8878,
      "si": 8879,
      "tort": 8880,
      "##lom": 8881,
      "##ona": 8882,
      "##utive": 8883,
      "##etry": 8884,
      "##ador": 8885,
      "##opher": 8886,
      "wease": 8887,
      "comic": 8888,
      "##ifiable": 8889,
      "disreg": 8890,
      "spring": 8891,
      "##lessly": 8892,
      "insp": 8893,
      "flu": 8894,
      "120": 8895,
      "centre": 8896,
      "210": 8897,
      "header": 8898,
      "banning": 8899,
      "identical": 8900,
      "labor": 8901,
      "catal": 8902,
      "journals": 8903,
      "narrow": 8904,
      "croatia": 8905,
      "intervention": 8906,
      "dil": 8907,
      "mitt": 8908,
      "rus": 8909,
      "sight": 8910,
      "##spe": 8911,
      "fresh": 8912,
      "##rugg": 8913,
      "101": 8914,
      "transport": 8915,
      "motherfuck": 8916,
      "interviews": 8917,
      "palestine": 8918,
      "yugoslav": 8919,
      "jar": 8920,
      "paint": 8921,
      "puppets": 8922,
      "##iat": 8923,
      "##bon": 8924,
      "hazel": 8925,
      "##ika": 8926,
      "stan": 8927,
      "comfort": 8928,
      "##akh": 8929,
      "leban": 8930,
      "permitted": 8931,
      "authent": 8932,
      "badly": 8933,
      "176": 8934,
      "unbi": 8935,
      "speaker": 8936,
      "delan": 8937,
      "passing": 8938,
      "taught": 8939,
      "disagreement": 8940,
      "receiving": 8941,
      "meantime": 8942,
      "dropdown": 8943,
      "dated": 8944,
      "gent": 8945,
      "gaz": 8946,
      "rick": 8947,
      "##west": 8948,
      "##theless": 8949,
      "unprotect": 8950,
      "##phere": 8951,
      "detect": 8952,
      "endorse": 8953,
      "addressing": 8954,
      "advant": 8955,
      "protecting": 8956,
      "searching": 8957,
      "capacity": 8958,
      "convince": 8959,
      "horrible": 8960,
      "baseball": 8961,
      "golden": 8962,
      "collaboration": 8963,
      "printed": 8964,
      "unbiased": 8965,
      "delanoy": 8966,
      "sys": 8967,
      "chair": 8968,
      "##ables": 8969,
      "perpet": 8970,
      "spo": 8971,
      "engaging": 8972,
      "122": 8973,
      "extended": 8974,
      "antis": 8975,
      "solve": 8976,
      "weekend": 8977,
      "worthless": 8978,
      "fields": 8979,
      "encouraged": 8980,
      "flaw": 8981,
      "##mond": 8982,
      "##bie": 8983,
      "##uations": 8984,
      "##aling": 8985,
      "conven": 8986,
      "##str": 8987,
      "##iva": 8988,
      "##cience": 8989,
      "scen": 8990,
      "bits": 8991,
      "crus": 8992,
      "carol": 8993,
      "prompt": 8994,
      "cleaning": 8995,
      "initially": 8996,
      "ffffff": 8997,
      "distinguish": 8998,
      "paraphr": 8999,
      "iv": 9000,
      "ull": 9001,
      "##nt": 9002,
      "##uch": 9003,
      "##kh": 9004,
      "suicide": 9005,
      "##rack": 9006,
      "##soft": 9007,
      "seeking": 9008,
      "##inton": 9009,
      "assy": 9010,
      "supply": 9011,
      "corrections": 9012,
      "sorts": 9013,
      "edgar": 9014,
      "superior": 9015,
      "participants": 9016,
      "romanian": 9017,
      "falls": 9018,
      "announced": 9019,
      "rog": 9020,
      "sab": 9021,
      "tan": 9022,
      "obtained": 9023,
      "serving": 9024,
      "##rative": 9025,
      "seconds": 9026,
      "figured": 9027,
      "meaningful": 9028,
      "levels": 9029,
      "malicious": 9030,
      "darwin": 9031,
      "rarely": 9032,
      "pasht": 9033,
      "prepared": 9034,
      "dot": 9035,
      "ros": 9036,
      "##50": 9037,
      "##eration": 9038,
      "##eds": 9039,
      "notion": 9040,
      "##igation": 9041,
      "##ami": 9042,
      "shad": 9043,
      "unjust": 9044,
      "serves": 9045,
      "elabor": 9046,
      "nevertheless": 9047,
      "##athan": 9048,
      "##anny": 9049,
      "kinda": 9050,
      "distance": 9051,
      "portion": 9052,
      "sarc": 9053,
      "anthrop": 9054,
      "bullying": 9055,
      "cree": 9056,
      "duck": 9057,
      "ky": 9058,
      "tel": 9059,
      "wm": 9060,
      "##arre": 9061,
      "comics": 9062,
      "proxy": 9063,
      "##inks": 9064,
      "##ums": 9065,
      "correcting": 9066,
      "carried": 9067,
      "skep": 9068,
      "1000": 9069,
      "typically": 9070,
      "limits": 9071,
      "representative": 9072,
      "physic": 9073,
      "radical": 9074,
      "opposing": 9075,
      "permanent": 9076,
      "semitic": 9077,
      "sikh": 9078,
      "yahoo": 9079,
      "orphaned": 9080,
      "stalin": 9081,
      "families": 9082,
      "gor": 9083,
      "kiss": 9084,
      "pope": 9085,
      "saint": 9086,
      "##ito": 9087,
      "##irs": 9088,
      "prin": 9089,
      "subc": 9090,
      "serbs": 9091,
      "reven": 9092,
      "marks": 9093,
      "temple": 9094,
      "possess": 9095,
      "128": 9096,
      "objects": 9097,
      "broke": 9098,
      "jimmy": 9099,
      "deeply": 9100,
      "aggressive": 9101,
      "nuclear": 9102,
      "invalid": 9103,
      "disregard": 9104,
      "ae": 9105,
      "gab": 9106,
      "hil": 9107,
      "sadd": 9108,
      "##net": 9109,
      "##uan": 9110,
      "##aya": 9111,
      "stable": 9112,
      "##iac": 9113,
      "pray": 9114,
      "114": 9115,
      "discred": 9116,
      "miles": 9117,
      "meaningless": 9118,
      "supposedly": 9119,
      "succeed": 9120,
      "essential": 9121,
      "alexander": 9122,
      "solely": 9123,
      "dor": 9124,
      "jac": 9125,
      "kidd": 9126,
      "##uro": 9127,
      "##hop": 9128,
      "orange": 9129,
      "shannon": 9130,
      "albert": 9131,
      "##anger": 9132,
      "crash": 9133,
      "merits": 9134,
      "inserting": 9135,
      "contested": 9136,
      "derived": 9137,
      "favorite": 9138,
      "bbb": 9139,
      "folk": 9140,
      "upper": 9141,
      "##uge": 9142,
      "##ano": 9143,
      "reception": 9144,
      "##ikes": 9145,
      "conqu": 9146,
      "cann": 9147,
      "##rior": 9148,
      "##race": 9149,
      "##alled": 9150,
      "teen": 9151,
      "fell": 9152,
      "attend": 9153,
      "##itty": 9154,
      "descend": 9155,
      "ideology": 9156,
      "slim": 9157,
      "stats": 9158,
      "mode": 9159,
      "representation": 9160,
      "comprehensive": 9161,
      "strictly": 9162,
      "licker": 9163,
      "4th": 9164,
      "dj": 9165,
      "ell": 9166,
      "hub": 9167,
      "rise": 9168,
      "##rick": 9169,
      "anime": 9170,
      "##alle": 9171,
      "shith": 9172,
      "##riend": 9173,
      "copyed": 9174,
      "##uese": 9175,
      "179": 9176,
      "nigga": 9177,
      "nationalism": 9178,
      "1990": 9179,
      "replacement": 9180,
      "releases": 9181,
      "communicate": 9182,
      "growing": 9183,
      "settled": 9184,
      "dropped": 9185,
      "exchange": 9186,
      "dal": 9187,
      "fought": 9188,
      "iq": 9189,
      "kings": 9190,
      "plans": 9191,
      "vandalise": 9192,
      "guidance": 9193,
      "transform": 9194,
      "1991": 9195,
      "multi": 9196,
      "cease": 9197,
      "stubs": 9198,
      "expertise": 9199,
      "displayed": 9200,
      "options": 9201,
      "mechanism": 9202,
      "synthesis": 9203,
      "eric": 9204,
      "##taining": 9205,
      "##75": 9206,
      "##eries": 9207,
      "rex": 9208,
      "##ota": 9209,
      "##road": 9210,
      "##very": 9211,
      "myster": 9212,
      "socks": 9213,
      "exhib": 9214,
      "##ivility": 9215,
      "reliability": 9216,
      "sav": 9217,
      "109": 9218,
      "ending": 9219,
      "118": 9220,
      "nominations": 9221,
      "patri": 9222,
      "cunts": 9223,
      "religions": 9224,
      "operating": 9225,
      "victory": 9226,
      "permanently": 9227,
      "bradbury": 9228,
      "weasel": 9229,
      "hoo": 9230,
      "ric": 9231,
      "##ez": 9232,
      "##ranted": 9233,
      "##uing": 9234,
      "##iring": 9235,
      "leaves": 9236,
      "19th": 9237,
      "contentious": 9238,
      "103": 9239,
      "123": 9240,
      "138": 9241,
      "lawyer": 9242,
      "statistic": 9243,
      "gayf": 9244,
      "encoun": 9245,
      "satan": 9246,
      "persistent": 9247,
      "maxim": 9248,
      "overwhelming": 9249,
      "ullmann": 9250,
      "61": 9251,
      "doug": 9252,
      "flying": 9253,
      "hous": 9254,
      "##28": 9255,
      "##illing": 9256,
      "##hero": 9257,
      "##iana": 9258,
      "outcome": 9259,
      "regret": 9260,
      "183": 9261,
      "146": 9262,
      "178": 9263,
      "logging": 9264,
      "##prus": 9265,
      "unrefer": 9266,
      "implic": 9267,
      "portuguese": 9268,
      "saget": 9269,
      "disgusting": 9270,
      "hunt": 9271,
      "hiding": 9272,
      "josh": 9273,
      "oce": 9274,
      "##ridge": 9275,
      "##col": 9276,
      "##icient": 9277,
      "##ched": 9278,
      "##thur": 9279,
      "##irt": 9280,
      "chi": 9281,
      "teh": 9282,
      "indo": 9283,
      "instances": 9284,
      "shitfuck": 9285,
      "159": 9286,
      "presenting": 9287,
      "historically": 9288,
      "breach": 9289,
      "wonderful": 9290,
      "scientist": 9291,
      "capable": 9292,
      "updating": 9293,
      "rename": 9294,
      "participation": 9295,
      "cyprus": 9296,
      "significantly": 9297,
      "centralist": 9298,
      "demonstrated": 9299,
      "senior": 9300,
      "mongol": 9301,
      "pronun": 9302,
      "##yyyy": 9303,
      "enforcement": 9304,
      "platform": 9305,
      "plagiarism": 9306,
      "elev": 9307,
      "goth": 9308,
      "homin": 9309,
      "kim": 9310,
      "##band": 9311,
      "beck": 9312,
      "##rov": 9313,
      "##ima": 9314,
      "outright": 9315,
      "root": 9316,
      "##respect": 9317,
      "freak": 9318,
      "qualified": 9319,
      "descriptions": 9320,
      "approval": 9321,
      "influenced": 9322,
      "buddy": 9323,
      "olymp": 9324,
      "fame": 9325,
      "##estic": 9326,
      "stations": 9327,
      "##uman": 9328,
      "spelled": 9329,
      "feet": 9330,
      "##aph": 9331,
      "twist": 9332,
      "suppress": 9333,
      "scum": 9334,
      "descent": 9335,
      "##she": 9336,
      "chronic": 9337,
      "depend": 9338,
      "patience": 9339,
      "errone": 9340,
      "banner": 9341,
      "flags": 9342,
      "##181": 9343,
      "ukraine": 9344,
      "shooting": 9345,
      "partisan": 9346,
      "fer": 9347,
      "##rage": 9348,
      "##auc": 9349,
      "##ded": 9350,
      "##70": 9351,
      "inqu": 9352,
      "##etor": 9353,
      "##char": 9354,
      "mold": 9355,
      "regularly": 9356,
      "##orders": 9357,
      "decades": 9358,
      "108": 9359,
      "charl": 9360,
      "complicated": 9361,
      "taiw": 9362,
      "alternate": 9363,
      "reflects": 9364,
      "turkic": 9365,
      "database": 9366,
      "rig": 9367,
      "tib": 9368,
      "##inent": 9369,
      "hamm": 9370,
      "##etime": 9371,
      "strugg": 9372,
      "##stupid": 9373,
      "##thew": 9374,
      "##olit": 9375,
      "unus": 9376,
      "adjust": 9377,
      "indication": 9378,
      "##ipping": 9379,
      "censored": 9380,
      "undoing": 9381,
      "citizen": 9382,
      "mountain": 9383,
      "fantasy": 9384,
      "hypothesis": 9385,
      "entertainment": 9386,
      "unreferenced": 9387,
      "jur": 9388,
      "tun": 9389,
      "uh": 9390,
      "##pass": 9391,
      "##ket": 9392,
      "##abled": 9393,
      "trash": 9394,
      "##iveness": 9395,
      "raw": 9396,
      "tries": 9397,
      "deaths": 9398,
      "bapt": 9399,
      "rapid": 9400,
      "sweep": 9401,
      "tactics": 9402,
      "centraliststupid": 9403,
      "tong": 9404,
      "##66": 9405,
      "##asp": 9406,
      "##lywood": 9407,
      "seperate": 9408,
      "attached": 9409,
      "revisions": 9410,
      "personality": 9411,
      "##tym": 9412,
      "expos": 9413,
      "surface": 9414,
      "quotations": 9415,
      "picked": 9416,
      "##iques": 9417,
      "##33333333": 9418,
      "cabal": 9419,
      "bleach": 9420,
      "perceived": 9421,
      "fabric": 9422,
      "suddenly": 9423,
      "untrue": 9424,
      "antisem": 9425,
      "taiwan": 9426,
      "fals": 9427,
      "ive": 9428,
      "ow": 9429,
      "shah": 9430,
      "shape": 9431,
      "##rial": 9432,
      "dislike": 9433,
      "apple": 9434,
      "tea": 9435,
      "204": 9436,
      "207": 9437,
      "signpost": 9438,
      "sym": 9439,
      "1993": 9440,
      "1995": 9441,
      "buildings": 9442,
      "reduced": 9443,
      "forgotten": 9444,
      "screens": 9445,
      "layout": 9446,
      "swedish": 9447,
      "authentic": 9448,
      "fart": 9449,
      "km": 9450,
      "rv": 9451,
      "sitting": 9452,
      "tough": 9453,
      "yep": 9454,
      "##rine": 9455,
      "##enth": 9456,
      "abst": 9457,
      "myspace": 9458,
      "spect": 9459,
      "appropri": 9460,
      "repro": 9461,
      "saved": 9462,
      "cheat": 9463,
      "##ava": 9464,
      "emer": 9465,
      "plays": 9466,
      "162": 9467,
      "##onto": 9468,
      "portray": 9469,
      "performed": 9470,
      "recommended": 9471,
      "psychology": 9472,
      "blatantly": 9473,
      "kurd": 9474,
      "microsoft": 9475,
      "cooperation": 9476,
      "etym": 9477,
      "ping": 9478,
      "##ran": 9479,
      "conce": 9480,
      "##iry": 9481,
      "verification": 9482,
      "assure": 9483,
      "##ccc": 9484,
      "borrow": 9485,
      "organized": 9486,
      "elected": 9487,
      "assertions": 9488,
      "combined": 9489,
      "withdraw": 9490,
      "111": 9491,
      "pics": 9492,
      "sending": 9493,
      "ted": 9494,
      "##rich": 9495,
      "##gs": 9496,
      "##bb": 9497,
      "##alus": 9498,
      "asp": 9499,
      "##aka": 9500,
      "##ahh": 9501,
      "differently": 9502,
      "110": 9503,
      "improper": 9504,
      "patent": 9505,
      "1992": 9506,
      "edward": 9507,
      "courtesy": 9508,
      "educational": 9509,
      "phrases": 9510,
      "champion": 9511,
      "hatred": 9512,
      "circumc": 9513,
      "astro": 9514,
      "alien": 9515,
      "wtf": 9516,
      "tamil": 9517,
      "crisis": 9518,
      "ay": 9519,
      "mi": 9520,
      "##mos": 9521,
      "##78": 9522,
      "##agger": 9523,
      "##agged": 9524,
      "##uding": 9525,
      "coat": 9526,
      "assass": 9527,
      "recons": 9528,
      "counts": 9529,
      "ideal": 9530,
      "clearer": 9531,
      "advanced": 9532,
      "medi": 9533,
      "password": 9534,
      "substit": 9535,
      "salute": 9536,
      "hungarian": 9537,
      "ultimately": 9538,
      "motivated": 9539,
      "empty": 9540,
      "rm": 9541,
      "rome": 9542,
      "sri": 9543,
      "##apt": 9544,
      "##tv": 9545,
      "thin": 9546,
      "##orum": 9547,
      "sep": 9548,
      "fran": 9549,
      "intim": 9550,
      "grade": 9551,
      "incivility": 9552,
      "tempor": 9553,
      "amongst": 9554,
      "surprise": 9555,
      "heaven": 9556,
      "soul": 9557,
      "applicable": 9558,
      "barely": 9559,
      "pin": 9560,
      "pink": 9561,
      "##uv": 9562,
      "##jg": 9563,
      "rely": 9564,
      "ont": 9565,
      "selling": 9566,
      "##pelled": 9567,
      "quiet": 9568,
      "persec": 9569,
      "factors": 9570,
      "commit": 9571,
[...]
